<unk>	0
<s>	0
</s>	0
▁а	-0
ра	-1
▁и	-2
әа	-3
ара	-4
еи	-5
ла	-6
▁,	-7
▁.	-8
әы	-9
ар	-10
ан	-11
тә	-12
▁у	-13
▁р	-14
ҭа	-15
оу	-16
ьы	-17
қәа	-18
▁иа	-19
▁ҳ	-20
зы	-21
ны	-22
ьа	-23
на	-24
иа	-25
уа	-26
▁д	-27
ыр	-28
▁ах	-29
цәа	-30
гьы	-31
ит	-32
▁ш	-33
ма	-34
қә	-35
ԥс	-36
▁1	-37
еит	-38
ԥш	-39
за	-40
ба	-41
ҟа	-42
ҳа	-43
▁з	-44
▁:	-45
ха	-46
ҵа	-47
▁аи	-48
ҿы	-49
хь	-50
оит	-51
▁еи	-52
ка	-53
хы	-54
тәи	-55
шь	-56
▁ры	-57
ры	-58
әара	-59
га	-60
▁аԥс	-61
▁ар	-62
▁с	-63
ус	-64
▁аб	-65
▁)	-66
▁уи	-67
ӡа	-68
▁ак	-69
ҩы	-70
да	-71
хьа	-72
▁@	-73
го	-74
-@	-75
▁@-@	-76
▁2	-77
▁ҳа	-78
▁ан	-79
▁(	-80
оуп	-81
лар	-82
▁?	-83
он	-84
ын	-85
▁аха	-86
ҳәа	-87
▁ам	-88
гәы	-89
ша	-90
са	-91
ыл	-92
▁м	-93
▁на	-94
жә	-95
аны	-96
▁ад	-97
ис	-98
гәа	-99
▁ра	-100
▁«	-101
ва	-102
▁»	-103
ҳә	-104
зар	-105
хә	-106
шьа	-107
шә	-108
▁ауа	-109
ҩа	-110
ыз	-111
▁ма	-112
ана	-113
шәа	-114
жь	-115
▁аа	-116
тәы	-117
▁ие	-118
цә	-119
▁да	-120
▁иара	-121
рҭ	-122
жәа	-123
▁аҟ	-124
ин	-125
ҵара	-126
әыр	-127
▁б	-128
ес	-129
▁аԥсны	-130
уеит	-131
уп	-132
гә	-133
▁иего	-134
ура	-135
ԥа	-136
▁ала	-137
▁нас	-138
дыр	-139
▁из	-140
▁ал	-141
▁иегова	-142
ԥхьа	-143
▁анцәа	-144
ри	-145
ҭы	-146
▁уа	-147
ор	-148
▁ир	-149
▁азы	-150
▁зе	-151
ыла	-152
мҭа	-153
ықә	-154
▁аус	-155
▁насгьы	-156
▁ҳара	-157
▁ҳәа	-158
хра	-159
▁л	-160
әын	-161
гь	-162
гара	-163
ом	-164
▁ауаа	-165
▁аҳ	-166
▁аҿы	-167
▁ап	-168
аи	-169
▁3	-170
▁ана	-171
▁аз	-172
▁—	-173
▁иш	-174
хәы	-175
ер	-176
ым	-177
ли	-178
ареи	-179
▁иҟ	-180
▁–	-181
▁к	-182
▁иҟа	-183
▁аӡ	-184
оз	-185
бан	-186
ҩаԥ	-187
▁шә	-188
▁п	-189
▁иры	-190
▁ақ	-191
бжь	-192
бас	-193
зиа	-194
лиа	-195
▁урҭ	-196
ала	-197
ль	-198
ур	-199
▁аԥ	-200
▁ас	-201
ен	-202
циа	-203
хәа	-204
▁;	-205
кәа	-206
▁аҭа	-207
▁зы	-208
қәеи	-209
гыл	-210
▁е	-211
заара	-212
лш	-213
▁иис	-214
тәыла	-215
▁иисус	-216
қь	-217
▁зегьы	-218
џь	-219
арра	-220
▁ажәа	-221
хара	-222
ықәса	-223
иб	-224
кы	-225
ир	-226
ист	-227
▁ин	-228
жәлар	-229
▁ари	-230
▁ус	-231
ӷә	-232
гыла	-233
ол	-234
▁ама	-235
▁убас	-236
әынҭ	-237
ҩцәа	-238
▁им	-239
бара	-240
зара	-241
▁ина	-242
▁4	-243
әынҭқ	-244
зеи	-245
▁шәа	-246
заа	-247
▁ахь	-248
▁иаҳ	-249
▁рзы	-250
▁“	-251
цәеи	-252
ек	-253
▁реи	-254
әынҭқарра	-255
каа	-256
ыс	-257
▁”	-258
▁ац	-259
иблиа	-260
▁иаз	-261
ҳара	-262
▁аф	-263
▁абиблиа	-264
қәыр	-265
та	-266
ҽа	-267
ти	-268
реи	-269
▁аҳәынҭқарра	-270
зи	-271
лара	-272
ҭыԥ	-273
▁агә	-274
▁ҟа	-275
ынтә	-276
▁уб	-277
▁х	-278
▁аш	-279
ос	-280
рақәа	-281
ҿа	-282
▁5	-283
ҳәара	-284
ӡара	-285
▁аҭ	-286
неи	-287
▁шықәса	-288
шьҭа	-289
моу	-290
▁ла	-291
ро	-292
▁иар	-293
▁аҩ	-294
▁иҳа	-295
тәа	-296
▁аҵ	-297
ӷь	-298
▁избан	-299
▁иҟоу	-300
▁агәы	-301
▁ха	-302
▁бзиа	-303
▁н	-304
ди	-305
▁аны	-306
▁иу	-307
▁убри	-308
▁ша	-309
арақәа	-310
ԥса	-311
ҭах	-312
▁аамҭа	-313
ҳәеит	-314
▁!	-315
есс	-316
▁иан	-317
кә	-318
уаз	-319
ҭаа	-320
▁рыла	-321
▁иаа	-322
ет	-323
ьыр	-324
ҭра	-325
▁иха	-326
▁6	-327
ҵә	-328
кны	-329
арц	-330
ку	-331
▁20	-332
ил	-333
ԥсы	-334
▁19	-335
цхра	-336
еиԥш	-337
▁10	-338
кыл	-339
хоит	-340
әым	-341
▁еиԥш	-342
ҭоу	-343
▁има	-344
си	-345
уан	-346
▁аиа	-347
ҟь	-348
▁ду	-349
ов	-350
ча	-351
▁зегь	-352
шара	-353
заргьы	-354
▁дара	-355
▁сара	-356
▁агәа	-357
хо	-358
▁хы	-359
▁7	-360
шәара	-361
бар	-362
▁ахәы	-363
зыр	-364
ҟә	-365
▁за	-366
▁аҟа	-367
гылара	-368
▁са	-369
ӷәӷ	-370
лы	-371
арԥш	-372
▁аҟынтә	-373
▁ат	-374
▁аҳа	-375
▁ды	-376
▁рҟ	-377
▁ара	-378
лаҳ	-379
▁рахь	-380
ратә	-381
сы	-382
▁аҟәа	-383
▁ахә	-384
ца	-385
ҭар	-386
ем	-387
доу	-388
хәыц	-389
▁рҿы	-390
▁иахьа	-391
ҟәы	-392
▁8	-393
▁аҵа	-394
ҭазаара	-395
▁ԥ	-396
▁в	-397
ел	-398
▁ауп	-399
▁аг	-400
▁11	-401
лоит	-402
ресс	-403
▁9	-404
▁иԥа	-405
▁15	-406
▁12	-407
▁аба	-408
▁шәы	-409
▁ажәабжь	-410
▁г	-411
лшо	-412
ҵо	-413
▁иша	-414
▁ақә	-415
▁ав	-416
заашьа	-417
алақь	-418
ларц	-419
бжьара	-420
▁&	-421
▁аҽ	-422
ент	-423
гӡ	-424
иҭ	-425
хар	-426
ҷы	-427
▁егьы	-428
цхраа	-429
мзаргьы	-430
хыр	-431
▁ауаҩы	-432
ло	-433
▁ҩы	-434
▁егьырҭ	-435
▁жәлар	-436
гьыл	-437
▁ахада	-438
▁иала	-439
инист	-440
рыс	-441
ҵаз	-442
▁аду	-443
▁аса	-444
▁гәы	-445
▁аԥсуа	-446
ҳәоит	-447
ҟьа	-448
лак	-449
▁ф	-450
▁мамзаргьы	-451
ьын	-452
ҵз	-453
▁аҭыԥ	-454
▁14	-455
лоу	-456
ҩаԥыс	-457
шьҭахь	-458
инистр	-459
▁шәара	-460
ӡам	-461
▁13	-462
уль	-463
▁еиҳа	-464
▁иб	-465
▁амш	-466
▁ииа	-467
зыҟа	-468
хьӡ	-469
▁ахы	-470
кра	-471
џьа	-472
▁акә	-473
▁ҭ	-474
ера	-475
▁раԥхьа	-476
ед	-477
▁ес	-478
▁адунеи	-479
▁ашьа	-480
лан	-481
гоит	-482
▁рхы	-483
ԥшь	-484
▁ашә	-485
анӡа	-486
▁ди	-487
▁иарбан	-488
шьҭ	-489
ԥша	-490
▁аҟны	-491
ика	-492
▁агәра	-493
▁шьа	-494
от	-495
ӷәӷәа	-496
▁изы	-497
▁даара	-498
ҳәы	-499
ҳәо	-500
▁ацә	-501
▁ишԥа	-502
▁аизара	-503
геит	-504
ацәа	-505
▁дыр	-506
цәы	-507
уб	-508
▁ашәа	-509
▁аҿ	-510
▁урыс	-511
▁ақалақь	-512
ӡом	-513
дара	-514
ԥхь	-515
хәаԥш	-516
ызт	-517
ҵаара	-518
ҩаԥга	-519
▁&#	-520
шьра	-521
▁аин	-522
ҵеит	-523
каара	-524
▁ада	-525
▁ихы	-526
хаҵара	-527
▁ио	-528
хгара	-529
▁17	-530
ҩс	-531
▁16	-532
▁шь	-533
хыра	-534
ҵәа	-535
хьч	-536
гьа	-537
▁т	-538
ҿыц	-539
ани	-540
ст	-541
ҭеит	-542
▁&#9	-543
▁инар	-544
▁ба	-545
лшоит	-546
▁атәыла	-547
▁иажәа	-548
ду	-549
жәара	-550
нар	-551
ырԥш	-552
хеит	-553
ҷқәа	-554
ьырси	-555
▁аԥса	-556
▁аҵара	-557
▁18	-558
▁ҭа	-559
ыхә	-560
ьырсиан	-561
▁уара	-562
бо	-563
▁иахь	-564
▁иц	-565
▁аҭаацәа	-566
ион	-567
ҟан	-568
▁па	-569
▁ка	-570
чы	-571
тәу	-572
арт	-573
жьы	-574
▁даҽа	-575
▁абри	-576
цәажә	-577
ҭара	-578
хын	-579
▁ашьҭахь	-580
кәан	-581
▁аҳәынҭқарратә	-582
▁апро	-583
▁иҳәеит	-584
▁аан	-585
▁аҩы	-586
ҳар	-587
▁абз	-588
▁адгьыл	-589
ид	-590
▁еил	-591
рҭа	-592
ҭеи	-593
▁иреи	-594
им	-595
ӡыр	-596
хәара	-597
▁ц	-598
ыҟа	-599
ҵоит	-600
▁урыстәыла	-601
▁ис	-602
ырг	-603
▁аллаҳ	-604
▁-	-605
куа	-606
иара	-607
гылазаашьа	-608
▁рҟын	-609
тура	-610
▁игәа	-611
ци	-612
▁аусура	-613
лам	-614
▁ака	-615
хьы	-616
▁иҭа	-617
ԥсҭазаара	-618
пресс	-619
▁ии	-620
мза	-621
оуҳа	-622
ни	-623
шықәса	-624
▁ақьырсиан	-625
▁анаҩс	-626
леи	-627
▁аила	-628
дыруа	-629
ҵзура	-630
▁алш	-631
▁аза	-632
ынч	-633
нак	-634
тат	-635
сҭа	-636
▁иал	-637
шьара	-638
па	-639
ҭәа	-640
даҩ	-641
цара	-642
▁ажә	-643
▁адыр	-644
▁аԥсныпресс	-645
▁ау	-646
ариа	-647
▁арҭ	-648
▁аҳәа	-649
гра	-650
гәеи	-651
қәы	-652
гӡара	-653
▁аԥы	-654
▁мин	-655
ыхәтәа	-656
ҟәа	-657
цәажәара	-658
▁џь	-659
▁иҟала	-660
ект	-661
мыр	-662
ҟьаны	-663
▁акон	-664
▁иоан	-665
ызшәа	-666
пор	-667
ӡба	-668
кыла	-669
рыц	-670
лика	-671
ху	-672
▁змоу	-673
ԥҳа	-674
ҵаны	-675
ев	-676
гәыр	-677
▁зны	-678
бы	-679
тер	-680
зиабара	-681
ԥыл	-682
ықәс	-683
шы	-684
хыраара	-685
бырг	-686
▁избанзар	-687
ьым	-688
ҟара	-689
▁ҳаз	-690
▁аиҳа	-691
ԥшуа	-692
▁аҵыхәтәа	-693
▁ҿыц	-694
▁жә	-695
газ	-696
ҵар	-697
зым	-698
▁сы	-699
тәра	-700
дҳәа	-701
есп	-702
▁анап	-703
ҭаху	-704
▁аарԥш	-705
ҟоу	-706
озеи	-707
ҳаҭ	-708
хаз	-709
ҩан	-710
▁ишә	-711
ублика	-712
лтә	-713
▁ач	-714
уаа	-715
феи	-716
аҭ	-717
цәаны	-718
шьцәеи	-719
▁аж	-720
баа	-721
гәра	-722
ила	-723
▁мат	-724
▁ҳар	-725
▁аусқәа	-726
ик	-727
▁амҩа	-728
ҭаз	-729
▁201	-730
ҵаарақәа	-731
башьра	-732
▁ахәа	-733
ле	-734
шәы	-735
▁иоанн	-736
▁иза	-737
уаҩ	-738
ҭаацәа	-739
алак	-740
▁гәа	-741
мҩаԥга	-742
ҵана	-743
гәеиҭеит	-744
ҳәыс	-745
▁аҭак	-746
▁игәы	-747
рых	-748
▁о	-749
▁га	-750
▁иаана	-751
леит	-752
ҵаа	-753
▁иааи	-754
ҩык	-755
▁ҳаи	-756
▁хәы	-757
▁ира	-758
ҵра	-759
▁рым	-760
ҭақәа	-761
рист	-762
▁21	-763
▁иеи	-764
гәыӷ	-765
▁ашь	-766
ӡырҩ	-767
▁абас	-768
оура	-769
▁имаҵ	-770
ҭыр	-771
▁ил	-772
▁идыр	-773
мам	-774
ҩыз	-775
▁ид	-776
ԥшра	-777
▁шықәсазы	-778
гоу	-779
мы	-780
жьа	-781
маз	-782
▁абар	-783
▁дыз	-784
▁имҩаԥыс	-785
▁лас	-786
▁лара	-787
қәыршәа	-788
▁ажәлар	-789
▁ны	-790
шәо	-791
▁аминистр	-792
▁акыр	-793
хәҭоу	-794
ҭак	-795
▁ишьа	-796
хи	-797
▁иаҳҳәа	-798
сҭаа	-799
▁пав	-800
▁иҟоуп	-801
▁христ	-802
▁атәы	-803
▁лассы	-804
▁пи	-805
фа	-806
▁22	-807
зхәыц	-808
ари	-809
ту	-810
гӡа	-811
▁рҟынӡа	-812
▁христос	-813
▁ихьӡ	-814
▁аур	-815
▁иана	-816
▁лы	-817
▁ҳәара	-818
ҭан	-819
кол	-820
мҭақәа	-821
ӷа	-822
раа	-823
қьа	-824
ӷәӷә	-825
заалак	-826
▁аҭагылазаашьа	-827
орма	-828
▁араион	-829
қәиҭ	-830
ҿырԥш	-831
ҵәы	-832
▁аил	-833
▁рха	-834
▁иқә	-835
▁агәыр	-836
▁мап	-837
рц	-838
хьала	-839
▁иҟаз	-840
▁абаза	-841
порт	-842
▁24	-843
ԥхара	-844
кылара	-845
пы	-846
ҳаны	-847
▁аԥа	-848
ыц	-849
▁еиҿ	-850
▁ахәыҷқәа	-851
кала	-852
▁павел	-853
аим	-854
хга	-855
лым	-856
▁еила	-857
тор	-858
▁зын	-859
гӡаны	-860
▁шаҟа	-861
▁амч	-862
екс	-863
▁аҩсҭаа	-864
ука	-865
ӡоу	-866
тәқәа	-867
▁ииаша	-868
еспублика	-869
▁ргәы	-870
ҷк	-871
ҭыс	-872
▁ӷәӷәа	-873
гар	-874
▁адоуҳа	-875
▁25	-876
▁аԥсҭазаара	-877
▁ва	-878
шьцәа	-879
еиԥшым	-880
▁аҟын	-881
зиара	-882
хьоу	-883
▁пиот	-884
▁ҳәарада	-885
ҵаҩцәа	-886
▁абзиабара	-887
ӷьара	-888
лом	-889
▁23	-890
ҷа	-891
▁ахьы	-892
▁аҿа	-893
▁ч	-894
ҵы	-895
▁усҟан	-896
▁ашықәс	-897
▁ирыз	-898
▁ила	-899
уҩцәа	-900
хыз	-901
икатә	-902
▁ақьырсианцәа	-903
ӷьа	-904
едера	-905
ира	-906
▁кор	-907
ки	-908
бжьаратәи	-909
▁аҩны	-910
▁азин	-911
▁дыш	-912
▁алшоит	-913
шәыр	-914
▁аиҭа	-915
мызт	-916
иатә	-917
ҩны	-918
▁азакәан	-919
▁дры	-920
нагь	-921
▁иану	-922
ныҳәа	-923
ҭахуп	-924
▁рыбжьара	-925
▁ашәҟәы	-926
ум	-927
▁иах	-928
ҟоуп	-929
▁ҵа	-930
▁ргәа	-931
▁еснагь	-932
кьа	-933
наҳа	-934
ост	-935
▁аџь	-936
1;	-937
3;	-938
▁&#91;	-939
▁&#93;	-940
згьы	-941
лас	-942
кь	-943
қәыршәаны	-944
зааи	-945
ҳалшо	-946
қәра	-947
▁жәа	-948
▁гә	-949
▁ахар	-950
шо	-951
▁иԥ	-952
џьым	-953
ҭоуп	-954
▁рауль	-955
▁аӡбара	-956
▁иаҳҳәап	-957
▁аком	-958
ҟар	-959
▁абиблиатә	-960
хьчара	-961
қәоу	-962
▁азҵаарақәа	-963
аира	-964
▁иҟаи	-965
▁акы	-966
▁бызшәа	-967
▁ацхыраара	-968
▁аҽа	-969
▁аҟаҵара	-970
▁ахәҭа	-971
▁дан	-972
▁раа	-973
ган	-974
ок	-975
боит	-976
лыр	-977
▁урыстәылатәи	-978
шаз	-979
ҵҟа	-980
ог	-981
қәи	-982
лароуп	-983
▁ҳаџьым	-984
▁пиотр	-985
лҵ	-986
▁аиҿ	-987
▁зхы	-988
▁ареспублика	-989
иу	-990
цыр	-991
цәыр	-992
▁изра	-993
▁аԥхьа	-994
▁ҩык	-995
▁иазгәеиҭеит	-996
гала	-997
▁афедера	-998
▁апр	-999
▁рус	-1000
▁актәи	-1001
илаҭ	-1002
▁ааи	-1003
гақәа	-1004
шоу	-1005
▁мҩаԥ	-1006
қәша	-1007
барҭа	-1008
▁аӡә	-1009
▁аре	-1010
ҭарнак	-1011
▁ихадоу	-1012
00	-1013
олит	-1014
ԥхьаӡ	-1015
ҭо	-1016
нтәи	-1017
▁иаан	-1018
▁иԥс	-1019
▁иазку	-1020
▁ауадаҩ	-1021
▁иадҳәа	-1022
уеи	-1023
▁ишәы	-1024
▁апар	-1025
▁аамҭазы	-1026
ӡаа	-1027
сра	-1028
шаны	-1029
▁азҵаара	-1030
оукы	-1031
уеиԥшым	-1032
ҿиара	-1033
▁рм	-1034
▁ҳхы	-1035
шәоит	-1036
уреи	-1037
▁ҳаџьымба	-1038
▁жәларбжьаратәи	-1039
батәи	-1040
▁хада	-1041
▁аԥша	-1042
тра	-1043
галара	-1044
▁шы	-1045
▁иҭ	-1046
▁мҩаԥыс	-1047
хьан	-1048
бра	-1049
ультура	-1050
анд	-1051
ҭала	-1052
▁уажә	-1053
▁инаркны	-1054
тәуп	-1055
▁еиуеиԥшым	-1056
▁аҩыза	-1057
▁иса	-1058
цхраауеит	-1059
▁ҩ	-1060
ема	-1061
ԥха	-1062
иль	-1063
ҵәҟьа	-1064
▁30	-1065
жьра	-1066
▁иоуп	-1067
қәак	-1068
џьын	-1069
▁еиҭа	-1070
ши	-1071
шьы	-1072
ак	-1073
▁аԥснытәи	-1074
кәу	-1075
аит	-1076
ырха	-1077
▁аӡәы	-1078
▁алшара	-1079
ҳәаз	-1080
▁иҟалап	-1081
ҵәара	-1082
▁аԥш	-1083
▁ҳзы	-1084
ԥара	-1085
▁астат	-1086
хоз	-1087
▁ақы	-1088
цәажәа	-1089
▁мацара	-1090
хыс	-1091
▁аӡы	-1092
▁иҽ	-1093
ҟәара	-1094
▁ҟаи	-1095
циатә	-1096
ҭгьы	-1097
кылеит	-1098
▁..	-1099
антәа	-1100
▁ао	-1101
ныҟә	-1102
лареи	-1103
из	-1104
иас	-1105
ӡбахә	-1106
боу	-1107
чара	-1108
▁аҭоу	-1109
▁аҳәаа	-1110
цәгьа	-1111
▁аӡәыр	-1112
▁амаҵ	-1113
▁ауеит	-1114
▁рҟынтә	-1115
▁28	-1116
остол	-1117
ҵанакуа	-1118
▁аҭы	-1119
ун	-1120
▁иак	-1121
▁дала	-1122
ԥхьара	-1123
▁анаԥ	-1124
▁анагӡара	-1125
▁аура	-1126
▁ашкол	-1127
▁аныҳәа	-1128
уазар	-1129
тр	-1130
▁ши	-1131
▁аиаша	-1132
▁иаб	-1133
▁инеи	-1134
од	-1135
▁ацәа	-1136
▁аҭоурых	-1137
▁раԥхьатәи	-1138
еп	-1139
▁қ	-1140
тив	-1141
▁нап	-1142
зыҟазаашьа	-1143
▁26	-1144
▁аҭаацәара	-1145
ко	-1146
▁иажәақәа	-1147
▁лука	-1148
цәгь	-1149
▁ԥсы	-1150
ман	-1151
гресс	-1152
▁астатиа	-1153
▁аарԥшра	-1154
рра	-1155
ԥы	-1156
▁аӡәырҩы	-1157
▁раԥхьаӡа	-1158
▁ажәабжьҳәара	-1159
тәара	-1160
олог	-1161
▁ҳгәы	-1162
ӷәӷәара	-1163
гыланы	-1164
▁аҵабырг	-1165
ламент	-1166
ԥылара	-1167
жәы	-1168
▁амаҵзура	-1169
шьҭра	-1170
қәҵа	-1171
ԥсыра	-1172
▁амц	-1173
▁аиҳабы	-1174
▁аилкаара	-1175
бзиара	-1176
ԥхьаӡара	-1177
хам	-1178
▁ирыла	-1179
▁адагьы	-1180
ҩаԥгара	-1181
▁ахыр	-1182
▁мар	-1183
▁иареи	-1184
▁аибашьра	-1185
ҳарԥш	-1186
▁роуп	-1187
еон	-1188
мԥа	-1189
▁...	-1190
▁ахьа	-1191
ары	-1192
▁ибзи	-1193
▁/	-1194
▁ы	-1195
▁ахантәа	-1196
▁ахьӡ	-1197
▁ажәақәа	-1198
ҭоит	-1199
▁шьоукы	-1200
зарц	-1201
ԥшьоу	-1202
хуа	-1203
ми	-1204
▁инақәыршәаны	-1205
ель	-1206
ҭахы	-1207
лаз	-1208
еиц	-1209
ԥхы	-1210
дент	-1211
сиа	-1212
зыԥш	-1213
қәиҭра	-1214
беи	-1215
ԥхьаӡа	-1216
▁ҳалшоит	-1217
ӷра	-1218
ҵуа	-1219
▁апарламент	-1220
мкәа	-1221
▁шәаԥхьа	-1222
храқәа	-1223
бр	-1224
▁афедерациа	-1225
▁ԥы	-1226
▁иԥшьоу	-1227
▁матфеи	-1228
еилак	-1229
ҳарак	-1230
ҳауа	-1231
▁аиааира	-1232
анагара	-1233
шыҩ	-1234
▁апостол	-1235
▁аҩа	-1236
ҵоу	-1237
▁вла	-1238
▁рацәа	-1239
▁27	-1240
▁аспорт	-1241
▁рминистр	-1242
гы	-1243
мԥада	-1244
қәҵара	-1245
▁ахантәаҩы	-1246
▁еиз	-1247
▁рыц	-1248
гылаз	-1249
▁аҟынтәи	-1250
▁хә	-1251
дырхә	-1252
зшьа	-1253
▁рыз	-1254
▁аҳра	-1255
▁ахҭыс	-1256
▁иеиԥш	-1257
▁рыр	-1258
ҳаҭра	-1259
▁ихаҭыԥ	-1260
▁дар	-1261
форма	-1262
▁иазгәа	-1263
▁ҳан	-1264
▁арыц	-1265
рыз	-1266
то	-1267
▁мо	-1268
қәшәа	-1269
▁иарбоу	-1270
би	-1271
зыӡырҩ	-1272
▁ти	-1273
▁иазкны	-1274
▁абиблиаҿы	-1275
џьынџь	-1276
ести	-1277
вид	-1278
оном	-1279
▁ажәҩан	-1280
кәы	-1281
ҳауеит	-1282
цхраауа	-1283
▁сам	-1284
маа	-1285
▁ауаажәлар	-1286
▁ауааԥсыра	-1287
еин	-1288
▁наӡа	-1289
▁тәи	-1290
▁ԥс	-1291
қәиҭу	-1292
▁аԥааим	-1293
▁ани	-1294
хәыҷқәа	-1295
▁акәзар	-1296
қәыргылара	-1297
▁аусмҩаԥга	-1298
▁иер	-1299
веи	-1300
▁199	-1301
хыҵ	-1302
▁иреиҳа	-1303
исеи	-1304
ӡакәа	-1305
ҵшәа	-1306
▁акәын	-1307
▁кон	-1308
▁ацәгь	-1309
▁иҿа	-1310
ҟьара	-1311
▁аԥсы	-1312
цы	-1313
геи	-1314
кыз	-1315
лаҳкаа	-1316
мма	-1317
▁аҳауа	-1318
▁иаша	-1319
▁мааҭ	-1320
хгаҩы	-1321
цәажәо	-1322
ӡо	-1323
▁ишԥ	-1324
▁агана	-1325
ҳәшьцәеи	-1326
ырц	-1327
бала	-1328
▁ауадаҩрақәа	-1329
▁иуа	-1330
ҟаҵара	-1331
▁асахьа	-1332
гәрахаҵара	-1333
▁кәа	-1334
гыло	-1335
мб	-1336
▁апа	-1337
▁ааԥхьара	-1338
▁ганы	-1339
ҩса	-1340
▁ахақәиҭра	-1341
ерс	-1342
ланы	-1343
ҳәар	-1344
оск	-1345
▁ишьақә	-1346
▁29	-1347
тәыҩса	-1348
лазаара	-1349
ҵоз	-1350
лаԥш	-1351
▁тим	-1352
хратә	-1353
▁аџьа	-1354
те	-1355
ӡеит	-1356
бацәа	-1357
заана	-1358
▁́	-1359
▁ҿ	-1360
▁адырра	-1361
▁ҭыԥ	-1362
она	-1363
▁реизара	-1364
▁атур	-1365
▁иаанаго	-1366
зыҟазаашьақәа	-1367
▁акгьы	-1368
еле	-1369
▁аҳә	-1370
▁аиԥш	-1371
▁аинтер	-1372
▁азгәа	-1373
▁злоу	-1374
▁адҵа	-1375
▁давид	-1376
▁аҭынч	-1377
▁аҩбатәи	-1378
▁змам	-1379
▁ацәгьа	-1380
▁иус	-1381
ҵахыр	-1382
▁доуҳа	-1383
▁ԥса	-1384
бла	-1385
мп	-1386
гылоу	-1387
маана	-1388
әыӷ	-1389
куеит	-1390
▁моск	-1391
▁иануп	-1392
▁агәнаҳа	-1393
▁ҳры	-1394
артә	-1395
▁абарҭ	-1396
беит	-1397
доуҳа	-1398
▁ҳам	-1399
▁раан	-1400
гәала	-1401
▁ажәы	-1402
ҭын	-1403
▁даараӡа	-1404
▁рына	-1405
зу	-1406
▁ахәыҷы	-1407
ҳәон	-1408
▁аҵыхәтәантәи	-1409
хит	-1410
▁апроект	-1411
▁аҟазаара	-1412
хәра	-1413
дырԥш	-1414
▁реиԥш	-1415
▁маҵзура	-1416
▁их	-1417
▁аек	-1418
▁иов	-1419
▁амилаҭ	-1420
егь	-1421
▁рна	-1422
▁аԥара	-1423
▁про	-1424
▁аӡба	-1425
▁анапхгара	-1426
ут	-1427
▁ианы	-1428
▁иадҳәалоу	-1429
қәшәо	-1430
▁амшын	-1431
ныҟәа	-1432
▁еиӷь	-1433
▁зеиԥш	-1434
▁иҟар	-1435
по	-1436
▁ашәы	-1437
ыԥ	-1438
ҵон	-1439
▁аԥхь	-1440
раала	-1441
грамма	-1442
оурала	-1443
мыз	-1444
▁аԥҳәыс	-1445
▁ажәамаана	-1446
▁роу	-1447
гылеит	-1448
ҭарнакцәа	-1449
ҭас	-1450
ҳәоз	-1451
▁дш	-1452
▁есы	-1453
no	-1454
иф	-1455
▁no	-1456
▁зынӡа	-1457
ҵәҟь	-1458
ҷыда	-1459
хақәа	-1460
ҷкәын	-1461
▁уаанӡа	-1462
▁иаар	-1463
▁ҽ	-1464
▁имаҵз	-1465
ԥхьаҟа	-1466
▁матф	-1467
▁адыррақәа	-1468
▁инхо	-1469
ҭны	-1470
тәылатәи	-1471
▁москва	-1472
аниа	-1473
▁ухы	-1474
▁аҭара	-1475
цәажәеит	-1476
▁хымԥада	-1477
▁адоуҳатә	-1478
ӡы	-1479
▁аҭҵаара	-1480
ҵаҩ	-1481
▁ибзианы	-1482
рак	-1483
▁еибашьра	-1484
зароуп	-1485
▁ишаҳаҭ	-1486
гӡо	-1487
ырҭ	-1488
▁но	-1489
бжьа	-1490
▁ижәлар	-1491
▁аҳәара	-1492
▁иҿы	-1493
ҳәаҩ	-1494
▁ирҭа	-1495
▁аме	-1496
▁дани	-1497
▁наӡаӡа	-1498
алы	-1499
▁31	-1500
▁аӷ	-1501
▁иҩ	-1502
▁хәа	-1503
ҵәҟьаны	-1504
нал	-1505
мен	-1506
▁иаҳнар	-1507
роу	-1508
дим	-1509
хьча	-1510
▁уаԥхьа	-1511
▁рҟынтәи	-1512
▁уажәы	-1513
ныр	-1514
ԥхықәра	-1515
харц	-1516
зыз	-1517
кқәа	-1518
еинраала	-1519
▁анеи	-1520
гәырӷь	-1521
али	-1522
гатә	-1523
▁иац	-1524
нтә	-1525
шьеи	-1526
▁ишы	-1527
▁аҽы	-1528
▁ахьчара	-1529
▁алекс	-1530
хны	-1531
деи	-1532
анда	-1533
▁ахаан	-1534
▁израил	-1535
қәым	-1536
цәеижь	-1537
цип	-1538
▁ком	-1539
▁реиҳа	-1540
▁аҟнытә	-1541
▁аиз	-1542
ҵареи	-1543
ԥхьагәа	-1544
▁корин	-1545
▁деи	-1546
дырра	-1547
▁ҳгәа	-1548
▁руа	-1549
кт	-1550
оциа	-1551
▁еилаҳкаа	-1552
▁аилатәара	-1553
или	-1554
мад	-1555
меи	-1556
▁ри	-1557
▁ҳаҭыр	-1558
▁моисеи	-1559
ӡә	-1560
итет	-1561
ӡаны	-1562
алықь	-1563
▁доуҳала	-1564
▁акультура	-1565
цәоуп	-1566
еа	-1567
гоз	-1568
ҟны	-1569
кыра	-1570
▁зху	-1571
▁аԥыза	-1572
▁ииашоу	-1573
▁ахара	-1574
▁ахархәара	-1575
▁шры	-1576
▁уахь	-1577
▁ихаҭыԥуаҩ	-1578
▁аконгресс	-1579
▁ишԥаҳалшо	-1580
инцип	-1581
▁иахҟьаны	-1582
▁пр	-1583
ҭаны	-1584
мчы	-1585
▁еиҵаны	-1586
ды	-1587
шьны	-1588
ымкәа	-1589
ҟаз	-1590
дгьыл	-1591
▁аполит	-1592
▁имаҵзуҩцәа	-1593
▁иаԥ	-1594
каауа	-1595
▁уҳәа	-1596
фаа	-1597
ыҟам	-1598
ҵоуп	-1599
антәи	-1600
▁агәырӷьара	-1601
кәша	-1602
▁аҳәаақәа	-1603
кыс	-1604
▁ҩа	-1605
циақәа	-1606
хәҭа	-1607
қәыԥш	-1608
чра	-1609
▁иҳәа	-1610
еицура	-1611
вка	-1612
рым	-1613
стит	-1614
▁иди	-1615
▁аиқәша	-1616
кыло	-1617
ганы	-1618
▁хаҭала	-1619
▁коринфаа	-1620
▁аиҳабацәа	-1621
ӡбара	-1622
хәыла	-1623
ҽны	-1624
хьеит	-1625
▁шәахәаԥш	-1626
шәала	-1627
▁зынла	-1628
▁жәҩан	-1629
ԥшаа	-1630
▁авид	-1631
▁еиқә	-1632
▁аарт	-1633
ьаа	-1634
▁иҵаҩцәа	-1635
ҩра	-1636
емиа	-1637
▁заа	-1638
буп	-1639
▁ишьҭ	-1640
ot	-1641
qu	-1642
ҭыҵ	-1643
quot	-1644
▁аҿырԥш	-1645
▁дана	-1646
дкыла	-1647
▁акәым	-1648
▁аӡәгьы	-1649
фи	-1650
гәара	-1651
ҵеи	-1652
▁мы	-1653
▁аҩныҵҟа	-1654
▁200	-1655
▁аӡыр	-1656
▁иԥсы	-1657
▁хықә	-1658
зқь	-1659
мит	-1660
▁агәаҟ	-1661
ҩыс	-1662
итера	-1663
▁адҿ	-1664
▁ҟала	-1665
мазара	-1666
▁раасҭа	-1667
▁ишаҳаҭцәа	-1668
валь	-1669
▁асп	-1670
ԥшым	-1671
▁ацәыр	-1672
лон	-1673
▁инап	-1674
зына	-1675
▁ҟаиҵеит	-1676
ҳәарала	-1677
гон	-1678
▁алҵшәа	-1679
▁00	-1680
▁игә	-1681
ҭынч	-1682
▁министр	-1683
▁иԥсҭазаара	-1684
▁иҷы	-1685
естиваль	-1686
лав	-1687
риа	-1688
▁аҟә	-1689
▁аиба	-1690
▁ҳаргьы	-1691
▁иҟаиҵаз	-1692
▁аизараҿы	-1693
▁аинформа	-1694
▁иаарт	-1695
уӷа	-1696
роши	-1697
ран	-1698
иашара	-1699
бжьы	-1700
▁дша	-1701
▁изла	-1702
сабала	-1703
▁иаҳра	-1704
ук	-1705
ласны	-1706
▁пату	-1707
хәу	-1708
▁мил	-1709
ҵшьны	-1710
рошиура	-1711
▁еилыр	-1712
▁усура	-1713
▁иҷыдоу	-1714
ант	-1715
▁зла	-1716
▁имҩа	-1717
▁кавка	-1718
▁аԥхьара	-1719
▁аиԥылара	-1720
бз	-1721
зыл	-1722
▁гәык	-1723
▁маҷ	-1724
▁уаҳа	-1725
▁агара	-1726
▁аишьцәа	-1727
▁*	-1728
ӡын	-1729
қалақь	-1730
▁рҭа	-1731
▁рзеи	-1732
▁еилҳар	-1733
амҭа	-1734
дыруеит	-1735
натә	-1736
тәылеи	-1737
лԥа	-1738
рԥш	-1739
хон	-1740
▁зыӡбахә	-1741
▁ԥш	-1742
иҭеит	-1743
▁ацәы	-1744
▁ҵ	-1745
хьын	-1746
▁ахын	-1747
шҭ	-1748
▁баа	-1749
▁иос	-1750
▁инаҵшьны	-1751
зегь	-1752
▁уажәшьҭа	-1753
рыла	-1754
▁аҽны	-1755
▁ахыла	-1756
еҭ	-1757
ерт	-1758
нир	-1759
▁ауриа	-1760
▁аԥсалом	-1761
ырҭа	-1762
қьара	-1763
ҵозеи	-1764
▁аброшиура	-1765
▁ишәа	-1766
▁нызқь	-1767
▁џьа	-1768
▁иҳамоу	-1769
▁ааир	-1770
▁ҭыр	-1771
куп	-1772
▁владим	-1773
ҩыза	-1774
▁иреиҳаӡоу	-1775
емон	-1776
ҭана	-1777
ӡала	-1778
зегьтәи	-1779
▁уз	-1780
▁афа	-1781
териа	-1782
иссиа	-1783
▁аҿар	-1784
▁владимир	-1785
▁аинтерес	-1786
▁еф	-1787
▁шыҟа	-1788
гылоит	-1789
▁александ	-1790
шьҭы	-1791
зааигәа	-1792
▁аишьцәеи	-1793
▁шәи	-1794
▁идоуҳа	-1795
▁еилы	-1796
▁шьақә	-1797
епу	-1798
▁ми	-1799
ҵан	-1800
орд	-1801
▁иҵа	-1802
▁иҳақәиҭу	-1803
▁абзоурала	-1804
▁ирҭагӡаны	-1805
нагӡа	-1806
▁ажәамаанақәа	-1807
▁амаалықь	-1808
ҩызцәа	-1809
▁акәа	-1810
шәарақәа	-1811
▁абжьы	-1812
▁агәыӷра	-1813
▁анаҩстәи	-1814
урс	-1815
▁ԥхын	-1816
гақәҵа	-1817
▁милли	-1818
омызт	-1819
▁маҷк	-1820
қәгәыӷ	-1821
ех	-1822
▁ек	-1823
▁ҳи	-1824
лери	-1825
▁рим	-1826
▁аҵыхәтәаны	-1827
▁шәааи	-1828
▁еиҿкаа	-1829
▁ақәҵара	-1830
▁рынагӡара	-1831
нцәа	-1832
▁дҟа	-1833
дгыла	-1834
▁иамоу	-1835
▁мариа	-1836
▁еиҳарак	-1837
▁ыҟоуп	-1838
▁иҟалаз	-1839
заалакгьы	-1840
иаа	-1841
▁бзи	-1842
▁ҟар	-1843
▁мҩаԥысит	-1844
хәо	-1845
иабр	-1846
▁иҳәоит	-1847
ҩцәеи	-1848
▁аана	-1849
▁исаиа	-1850
ҟәқәа	-1851
▁иархәа	-1852
▁убасгьы	-1853
▁абжь	-1854
▁го	-1855
хынҳә	-1856
▁рыма	-1857
▁аџьынџь	-1858
▁ашәышықәса	-1859
епутат	-1860
ҵамҭа	-1861
ырхага	-1862
▁аазыр	-1863
хуеит	-1864
каауеит	-1865
▁кавказ	-1866
оп	-1867
хьаа	-1868
▁ааак	-1869
ижь	-1870
ӷьы	-1871
▁валери	-1872
▁иалагеит	-1873
▁напхгара	-1874
ул	-1875
▁израильаа	-1876
▁32	-1877
▁имҩаԥ	-1878
гоуп	-1879
▁иши	-1880
▁уаҟа	-1881
▁шәеи	-1882
баражәа	-1883
ҭаацәара	-1884
▁ру	-1885
смен	-1886
онд	-1887
шәҟәы	-1888
▁ракә	-1889
▁аԥсни	-1890
▁инхоз	-1891
▁цәгьа	-1892
▁алахәыла	-1893
анеи	-1894
урнал	-1895
▁аиҿкаара	-1896
▁еицыр	-1897
▁аиқәшаҳаҭра	-1898
▁бзиақәа	-1899
▁ҟ	-1900
▁ҟалоит	-1901
катә	-1902
офеи	-1903
ханы	-1904
ысра	-1905
▁ачы	-1906
▁ҳха	-1907
кааит	-1908
саа	-1909
▁ауаҩ	-1910
ск	-1911
▁ақәы	-1912
оль	-1913
ӷьу	-1914
▁иоу	-1915
▁иеговеи	-1916
гәаҟ	-1917
инхаҵара	-1918
▁аму	-1919
▁иҟаҳ	-1920
▁арӡын	-1921
▁рхыԥхьаӡара	-1922
▁адә	-1923
зациа	-1924
▁абза	-1925
▁шәры	-1926
▁ҷыда	-1927
▁алар	-1928
▁амца	-1929
истцәа	-1930
лԥхара	-1931
гареи	-1932
▁александр	-1933
▁уеи	-1934
▁ақәыр	-1935
ну	-1936
ҳәозар	-1937
▁аҳаҭыр	-1938
лу	-1939
ҵарц	-1940
▁гәыԥ	-1941
▁тимофеи	-1942
ынҵа	-1943
▁аеконом	-1944
▁атурнир	-1945
хеи	-1946
▁33	-1947
▁аиц	-1948
▁амилаҭтә	-1949
ҟам	-1950
▁му	-1951
елега	-1952
ҳәыси	-1953
▁аиура	-1954
▁адепутат	-1955
▁агәрахаҵара	-1956
гана	-1957
▁сер	-1958
▁иаков	-1959
▁амҩаԥгара	-1960
▁рықә	-1961
туреи	-1962
▁аԥааимбар	-1963
▁ҭырқә	-1964
▁ажәахә	-1965
▁еиҳагьы	-1966
▁дарбан	-1967
▁абызшәа	-1968
жа	-1969
▁имаҷ	-1970
▁еиҳаны	-1971
▁рҽ	-1972
моуп	-1973
▁ижә	-1974
▁ҟаз	-1975
▁угәы	-1976
▁иараз	-1977
▁анхара	-1978
▁35	-1979
▁иосиф	-1980
▁ауриацәа	-1981
▁аусмҩаԥгатә	-1982
ина	-1983
ҟарақәа	-1984
ҭә	-1985
ҿлым	-1986
▁аиқәыр	-1987
▁ааҳарԥш	-1988
▁ахадара	-1989
▁фа	-1990
ҳала	-1991
ҵәҟьоу	-1992
▁авидеон	-1993
▁хыр	-1994
▁ҵара	-1995
▁агәым	-1996
▁ҿырԥш	-1997
архәа	-1998
▁ахәыҷ	-1999
▁иалху	-2000
мч	-2001
▁аныр	-2002
▁иҿыц	-2003
▁аҳҭны	-2004
▁џьана	-2005
▁иаразнак	-2006
хьаз	-2007
бареи	-2008
▁инареи	-2009
ели	-2010
хиа	-2011
▁мҩа	-2012
▁аргылара	-2013
▁насыԥ	-2014
▁аладырхә	-2015
ҿи	-2016
ҵала	-2017
ҳәарақәа	-2018
▁34	-2019
ԥшьа	-2020
ныҟәара	-2021
▁аҿиара	-2022
▁зха	-2023
мба	-2024
▁зуа	-2025
▁шьаҭас	-2026
▁шыр	-2027
хамҩа	-2028
▁ахҭысқәа	-2029
▁аминистрра	-2030
зм	-2031
сыр	-2032
▁рҭак	-2033
сыԥ	-2034
▁аима	-2035
лоуп	-2036
▁рыхә	-2037
▁рҟны	-2038
▁адунеизегьтәи	-2039
▁+	-2040
гье	-2041
хоу	-2042
шан	-2043
гарц	-2044
цәырҵ	-2045
▁аҳҭнықалақь	-2046
роуп	-2047
ҵаҩы	-2048
ҵәык	-2049
▁ԥа	-2050
▁аих	-2051
▁рыд	-2052
шьоит	-2053
▁аурок	-2054
раз	-2055
▁аҭыԥқәа	-2056
▁ча	-2057
хыраа	-2058
▁даны	-2059
▁алага	-2060
▁аганахьала	-2061
нӡа	-2062
▁сгәы	-2063
раалара	-2064
ҳәшьа	-2065
▁амаҭәа	-2066
▁аҳамҭа	-2067
▁ҵабырг	-2068
▁зыр	-2069
ԥсара	-2070
▁аҟазшьа	-2071
уз	-2072
иона	-2073
▁ҳала	-2074
▁аԥсра	-2075
ҟатәи	-2076
▁акра	-2077
лԥаз	-2078
датәи	-2079
▁ахьын	-2080
▁аҟәыӷ	-2081
▁ҩыџьа	-2082
▁аспортсмен	-2083
▁аиаҳәшьцәеи	-2084
заареи	-2085
▁еилакы	-2086
▁инареиҳаны	-2087
▁ақәа	-2088
▁иакә	-2089
маданы	-2090
▁ииашаҵәҟьаны	-2091
ылара	-2092
џьар	-2093
▁дзы	-2094
▁ажурнал	-2095
шәеит	-2096
▁инапы	-2097
харҭа	-2098
▁иаҵанакуа	-2099
гаҩ	-2100
▁ааирԥш	-2101
▁иҟынтә	-2102
▁афестиваль	-2103
доуп	-2104
мбыл	-2105
▁шықә	-2106
▁иҿаԥхьа	-2107
▁лха	-2108
шьақәыргылара	-2109
ам	-2110
▁шԥа	-2111
ҭоурых	-2112
▁акәӡам	-2113
мш	-2114
▁сан	-2115
аргьы	-2116
усали	-2117
▁иаҳа	-2118
▁агәабзиара	-2119
▁ауаажәларратә	-2120
▁иерусали	-2121
▁ҟаҳ	-2122
▁ақьырсиантә	-2123
▁аҭакԥхықәра	-2124
▁аша	-2125
шьҭоу	-2126
▁иазы	-2127
▁иаагоу	-2128
▁сергеи	-2129
▁ашықәсқәа	-2130
шьо	-2131
▁рҽа	-2132
▁еиба	-2133
▁шәхы	-2134
▁инары	-2135
▁шәгәы	-2136
анс	-2137
▁аар	-2138
гылоуп	-2139
▁шиа	-2140
итература	-2141
ард	-2142
▁аҳәса	-2143
▁рыԥсы	-2144
▁иҟан	-2145
▁рышьҭахь	-2146
▁ҳаб	-2147
▁ахаҵа	-2148
▁шәарҭ	-2149
ҳәаҩцәа	-2150
▁аҭынчра	-2151
қәагьы	-2152
ахә	-2153
граф	-2154
цәоу	-2155
▁ҳареи	-2156
▁аиашьа	-2157
цыԥхьаӡа	-2158
▁арӡынба	-2159
▁миллион	-2160
кит	-2161
қәир	-2162
▁ады	-2163
▁гәыкала	-2164
▁анаԥхгара	-2165
▁реилазаара	-2166
▁ача	-2167
▁иду	-2168
цәаныр	-2169
▁абжьа	-2170
▁ақыҭа	-2171
ҿыԥш	-2172
▁чер	-2173
▁дахь	-2174
ҩызара	-2175
ҳаражә	-2176
ентр	-2177
лага	-2178
зыҟаҵара	-2179
▁аҩаӡара	-2180
▁ахаҭарнакцәа	-2181
мбылџь	-2182
▁аԥсал	-2183
▁ҳамҭа	-2184
ҵахырхәара	-2185
▁иалагӡаны	-2186
ру	-2187
мар	-2188
мыс	-2189
нив	-2190
овет	-2191
шәра	-2192
▁аделега	-2193
▁имҩаԥга	-2194
▁авидеонҵамҭа	-2195
ирхә	-2196
▁шьҭа	-2197
▁ишыҟа	-2198
ҵарамза	-2199
ароу	-2200
зуҩцәа	-2201
▁адәны	-2202
▁культура	-2203
иаспо	-2204
▁изиа	-2205
▁уахәаԥш	-2206
▁римаа	-2207
▁ирымоу	-2208
▁аизарақәа	-2209
ерен	-2210
▁ацәгьаура	-2211
баз	-2212
гәоу	-2213
хәыцра	-2214
▁иқ	-2215
▁изеи	-2216
▁уадаҩ	-2217
шра	-2218
аныр	-2219
ҩыла	-2220
▁дуӡ	-2221
▁акыл	-2222
▁аурыс	-2223
▁иерусалим	-2224
уам	-2225
▁40	-2226
зааит	-2227
▁ахәылԥаз	-2228
кахьала	-2229
▁ақыҭан	-2230
▁аусеицура	-2231
▁ж	-2232
▁исы	-2233
ҵазкуа	-2234
▁инамаданы	-2235
ҽы	-2236
▁акәымкәа	-2237
▁атәылақәа	-2238
хәыз	-2239
▁аматериа	-2240
▁ажәеинраала	-2241
ҳаз	-2242
▁аасҭа	-2243
▁арратә	-2244
▁ӡ	-2245
зыҟоу	-2246
ҳәала	-2247
▁ирзеи	-2248
▁0	-2249
қәаб	-2250
хәқәа	-2251
▁ев	-2252
▁еиц	-2253
▁ашәара	-2254
▁иҿырԥш	-2255
мра	-2256
▁рз	-2257
▁бес	-2258
▁цәы	-2259
▁марк	-2260
▁иаанагоит	-2261
▁ауаатәыҩса	-2262
ҭи	-2263
ориа	-2264
зҭана	-2265
▁еили	-2266
▁абзиа	-2267
▁асоциа	-2268
▁закәан	-2269
▁анаԥхгаҩы	-2270
рит	-2271
▁хәыҷы	-2272
цәаныррақәа	-2273
▁аид	-2274
▁аԥшь	-2275
▁акәны	-2276
▁џьанаҭ	-2277
▁ииашаны	-2278
▁рак	-2279
▁шәҟәы	-2280
▁апрограмма	-2281
иеи	-2282
▁иҿыцу	-2283
▁агәҭынч	-2284
▁ҿҳәарала	-2285
▁ҭагылазаашьа	-2286
ҳәаа	-2287
▁заҵәык	-2288
▁асас	-2289
▁рыдыр	-2290
▁рылшоит	-2291
ниверс	-2292
▁ацара	-2293
▁аицәажәара	-2294
ынха	-2295
▁иахьатәи	-2296
▁даз	-2297
▁ахықә	-2298
ег	-2299
▁мч	-2300
ҳаит	-2301
▁ган	-2302
▁ажәытә	-2303
▁астатиаҿы	-2304
ези	-2305
ото	-2306
▁ицәыр	-2307
▁рыҩны	-2308
заауеит	-2309
▁ары	-2310
ароуп	-2311
рыцҳа	-2312
датәра	-2313
▁еизара	-2314
зго	-2315
баара	-2316
ена	-2317
▁қә	-2318
▁ақь	-2319
▁змаз	-2320
▁хара	-2321
иаспора	-2322
▁беслан	-2323
▁шықәсы	-2324
▁аџьшьара	-2325
куль	-2326
хаҿы	-2327
▁илы	-2328
ҳәарц	-2329
▁саму	-2330
▁алхра	-2331
▁аҟынӡа	-2332
▁ирызкны	-2333
▁апо	-2334
▁иаҿ	-2335
▁абзац	-2336
▁ик	-2337
тәыз	-2338
▁арт	-2339
▁оча	-2340
▁ахеилак	-2341
▁аусуратә	-2342
хылҵ	-2343
ека	-2344
лқәа	-2345
разы	-2346
▁ег	-2347
рҭоу	-2348
тәан	-2349
▁ины	-2350
▁рҿа	-2351
▁ҩынтә	-2352
▁анцәаи	-2353
▁анасыԥ	-2354
шәын	-2355
хәама	-2356
▁иҽеи	-2357
▁акор	-2358
▁иԥҳа	-2359
лашәара	-2360
иуџь	-2361
▁аарԥшны	-2362
еатр	-2363
▁иахьы	-2364
орг	-2365
зырҳара	-2366
▁иреиӷьу	-2367
ԥхо	-2368
▁ҳҽа	-2369
▁ԥыҭра	-2370
▁изакәан	-2371
▁ажәларқәа	-2372
▁иаарласны	-2373
ери	-2374
▁ҭы	-2375
▁атема	-2376
▁ирацәаны	-2377
▁рыԥсҭазаара	-2378
но	-2379
ҽра	-2380
▁даа	-2381
истема	-2382
▁аҟәша	-2383
▁шакәу	-2384
▁арыцҳара	-2385
мзар	-2386
▁шәыр	-2387
▁шықәс	-2388
▁анырра	-2389
▁зықәра	-2390
▁самуил	-2391
▁есым	-2392
▁гь	-2393
▁згәы	-2394
оураны	-2395
▁иҭахуп	-2396
▁ахынраалара	-2397
▁ае	-2398
иҭоит	-2399
▁узыр	-2400
▁илш	-2401
▁аҽыр	-2402
▁асовет	-2403
шеит	-2404
▁иӷәӷәа	-2405
▁азгәеиҭеит	-2406
▁мра	-2407
▁нан	-2408
▁иԥса	-2409
▁ахьыр	-2410
қәшаҳаҭ	-2411
▁аҵакы	-2412
▁рацәаны	-2413
▁аԥсабара	-2414
▁аинформациа	-2415
ехн	-2416
▁ҳана	-2417
▁ишԥар	-2418
▁аҩныҵҟатәи	-2419
так	-2420
▁игәаԥхара	-2421
ԥар	-2422
▁аҟаз	-2423
▁авраа	-2424
гәырӷьа	-2425
ть	-2426
ить	-2427
жьыз	-2428
ылшо	-2429
▁аиу	-2430
ҳареи	-2431
▁ахым	-2432
▁аҟәатәи	-2433
ниверситет	-2434
тәым	-2435
ҭатә	-2436
хәаԥшы	-2437
▁адгьы	-2438
▁амшқәа	-2439
▁ԥсыкала	-2440
▁сын	-2441
мчыра	-2442
шьеит	-2443
▁иақә	-2444
▁адәныҟатәи	-2445
▁рминистрра	-2446
цәыӡ	-2447
ферен	-2448
▁ааигәа	-2449
▁37	-2450
▁ири	-2451
шәынтәа	-2452
цәанырра	-2453
▁аҵаҩцәа	-2454
▁иархәаны	-2455
▁илиа	-2456
иан	-2457
лаб	-2458
▁аиқә	-2459
▁рымоуп	-2460
▁ҭырқәтәыла	-2461
ахәҭра	-2462
жәақәа	-2463
▁ахшыҩ	-2464
▁иҭабуп	-2465
▁аполитикатә	-2466
лема	-2467
▁000	-2468
▁иазыр	-2469
▁усмҩаԥга	-2470
раны	-2471
▁зҽа	-2472
аратә	-2473
цәгьоу	-2474
▁рыҭара	-2475
▁ацҳаражә	-2476
ҽеи	-2477
ҵалар	-2478
▁еиҭеи	-2479
▁аԥышәа	-2480
▁ԥхьаҟа	-2481
ԥҵә	-2482
▁аатра	-2483
▁ҷыдала	-2484
▁аамҭала	-2485
блема	-2486
▁жәҩантәи	-2487
▁очамчыра	-2488
▁зин	-2489
▁аилазаара	-2490
гылан	-2491
цәара	-2492
▁гәыр	-2493
▁рхәыҷқәа	-2494
▁ишыр	-2495
▁мҩаԥысуеит	-2496
хәыҷ	-2497
ститут	-2498
▁амчра	-2499
▁гәдоу	-2500
▁ишьҭанеи	-2501
ео	-2502
цра	-2503
ԥҟа	-2504
▁уаԥс	-2505
▁агәымшәара	-2506
▁иахьаҵанакуа	-2507
▁аминистрцәа	-2508
баҩ	-2509
ӡоит	-2510
▁ацәгьара	-2511
▁азылԥхара	-2512
▁азԥхьагәа	-2513
арҭ	-2514
циеи	-2515
▁иҭы	-2516
марра	-2517
▁леон	-2518
шәеи	-2519
▁уры	-2520
▁агәыԥ	-2521
▁афатә	-2522
цҳауеит	-2523
▁апрези	-2524
▁аадырԥш	-2525
ози	-2526
▁аби	-2527
▁рых	-2528
анааҭ	-2529
ҭаара	-2530
▁даниил	-2531
анди	-2532
▁гал	-2533
▁зыхә	-2534
▁кәар	-2535
ҳараҩык	-2536
▁ахәарҭа	-2537
▁саб	-2538
ныҟәо	-2539
▁далагеит	-2540
▁дарбанзаалак	-2541
дыз	-2542
ислав	-2543
▁алахә	-2544
▁амала	-2545
▁адаҟьа	-2546
▁ирызку	-2547
▁ауаҩытәыҩса	-2548
▁нау	-2549
▁хьӡ	-2550
▁еиӷьны	-2551
▁ахаангьы	-2552
шба	-2553
ҳча	-2554
▁36	-2555
▁иҵ	-2556
▁алагара	-2557
▁аделегациа	-2558
▁ҳаԥсҭазаара	-2559
деиа	-2560
▁иџьа	-2561
кылоит	-2562
гылареи	-2563
▁алабжьара	-2564
▁’	-2565
даҳ	-2566
▁ыҟа	-2567
ҳалал	-2568
әма	-2569
▁алыр	-2570
▁аԥшьа	-2571
рҭадара	-2572
▁есыҽны	-2573
хым	-2574
қәу	-2575
ктәи	-2576
хьӡу	-2577
▁изкны	-2578
▁аусмҩаԥгатәқәа	-2579
▁аџьынџьтәылатәи	-2580
ониа	-2581
ҵатәу	-2582
▁имаз	-2583
▁дуӡӡа	-2584
гәаԥхара	-2585
инципқәа	-2586
▁ажәабжьҳәаҩцәа	-2587
емп	-2588
▁иман	-2589
▁акырӡа	-2590
▁гәдоуҭа	-2591
▁уеизгьы	-2592
ббра	-2593
ҟәым	-2594
иуџьет	-2595
органи	-2596
▁ачҳара	-2597
▁аазырԥшуа	-2598
▁нои	-2599
▁мари	-2600
ныҳәалеит	-2601
▁анаҩсгьы	-2602
▁шәазхәыц	-2603
ӡбеит	-2604
цхраар	-2605
▁абара	-2606
▁иаҵана	-2607
▁усбарҭа	-2608
▁ахԥа	-2609
дыруаз	-2610
▁ахьыԥшым	-2611
заҳ	-2612
кгьы	-2613
әымӷ	-2614
▁иахә	-2615
дици	-2616
церт	-2617
▁дшы	-2618
▁рыҽ	-2619
▁аган	-2620
▁ашьҭа	-2621
▁ихаҭа	-2622
▁адгалара	-2623
▁акоманда	-2624
▁анцәаиҳәара	-2625
иааи	-2626
▁ажәам	-2627
▁иԥхьаӡ	-2628
▁ишьақәыр	-2629
шар	-2630
▁шеи	-2631
▁азха	-2632
ӷәӷәоит	-2633
▁ықә	-2634
▁цәыр	-2635
▁асааҭ	-2636
▁аганахь	-2637
▁аамҭақәа	-2638
▁мыц	-2639
▁баша	-2640
▁полит	-2641
▁аԥааимбаражәа	-2642
ԥхьо	-2643
▁шым	-2644
уаажәлар	-2645
▁цәыббра	-2646
▁ҳә	-2647
ԥсах	-2648
▁акрыз	-2649
▁измоу	-2650
▁идыруеит	-2651
ҩын	-2652
ԥыр	-2653
порти	-2654
шьына	-2655
▁иани	-2656
▁есышықәса	-2657
зцәа	-2658
▁ргана	-2659
▁ахԥатәи	-2660
ҳам	-2661
орум	-2662
▁ахәҭакахьала	-2663
▁аспортсменцәа	-2664
▁ақьа	-2665
▁хҭыс	-2666
▁ахәҭаҷ	-2667
кәха	-2668
ӡырҩра	-2669
▁адгылара	-2670
инанс	-2671
▁агәаҟра	-2672
▁ахылаԥш	-2673
▁урыстәылеи	-2674
ҩит	-2675
▁абы	-2676
иатәи	-2677
рҭара	-2678
ест	-2679
лыҵ	-2680
џьы	-2681
ҳан	-2682
ԥсоу	-2683
▁иона	-2684
▁аҟәыӷара	-2685
▁атәылауаҩ	-2686
▁рк	-2687
дыркны	-2688
▁рахьтә	-2689
▁аԥсныҟа	-2690
▁наунагӡа	-2691
▁ачымазара	-2692
▁еицырдыруа	-2693
цу	-2694
ҳәра	-2695
▁иԥш	-2696
сахьа	-2697
▁иргыланы	-2698
кьаҿ	-2699
▁авраам	-2700
▁аԥҵара	-2701
▁идырба	-2702
▁нанҳәа	-2703
▁убасҟан	-2704
▁аладырхәит	-2705
жьыр	-2706
фициа	-2707
▁иагь	-2708
▁хаҵеи	-2709
▁ԥҳәыси	-2710
▁аӡырҩцәа	-2711
▁си	-2712
▁акуль	-2713
▁ирыдыр	-2714
▁аҭыԥантәи	-2715
▁инадыркны	-2716
▁„	-2717
кын	-2718
урор	-2719
▁ԥсалом	-2720
▁ацәыргақәҵа	-2721
мазар	-2722
▁аекс	-2723
▁аҽеи	-2724
▁араҟа	-2725
▁иԥҳәыс	-2726
▁ахәаахәҭра	-2727
ниа	-2728
зыԥшу	-2729
исттә	-2730
▁ртәы	-2731
▁дыҟан	-2732
▁ӷәӷәала	-2733
цеи	-2734
ектор	-2735
▁ишеи	-2736
▁даҽакала	-2737
▁бы	-2738
▁ахацәа	-2739
ени	-2740
саб	-2741
мпыл	-2742
▁гагра	-2743
▁рыхьчара	-2744
▁азгәаҭара	-2745
иҭо	-2746
▁аартра	-2747
▁алагамҭа	-2748
▁амаалықьцәа	-2749
ви	-2750
▁‘	-2751
ева	-2752
▁38	-2753
▁иад	-2754
▁ааны	-2755
▁акорр	-2756
▁̊	-2757
даз	-2758
ӡәы	-2759
спорт	-2760
▁аҟәы	-2761
▁ирых	-2762
аимбар	-2763
▁зҭаху	-2764
▁кәарҷ	-2765
дҳәалоу	-2766
▁иҟалеит	-2767
▁акультуратә	-2768
кылаз	-2769
▁влад	-2770
▁шәыз	-2771
шьар	-2772
ектив	-2773
шареи	-2774
▁ашьҭы	-2775
▁аусзуҩцәа	-2776
мат	-2777
хтә	-2778
▁ца	-2779
▁аԥх	-2780
▁мша	-2781
▁ааха	-2782
▁ишаз	-2783
▁шәзы	-2784
▁иқәыр	-2785
▁азиашара	-2786
вил	-2787
лшозеи	-2788
▁ашьха	-2789
▁алашара	-2790
▁анакәха	-2791
гап	-2792
инг	-2793
шоит	-2794
▁владислав	-2795
▁апрезидент	-2796
▁культуратә	-2797
▁аст	-2798
▁1992	-2799
▁миха	-2800
▁назы	-2801
▁аџьабаа	-2802
▁бызшәала	-2803
жьны	-2804
▁уаҩ	-2805
▁маҭәа	-2806
барҭақәа	-2807
хәдатәра	-2808
цыз	-2809
▁аам	-2810
▁абыр	-2811
▁ашьауӷа	-2812
▁иахьагьы	-2813
▁жь	-2814
ԥҵара	-2815
▁фили	-2816
▁хатә	-2817
▁аԥсҭа	-2818
цәажәоз	-2819
▁ҳаракны	-2820
ся	-2821
тудент	-2822
▁зыԥсы	-2823
зҵаа	-2824
қьым	-2825
▁ага	-2826
▁ԥшь	-2827
▁аахыҵ	-2828
▁аӡбахә	-2829
▁зҵаара	-2830
▁абзиара	-2831
ҽан	-2832
▁адам	-2833
▁еилкаа	-2834
▁аҭоурыхтә	-2835
▁ибзиабара	-2836
ез	-2837
қуа	-2838
урҭа	-2839
▁дуқәа	-2840
▁аизырҳара	-2841
▁рымҩаԥгара	-2842
ибо	-2843
хырц	-2844
андида	-2845
об	-2846
маза	-2847
▁бааԥс	-2848
▁ԥхынгәы	-2849
▁инапхгара	-2850
напы	-2851
ргьы	-2852
▁дҳа	-2853
▁леи	-2854
ҳәоуп	-2855
▁ҳаамҭа	-2856
зааигәоу	-2857
▁аҳауатә	-2858
▁рыҩныҵҟа	-2859
лҭеит	-2860
▁рана	-2861
боз	-2862
ита	-2863
оли	-2864
цԥы	-2865
кәыр	-2866
шьақә	-2867
барала	-2868
▁алахәылацәа	-2869
нам	-2870
хуп	-2871
шәҵа	-2872
▁дал	-2873
шьҭит	-2874
лаҵаны	-2875
▁аныҟа	-2876
▁вавил	-2877
▁рацәоуп	-2878
мҩаԥгашьа	-2879
.0	-2880
ков	-2881
▁дықә	-2882
қәшәаз	-2883
▁сареи	-2884
▁ԥҳәыс	-2885
▁ҟазшьа	-2886
▁ашәақәа	-2887
▁кьы	-2888
митри	-2889
▁цқьа	-2890
▁ԥсҭазаара	-2891
ӡаз	-2892
курс	-2893
▁даҳ	-2894
шаҳаҭ	-2895
▁имоу	-2896
▁ҩыза	-2897
▁амедици	-2898
▁кәарҷиа	-2899
рика	-2900
хала	-2901
▁афи	-2902
▁дмитри	-2903
ологиатә	-2904
ҿлымҳара	-2905
▁анапхгаҩы	-2906
▁шҳа	-2907
▁гәлиа	-2908
▁иқәын	-2909
каарақәа	-2910
гәырӷьоит	-2911
▁алхәдатәра	-2912
▁ауаажәларра	-2913
ҵас	-2914
▁шш	-2915
зтәи	-2916
ҟәыҵ	-2917
▁иҽа	-2918
▁ҭак	-2919
аигәа	-2920
▁жәпа	-2921
▁ирыц	-2922
▁хазы	-2923
▁иашьа	-2924
▁тәыла	-2925
▁аусбарҭа	-2926
▁ашьақәыр	-2927
▁дц	-2928
ԥсам	-2929
▁аҩыра	-2930
▁афинанс	-2931
жәи	-2932
хҩы	-2933
ҟазар	-2934
▁акәу	-2935
▁аԥыр	-2936
рба	-2937
елиа	-2938
жьуа	-2939
▁уаа	-2940
▁ргәаз	-2941
аирԥш	-2942
ҭааит	-2943
▁ауадаҩра	-2944
▁наӡаӡатәи	-2945
▁али	-2946
лақәа	-2947
▁иҟам	-2948
▁ихәыц	-2949
▁иԥсра	-2950
ҵура	-2951
▁ихь	-2952
латәи	-2953
мыршҭ	-2954
▁рыԥша	-2955
цхраарц	-2956
▁иԥсхьоу	-2957
▁амаҵзураҿы	-2958
▁иҳацхраауеит	-2959
анк	-2960
артиа	-2961
▁зеиԥшыҟам	-2962
гу	-2963
ԥшу	-2964
▁дра	-2965
ҟаҵаҩ	-2966
ҭахыз	-2967
ологиа	-2968
▁мыцхәы	-2969
▁улшоит	-2970
▁иҟалоит	-2971
еф	-2972
гор	-2973
кыр	-2974
чҳара	-2975
хгаҩцәа	-2976
▁иаҳнарҵозеи	-2977
▁ареспубликатә	-2978
▁рф	-2979
сала	-2980
хьеи	-2981
ҩара	-2982
▁алы	-2983
▁аҵәы	-2984
▁хыхь	-2985
ӷәӷәоу	-2986
▁черқь	-2987
▁аспорти	-2988
▁акультуреи	-2989
ип	-2990
бон	-2991
есаа	-2992
▁сыз	-2993
▁аԥсуаа	-2994
▁рзеиҭа	-2995
цхраауеи	-2996
▁иахәҭоу	-2997
▁хықәкыс	-2998
▁ҳаԥхьаҟа	-2999
▁апроблема	-3000
▁ашьақәыргылара	-3001
маҷ	-3002
ури	-3003
шәон	-3004
▁диа	-3005
▁дир	-3006
лшома	-3007
▁ихәа	-3008
▁иҳаи	-3009
▁аҭыԥҳа	-3010
▁ефесаа	-3011
▁шьауӷа	-3012
▁ҳараку	-3013
▁араионтә	-3014
▁абзиабареи	-3015
▁аҭаацәаратә	-3016
гылар	-3017
▁март	-3018
▁қырҭ	-3019
шьақәыр	-3020
▁аԥсахра	-3021
▁адкылара	-3022
▁агәҭынчым	-3023
организациа	-3024
ҿиа	-3025
▁маи	-3026
мырҟьа	-3027
▁ианыр	-3028
▁ибзиа	-3029
▁ԥыҭрак	-3030
▁азылԥхарақәа	-3031
шеи	-3032
▁мчы	-3033
бжьоу	-3034
хиоуп	-3035
шәтәы	-3036
▁акол	-3037
▁иатәу	-3038
▁лхаҵа	-3039
ормақәа	-3040
ҭахызар	-3041
▁михаил	-3042
▁адепутатцәа	-3043
▁ақыҭанхамҩа	-3044
хан	-3045
▁ген	-3046
▁ҽын	-3047
▁макь	-3048
▁нцәа	-3049
ектқәа	-3050
ԥҵәоуп	-3051
▁аҟалара	-3052
▁усурақәа	-3053
▁кәы	-3054
▁дырмит	-3055
зынаԥшуа	-3056
▁алхратә	-3057
▁рашәара	-3058
▁имҩаԥысуа	-3059
▁ҷ	-3060
ург	-3061
зааҭ	-3062
ылра	-3063
▁изку	-3064
▁макьана	-3065
▁аанацҳауеит	-3066
шәоз	-3067
▁ирҭ	-3068
▁кьа	-3069
гозар	-3070
ессиа	-3071
▁аҵәа	-3072
▁астудент	-3073
▁сым	-3074
▁илшоит	-3075
▁инаӡоит	-3076
бжьарақәа	-3077
▁иаадырԥш	-3078
кьы	-3079
мҩа	-3080
нап	-3081
ҽаны	-3082
▁филип	-3083
▁адемон	-3084
▁иахьын	-3085
▁агәалар	-3086
▁аныҟәара	-3087
▁иаанарԥш	-3088
▁нанҳәамза	-3089
игӡ	-3090
ԥсаз	-3091
▁мус	-3092
ститу	-3093
гаразы	-3094
лагала	-3095
хьӡара	-3096
▁асалам	-3097
▁ахыҵра	-3098
▁изакәы	-3099
▁израиль	-3100
▁цхыраара	-3101
▁иҳацхраауа	-3102
▁агәаанагара	-3103
гәаа	-3104
ҟәша	-3105
▁зал	-3106
▁игәра	-3107
▁адгәыр	-3108
▁имариа	-3109
▁иҭаацәа	-3110
▁рҭаацәа	-3111
▁ҳагәрахаҵара	-3112
рон	-3113
▁та	-3114
ҟәар	-3115
ӷәӷәо	-3116
▁аԥха	-3117
харазы	-3118
уст	-3119
хатә	-3120
▁иез	-3121
ҭәара	-3122
▁иабз	-3123
▁аӡиас	-3124
▁иҟало	-3125
▁иааирԥш	-3126
▁иаҳәоит	-3127
▁еиҿкаара	-3128
▁агәыҳалал	-3129
вин	-3130
кеи	-3131
исси	-3132
▁аим	-3133
▁хеилак	-3134
▁цәыббрамза	-3135
ови	-3136
тәиу	-3137
▁шьҭ	-3138
▁иорд	-3139
▁мҩаԥи	-3140
▁ишьҭанеицәа	-3141
▁инарзынаԥшуа	-3142
▁аӡа	-3143
▁амза	-3144
▁аҵар	-3145
▁акциа	-3146
▁ашәҟәыҩ	-3147
▁алитература	-3148
цо	-3149
хҭа	-3150
қьы	-3151
аргь	-3152
ильм	-3153
▁ҭар	-3154
▁центр	-3155
▁ахәаԥш	-3156
▁ииҳәаз	-3157
▁шьауӷас	-3158
до	-3159
ҽха	-3160
фесс	-3161
▁ҵәы	-3162
мзаара	-3163
▁адами	-3164
▁иҽеим	-3165
▁жьҭаара	-3166
▁еилаҳкаауеит	-3167
▁рхаҭарнакцәа	-3168
глы	-3169
▁имч	-3170
▁ҩаԥхьа	-3171
ец	-3172
▁%	-3173
▁50	-3174
▁не	-3175
▁нар	-3176
▁дыԥс	-3177
лкаара	-3178
ԥхьоит	-3179
маҵзура	-3180
ԥмырҟьа	-3181
▁ииашам	-3182
▁хархәа	-3183
▁ацәеижь	-3184
сеи	-3185
три	-3186
▁ип	-3187
▁рх	-3188
ԥҳәыс	-3189
▁иҭах	-3190
заанаго	-3191
▁хылаԥш	-3192
▁ауахәама	-3193
▁имҩаԥысит	-3194
оф	-3195
цца	-3196
▁по	-3197
ираҟ	-3198
кааз	-3199
џьара	-3200
▁адин	-3201
▁еиза	-3202
▁рхар	-3203
▁ҟара	-3204
хылҵыз	-3205
▁рыҟаҵара	-3206
▁аекономика	-3207
тал	-3208
▁аинв	-3209
▁барц	-3210
▁зқәу	-3211
ҳәақәа	-3212
▁иқәыԥш	-3213
▁асахьаҭы	-3214
кка	-3215
мал	-3216
ериа	-3217
▁198	-3218
▁ҳус	-3219
еспон	-3220
▁аман	-3221
▁егза	-3222
▁аслан	-3223
▁ахьча	-3224
▁анқәаб	-3225
▁аԥхарра	-3226
▁аԥшаара	-3227
▁комиссиа	-3228
▁акомиссиа	-3229
▁еизыҟазаашьақәа	-3230
сир	-3231
хәын	-3232
ҿыха	-3233
▁аат	-3234
▁руф	-3235
ектак	-3236
ионер	-3237
▁евеи	-3238
▁амузы	-3239
▁ахьаа	-3240
▁амедицинатә	-3241
хом	-3242
▁39	-3243
▁арх	-3244
уазеи	-3245
▁амчы	-3246
▁аныҟә	-3247
▁дызус	-3248
▁гьаргь	-3249
еспондент	-3250
▁ашәарҭара	-3251
ԥмырҟьаӡакәа	-3252
▁акрызҵазкуа	-3253
кл	-3254
ети	-3255
шьц	-3256
тқәа	-3257
▁2017	-3258
▁ирықә	-3259
▁шәага	-3260
ектакль	-3261
▁егзакь	-3262
цәажәоит	-3263
▁идыруан	-3264
▁шәылшоит	-3265
▁арӷәӷәара	-3266
▁москватәи	-3267
лет	-3268
▁ур	-3269
жьит	-3270
шала	-3271
▁ҭем	-3272
▁аилы	-3273
галоит	-3274
наҳара	-3275
▁актив	-3276
▁иреиу	-3277
▁уахын	-3278
▁ҿыцқәа	-3279
ԥыларақәа	-3280
ԥым	-3281
▁су	-3282
лкаа	-3283
▁зеи	-3284
▁иахы	-3285
ҟәарча	-3286
▁хатәгәаԥхара	-3287
диа	-3288
хиоу	-3289
▁ҳаш	-3290
▁шәым	-3291
▁иҟана	-3292
дкылара	-3293
▁ахаҵара	-3294
▁агәрыцҳа	-3295
▁иазԥхьагәа	-3296
сса	-3297
шәоу	-3298
шәтә	-3299
зареи	-3300
▁амыр	-3301
▁милаҭ	-3302
▁уажәа	-3303
цәгьара	-3304
▁вавилон	-3305
▁аусурақәа	-3306
хәны	-3307
ҭахым	-3308
▁ашьы	-3309
▁ихьы	-3310
лабрақәа	-3311
▁амазара	-3312
▁шьақәыр	-3313
▁азхәыцра	-3314
▁аӡбарақәа	-3315
ҭал	-3316
куаз	-3317
▁ишаҳ	-3318
▁аиҿкаа	-3319
▁аматериал	-3320
▁убасҵәҟьа	-3321
еб	-3322
кум	-3323
шьоу	-3324
▁даур	-3325
▁апрок	-3326
▁аҳәамҭа	-3327
▁ракәзар	-3328
▁имҩаԥысуеит	-3329
ӡиа	-3330
▁бжь	-3331
▁абра	-3332
▁авет	-3333
▁ҳарҭ	-3334
анырцә	-3335
гаратә	-3336
шәырԥш	-3337
ӡаахра	-3338
▁рашәарамза	-3339
▁маҭ	-3340
▁ник	-3341
▁схы	-3342
▁алшо	-3343
▁ихыр	-3344
итартә	-3345
ԥылеит	-3346
▁аиаҳәшьа	-3347
каар	-3348
▁хьы	-3349
▁амзыз	-3350
▁афото	-3351
▁еиҭар	-3352
▁азеиԥш	-3353
▁апресс	-3354
▁аҭыԥан	-3355
▁ҳтәыла	-3356
▁иахьазы	-3357
▁ацәажәара	-3358
нади	-3359
▁аҵы	-3360
лукаа	-3361
▁изаа	-3362
ӡаныҟә	-3363
▁ашьап	-3364
▁имоуп	-3365
▁иҭахаз	-3366
зымдыруа	-3367
▁рыӡбара	-3368
иареи	-3369
▁агаз	-3370
▁арег	-3371
▁ируа	-3372
▁руак	-3373
▁ҳахь	-3374
▁аилак	-3375
▁иҟәыӷ	-3376
▁аԥҟара	-3377
▁есымша	-3378
▁ихадоуп	-3379
▁ахаҭарнак	-3380
▁программа	-3381
▁аҳәаанырцә	-3382
▁ииашаҵәҟьоу	-3383
чи	-3384
ета	-3385
лыз	-3386
лхра	-3387
▁еид	-3388
▁аред	-3389
▁ишры	-3390
неишьа	-3391
▁ицқьа	-3392
▁ҭемыр	-3393
▁ишыҟоу	-3394
▁иҿырԥшы	-3395
зен	-3396
самб	-3397
сақәа	-3398
▁ироу	-3399
лаԥшра	-3400
▁мусса	-3401
ҭаацәеи	-3402
▁аҭаара	-3403
▁иуадаҩ	-3404
хреи	-3405
▁узы	-3406
▁ҳна	-3407
▁ахеи	-3408
каареи	-3409
ԥхьаӡо	-3410
▁аҳратә	-3411
▁иаарту	-3412
▁иуҳәозар	-3413
▁асоциалтә	-3414
▁ирыхҟьаны	-3415
▁аҵыхәтәанынӡа	-3416
▁инарықәыршәаны	-3417
ҽыр	-3418
▁45	-3419
ҭакы	-3420
ҳазы	-3421
▁лым	-3422
ԥырхага	-3423
▁абахҭа	-3424
▁русура	-3425
сара	-3426
▁шьы	-3427
шьҭыз	-3428
▁2016	-3429
ԥхгара	-3430
▁ахаҳә	-3431
▁дышԥа	-3432
зхәыцуа	-3433
▁лаҵарамза	-3434
лап	-3435
ртә	-3436
▁зым	-3437
▁уиа	-3438
ҭынха	-3439
▁шьам	-3440
▁ҳәаа	-3441
▁ашәыр	-3442
▁аҟара	-3443
ԥхьаӡоит	-3444
▁рҿаԥхьа	-3445
▁шықәсык	-3446
▁шәаргьы	-3447
▁аныҳәатә	-3448
▁аконститу	-3449
▁зҳа	-3450
▁атер	-3451
▁даан	-3452
▁ииас	-3453
▁рыда	-3454
▁атәым	-3455
▁ааӡара	-3456
▁мҩаԥга	-3457
▁раҟара	-3458
▁ахықәкы	-3459
▁ақәҿиара	-3460
▁аҭаацәараҿы	-3461
нык	-3462
ски	-3463
лшоз	-3464
шоуп	-3465
ҿгьы	-3466
▁наҟ	-3467
каарц	-3468
▁авто	-3469
▁амал	-3470
жәкыра	-3471
▁ҵәыџь	-3472
▁геннади	-3473
▁ахьыԥшымра	-3474
▁ҳәынҭқарра	-3475
еиа	-3476
▁дна	-3477
▁ахьи	-3478
▁апату	-3479
шәҟәқәа	-3480
▁зыгәра	-3481
▁адинхаҵара	-3482
▁иабзоураны	-3483
гәаԥ	-3484
дина	-3485
ҭҵаа	-3486
ҽазы	-3487
▁аоп	-3488
шьоуп	-3489
▁анаҳ	-3490
▁ачемп	-3491
▁барцыц	-3492
▁жәпакы	-3493
▁ҳазшаз	-3494
▁идоуҳала	-3495
▁апостолцәа	-3496
илеи	-3497
▁амра	-3498
▁игор	-3499
▁лана	-3500
▁ҽынла	-3501
▁аҩызцәа	-3502
▁назыгӡо	-3503
▁акорреспондент	-3504
▁2018	-3505
▁ирзы	-3506
▁ҭынч	-3507
ларазы	-3508
▁аԥсыӡ	-3509
ҟәарчал	-3510
▁ҳамоуп	-3511
▁аветера	-3512
▁аԥҟарақәа	-3513
▁еилазаара	-3514
рала	-3515
▁изым	-3516
▁амоуп	-3517
▁аусԥҟа	-3518
▁ишахәҭоу	-3519
▁конгресс	-3520
▁ахылаԥшра	-3521
рал	-3522
тан	-3523
есса	-3524
ерман	-3525
▁дшыр	-3526
▁аҟазара	-3527
▁аҳақьым	-3528
▁ҳазхәыц	-3529
▁ҳашьцәеи	-3530
▁университет	-3531
екст	-3532
▁хәыҷ	-3533
▁конст	-3534
фициалтә	-3535
▁акзаара	-3536
▁аҿаԥхьа	-3537
ҳәынҭқарра	-3538
▁реиҳараҩык	-3539
лир	-3540
▁41	-3541
шәым	-3542
▁ҩба	-3543
▁дека	-3544
ижьҭеи	-3545
▁иақәиҭу	-3546
▁апублика	-3547
▁аҭынчреи	-3548
▁диаспора	-3549
▁ԥхынҷкәын	-3550
▁авг	-3551
антин	-3552
▁ахаҿы	-3553
▁мҩаԥыр	-3554
▁амчыбжь	-3555
▁ақьиара	-3556
▁иҟаҵатәу	-3557
▁агәаҟрақәа	-3558
пан	-3559
▁42	-3560
ҳәан	-3561
▁сол	-3562
▁хра	-3563
▁хьаа	-3564
▁автор	-3565
ынҵақәа	-3566
әынҭқар	-3567
▁иҭахын	-3568
▁аҳасабала	-3569
▁ҿа	-3570
хьчо	-3571
▁шаҳ	-3572
▁рыгә	-3573
▁азоуп	-3574
тәылатә	-3575
▁ажәабжьҳәаратә	-3576
▁зых	-3577
ҳәаны	-3578
▁иҭыҵ	-3579
ҟазара	-3580
▁афара	-3581
▁агәаҭара	-3582
▁ажәытәан	-3583
▁хәажәкыра	-3584
фир	-3585
арҭа	-3586
ьыԥхь	-3587
▁2019	-3588
хьчоит	-3589
▁аексп	-3590
▁дареи	-3591
▁ҭабуп	-3592
▁ҟарачы	-3593
қәиргәыӷ	-3594
▁иаҳасабала	-3595
▁константин	-3596
▁кь	-3597
▁лхы	-3598
хареи	-3599
▁акад	-3600
▁ашәахтә	-3601
▁ҩышықәса	-3602
▁аҿагылара	-3603
▁рыдыркылеит	-3604
▁ашәышықәсазы	-3605
рас	-3606
▁ко	-3607
тәыс	-3608
жьҭеи	-3609
хырҭа	-3610
ҟәымҵ	-3611
▁бган	-3612
▁рнап	-3613
▁алкаа	-3614
▁џьара	-3615
▁арҵара	-3616
▁иадырхә	-3617
▁иқәынхо	-3618
▁ахцәажәара	-3619
паҿы	-3620
џьыр	-3621
▁191	-3622
▁сим	-3623
лаҳар	-3624
▁бага	-3625
▁анышә	-3626
▁иаажә	-3627
▁инарҭ	-3628
ԥсадгьыл	-3629
▁аҭаацәалазаара	-3630
▁хатәгәаԥхарала	-3631
му	-3632
нҩа	-3633
▁декабр	-3634
▁еилыкка	-3635
▁иааҳарԥш	-3636
▁иналаҵаны	-3637
▁аицлабрақәа	-3638
гиа	-3639
▁60	-3640
хьыр	-3641
▁ида	-3642
галар	-3643
▁изыр	-3644
дырратә	-3645
▁рхеилак	-3646
▁азхаҵара	-3647
▁аконцерт	-3648
▁44	-3649
арацәа	-3650
каауан	-3651
▁ауааи	-3652
▁қәыԥш	-3653
▁дыҟоуп	-3654
▁усмҩаԥгатәқәа	-3655
ибли	-3656
илаа	-3657
коба	-3658
▁окт	-3659
▁пала	-3660
▁реиз	-3661
▁руфь	-3662
мадара	-3663
▁уахынла	-3664
▁имаҷымкәа	-3665
▁рганахьала	-3666
▁алабжьарақәа	-3667
▁анг	-3668
▁1993	-3669
▁2015	-3670
▁ааӡа	-3671
▁абаа	-3672
▁акомп	-3673
аигәара	-3674
▁лҳәеит	-3675
▁атәылауаа	-3676
хас	-3677
ымца	-3678
▁сзы	-3679
▁ҟәы	-3680
▁амар	-3681
▁евро	-3682
▁зҵоу	-3683
ҳәалар	-3684
▁афонд	-3685
▁рацәала	-3686
▁абиуџьет	-3687
▁еилҳаргап	-3688
▁аԥышәарақәа	-3689
рт	-3690
▁рыҭ	-3691
▁ашәҭ	-3692
▁иаҿа	-3693
▁аҳцәа	-3694
▁ихьан	-3695
▁бганба	-3696
▁иаҳҳәар	-3697
▁иеиҳәеит	-3698
чч	-3699
наҭа	-3700
▁194	-3701
▁адәы	-3702
▁алым	-3703
▁ихар	-3704
гақәеи	-3705
раамҭа	-3706
▁реиқәыр	-3707
▁хыԥхьаӡара	-3708
ԥаҳ	-3709
▁зи	-3710
▁иӡ	-3711
толи	-3712
▁аац	-3713
▁ану	-3714
▁егь	-3715
мазаҩ	-3716
рацәа	-3717
▁школ	-3718
лукааша	-3719
▁аҿыхра	-3720
▁израилаа	-3721
ҵит	-3722
ӷәа	-3723
▁70	-3724
шьан	-3725
▁хыҭ	-3726
гозеи	-3727
▁рҽыр	-3728
самбль	-3729
▁ахшара	-3730
▁имаҵура	-3731
▁иҵабырг	-3732
шт	-3733
зал	-3734
ҳау	-3735
ӡац	-3736
нага	-3737
оман	-3738
гакәа	-3739
▁иҳар	-3740
▁атехн	-3741
▁абаҳча	-3742
▁аибашь	-3743
▁ԥхьаҟатәи	-3744
цәажәарақәа	-3745
▁имҩаԥысуаз	-3746
▁ашьақәырӷәӷәара	-3747
▁економ	-3748
▁ракәын	-3749
ԥын	-3750
гориа	-3751
▁лгәы	-3752
гәыӷра	-3753
▁апрель	-3754
▁еилышә	-3755
▁еиқәыр	-3756
▁аконкурс	-3757
▁мл	-3758
хәыр	-3759
қәыз	-3760
▁асаб	-3761
▁иҩуан	-3762
▁шамба	-3763
▁сҭахуп	-3764
▁хышықәса	-3765
ҽхәа	-3766
кылар	-3767
тивтә	-3768
галарц	-3769
графиа	-3770
▁август	-3771
▁акәзеи	-3772
▁афорум	-3773
▁аизыҟазаашьақәа	-3774
ӷәы	-3775
▁при	-3776
▁рҳәоит	-3777
▁иалагоит	-3778
▁агәҭынчымра	-3779
вар	-3780
дициа	-3781
▁ахра	-3782
▁ахьеи	-3783
▁дамеи	-3784
▁шҳалшо	-3785
неидкыла	-3786
▁аԥышәара	-3787
▁шәагаала	-3788
ӡак	-3789
ӡра	-3790
▁рас	-3791
дырреи	-3792
▁асаит	-3793
дырԥшуа	-3794
▁иҳалшо	-3795
▁иазгәалҭеит	-3796
хәыҷы	-3797
шьҭаз	-3798
лектив	-3799
әымшәы	-3800
▁театр	-3801
зышьҭра	-3802
▁аҷкәын	-3803
▁аԥеиԥш	-3804
▁сынтәа	-3805
шәтәырҭа	-3806
▁апрофесс	-3807
▁агәаҳәара	-3808
хаа	-3809
тика	-3810
▁акр	-3811
▁иааз	-3812
шәтәра	-3813
▁дгьыл	-3814
▁иагьы	-3815
тегориа	-3816
▁аԥхьахә	-3817
▁ицәгьоу	-3818
▁аҽазыҟаҵара	-3819
ҭаҳ	-3820
әыз	-3821
лакы	-3822
мшәа	-3823
▁рыҩ	-3824
▁аиҵа	-3825
▁аоби	-3826
▁аҟьа	-3827
▁рылш	-3828
▁ахатә	-3829
▁ақырҭ	-3830
▁игәала	-3831
▁палата	-3832
ӡаныҟәгаҩ	-3833
▁ансамбль	-3834
гәам	-3835
каау	-3836
слан	-3837
▁иск	-3838
▁мыш	-3839
▁сыр	-3840
ҵақәа	-3841
▁знык	-3842
▁рзин	-3843
▁ҳәоу	-3844
закәан	-3845
тикатә	-3846
▁иисуси	-3847
▁имҩаԥгаз	-3848
▁иналукааша	-3849
ҿу	-3850
лоз	-3851
хаҳ	-3852
ҟәра	-3853
▁ыҟам	-3854
▁ажьыр	-3855
▁ирацәа	-3856
▁рыӡбахә	-3857
▁ихаҭыԥуа	-3858
▁вит	-3859
▁аӡын	-3860
нагоит	-3861
ҿкаара	-3862
▁аҵаҟа	-3863
▁ишԥаҳа	-3864
ԥсазтәыз	-3865
▁амаҵура	-3866
заанагоит	-3867
▁аспектакль	-3868
ттә	-3869
ҩуп	-3870
▁43	-3871
▁анд	-3872
▁кыр	-3873
▁риа	-3874
уадаҩ	-3875
▁анна	-3876
▁идәы	-3877
▁сент	-3878
▁рыҟны	-3879
зиашаны	-3880
▁иеремиа	-3881
қа	-3882
қьоу	-3883
▁раҳ	-3884
▁абаҩ	-3885
▁жәла	-3886
▁иури	-3887
хыҩцәа	-3888
▁апоет	-3889
▁ҟазҵаз	-3890
▁ҳҭахуп	-3891
▁ахәыҷтәы	-3892
▁зҽаԥсазтәыз	-3893
▁агәрыцҳашьара	-3894
ауа	-3895
▁аӷба	-3896
ԥшуеит	-3897
▁абжьара	-3898
▁аиашара	-3899
▁агәырҿыха	-3900
▁аҟазшьақәа	-3901
ҟы	-3902
вол	-3903
изм	-3904
ныш	-3905
стр	-3906
▁ли	-3907
хадоу	-3908
▁аӡәи	-3909
ҳангьы	-3910
▁аилыр	-3911
цхраара	-3912
▁афырха	-3913
▁мессиа	-3914
ныҳәалара	-3915
▁ашьҭыхра	-3916
▁ҳаҳәшьцәеи	-3917
▁зус	-3918
дареи	-3919
▁аплан	-3920
▁дахьы	-3921
▁ибоит	-3922
▁рымам	-3923
▁рҭоурых	-3924
▁ахараԥса	-3925
▁аԥсшьара	-3926
▁ацҳаражәҳәаҩ	-3927
дра	-3928
ҿыз	-3929
ӷаб	-3930
▁75	-3931
етра	-3932
▁лак	-3933
▁пион	-3934
ӡомызт	-3935
▁арҵаҩы	-3936
▁иҟарҵаз	-3937
▁пионерс	-3938
зҭанаҵоит	-3939
▁аинвести	-3940
ҭоз	-3941
ҵыз	-3942
иҵаз	-3943
▁ҳама	-3944
▁сыҟоуп	-3945
▁узырбо	-3946
во	-3947
гед	-3948
чес	-3949
ӡәк	-3950
баны	-3951
▁лаб	-3952
зыҟаз	-3953
▁ирыд	-3954
раанӡа	-3955
▁зылшо	-3956
▁ашьақә	-3957
▁иӡбахә	-3958
▁аҳамҭақәа	-3959
▁ашәарҭадара	-3960
арала	-3961
латәу	-3962
▁аиӷь	-3963
▁иуан	-3964
ԥхашәа	-3965
▁иҟашә	-3966
▁асабша	-3967
▁шиакәу	-3968
ференциа	-3969
▁иџьашьа	-3970
▁амашьына	-3971
▁иаҳархәа	-3972
▁хь	-3973
анаго	-3974
шьаала	-3975
▁ихатә	-3976
▁мчыла	-3977
▁рҽазыр	-3978
анагарала	-3979
▁аекономикатә	-3980
цесс	-3981
ламыс	-3982
▁аиҿа	-3983
▁иҟәы	-3984
халарц	-3985
▁ахьым	-3986
умҭақәа	-3987
хәаԥшып	-3988
▁витали	-3989
▁ирымаз	-3990
▁каслан	-3991
хьчаратә	-3992
кәанеидкыла	-3993
быр	-3994
иҵо	-3995
▁дын	-3996
кааны	-3997
▁кьаҿ	-3998
▁сала	-3999
▁анҭыҵ	-4000
ионалтә	-4001
▁анцәеи	-4002
▁иазкыз	-4003
▁руслан	-4004
зыӡырҩуа	-4005
▁адгьыла	-4006
▁ахырхар	-4007
▁агәахәара	-4008
▁ажьырныҳәа	-4009
дон	-4010
дәы	-4011
▁иҭоу	-4012
▁иҳаз	-4013
▁мзыз	-4014
▁убарҭ	-4015
▁ирласны	-4016
▁ирылацәажәеит	-4017
даны	-4018
иҩит	-4019
мҭазы	-4020
▁акин	-4021
▁агазеҭ	-4022
▁бзианы	-4023
▁еидгыла	-4024
▁иалахәыз	-4025
▁ииашамкәа	-4026
фф	-4027
паа	-4028
▁ҳш	-4029
▁гала	-4030
▁арахь	-4031
▁ақәым	-4032
▁солом	-4033
▁ҳанры	-4034
ылампыл	-4035
▁анаука	-4036
▁изышьҭоу	-4037
▁аиқәыршәара	-4038
аз	-4039
ҩеи	-4040
гӡоит	-4041
уамызт	-4042
▁еиҭах	-4043
▁иҳара	-4044
андидат	-4045
▁џьоукы	-4046
ҭазаареи	-4047
▁ахархәа	-4048
▁агәрагара	-4049
▁аҳәынҭқар	-4050
▁агәаларшәара	-4051
▁197	-4052
▁аиҭак	-4053
▁аџьар	-4054
▁иагьа	-4055
цхрааит	-4056
▁ҳанцәа	-4057
▁дҟаҵоуп	-4058
▁касланӡиа	-4059
▁адныҳәалара	-4060
кыу	-4061
▁48	-4062
жәтә	-4063
кәны	-4064
кәыз	-4065
циал	-4066
▁ихә	-4067
андер	-4068
▁ахыл	-4069
▁агрба	-4070
▁даҽаз	-4071
▁еиҭал	-4072
ҿиаратә	-4073
▁иааиуа	-4074
▁аџьашьа	-4075
▁аиҩызара	-4076
арк	-4077
▁қь	-4078
хәар	-4079
ҳәыр	-4080
ӷацәа	-4081
ӡамызт	-4082
ӷәӷәоуп	-4083
▁аԥхасҭа	-4084
▁даҽаӡәы	-4085
▁қәҿиара	-4086
аимбаражәа	-4087
еда	-4088
ерб	-4089
ова	-4090
опуа	-4091
тәии	-4092
▁бас	-4093
▁иҭә	-4094
ԥшуаз	-4095
▁аиха	-4096
▁атра	-4097
▁ахкы	-4098
▁нызы	-4099
еремон	-4100
ҭыԥқәа	-4101
▁анҵәа	-4102
▁ахаҭа	-4103
риториа	-4104
▁аамҭак	-4105
▁азхаҵаҩцәа	-4106
луб	-4107
каан	-4108
мара	-4109
▁100	-4110
▁дза	-4111
анатә	-4112
гьежь	-4113
дыруан	-4114
цәажәон	-4115
▁ахыбра	-4116
▁рҿырԥш	-4117
▁иҩызцәа	-4118
▁жьҭаарамза	-4119
▁иаҵанакуеит	-4120
▁инапынҵақәа	-4121
они	-4122
▁дреи	-4123
▁зауз	-4124
▁ихын	-4125
▁уааи	-4126
▁ԥсык	-4127
шьҭоуп	-4128
ҵахоит	-4129
▁игорь	-4130
▁рхатә	-4131
хәаԥшуа	-4132
▁роуеит	-4133
▁зеиԥшра	-4134
▁абҵарамза	-4135
▁алҵшәақәа	-4136
▁еиҭеиҳәеит	-4137
лк	-4138
лҭ	-4139
ини	-4140
хкы	-4141
▁аҽын	-4142
▁ишԥеи	-4143
▁унцәа	-4144
▁хьаас	-4145
▁машәыр	-4146
▁ноиабр	-4147
▁нызықь	-4148
▁абасала	-4149
▁асистема	-4150
▁ахачҳара	-4151
▁аинформациатә	-4152
ҳҵо	-4153
вали	-4154
заар	-4155
рқәа	-4156
цена	-4157
▁ақа	-4158
▁или	-4159
▁иџь	-4160
ԥҟара	-4161
▁артур	-4162
▁иҳаҩс	-4163
ҭарақәа	-4164
▁злахәу	-4165
▁ацәқәыр	-4166
▁ахәаԥшра	-4167
▁аанкылара	-4168
▁уаԥстәыла	-4169
▁уажәраанӡа	-4170
12	-4171
мка	-4172
ӡбо	-4173
ԥхьы	-4174
▁иуз	-4175
ҵымҭа	-4176
ԥхықә	-4177
▁аҳас	-4178
ызшәеи	-4179
▁аклас	-4180
▁иҩыза	-4181
▁агәазы	-4182
▁риҭеит	-4183
▁аиҳабыра	-4184
▁принципқәа	-4185
▁иорганизациа	-4186
бжа	-4187
пара	-4188
▁ицә	-4189
▁лев	-4190
▁пет	-4191
▁абна	-4192
▁дыҟа	-4193
▁иажә	-4194
▁иҟал	-4195
▁дрыла	-4196
▁иабан	-4197
▁раарԥш	-4198
▁хәарҭа	-4199
еремониа	-4200
▁аизҳазы	-4201
▁октиабр	-4202
▁аладатәи	-4203
▁ажәеинраалақәа	-4204
сны	-4205
кәым	-4206
матә	-4207
▁иба	-4208
▁ҟәша	-4209
▁аруаа	-4210
▁иаргьы	-4211
▁ахәыцра	-4212
▁ақәҵымҭа	-4213
▁иреиуоуп	-4214
▁реидгыла	-4215
▁ҳалшозеи	-4216
заҳа	-4217
мыжь	-4218
орден	-4219
ԥымза	-4220
ҳәареи	-4221
▁багра	-4222
▁ииҭеит	-4223
▁аҵаразы	-4224
▁издыруа	-4225
▁иӷәӷәоу	-4226
▁ҳаҟазар	-4227
▁апринцип	-4228
▁ашәҟәқәа	-4229
▁ачемпиона	-4230
▁ирылагӡаны	-4231
▁ҭакԥхықәра	-4232
▁атәылахьчара	-4233
ора	-4234
фан	-4235
▁80	-4236
хьар	-4237
цала	-4238
▁аца	-4239
гылоз	-4240
нахыс	-4241
социа	-4242
▁аԥсҭ	-4243
ҵаразы	-4244
▁аҵиаа	-4245
▁ахазына	-4246
▁ҟарҵеит	-4247
▁аусшәҟәы	-4248
▁иаанхоит	-4249
▁искандер	-4250
▁филиппаа	-4251
▁астудентцәа	-4252
▁аҭаацәарақәа	-4253
▁идиныҳәалеит	-4254
мер	-4255
хуан	-4256
▁мшы	-4257
▁хар	-4258
▁аҵак	-4259
▁нары	-4260
▁рала	-4261
шьареи	-4262
ҵаларц	-4263
▁иазха	-4264
шьаратә	-4265
▁ҳҽазаҳ	-4266
▁зҵаарақәа	-4267
▁аҳәаанырцәтәи	-4268
су	-4269
еиба	-4270
▁ата	-4271
▁ииз	-4272
бааԥс	-4273
ҵабырг	-4274
лархәра	-4275
▁зҳалшо	-4276
▁активла	-4277
▁уазхәыц	-4278
▁мшаԥымза	-4279
▁мрагылара	-4280
▁егьи	-4281
▁ҳақә	-4282
▁акурор	-4283
▁ахарџь	-4284
▁даргьы	-4285
▁аҿырԥшы	-4286
хәыцрақәа	-4287
▁зықәрахь	-4288
рам	-4289
хҿы	-4290
бзиа	-4291
емин	-4292
шьыр	-4293
ԥҵәа	-4294
барда	-4295
▁еиду	-4296
кыланы	-4297
ԥсахра	-4298
▁ажәла	-4299
урҭақәа	-4300
▁иаҭаху	-4301
▁леонид	-4302
▁анатоли	-4303
▁зныԥшуа	-4304
▁аҭышәынтәа	-4305
▁имш	-4306
▁лар	-4307
ҵазеи	-4308
▁усзу	-4309
▁гәакьа	-4310
▁соломон	-4311
гыларақәа	-4312
▁ҭҟәарчал	-4313
▁аҿырԥштәы	-4314
▁шәхәыҷқәа	-4315
▁инеиҳангьы	-4316
▁рҭагылазаашьа	-4317
уҭ	-4318
ным	-4319
ров	-4320
куан	-4321
ҽӡаа	-4322
▁кол	-4323
▁раз	-4324
▁фев	-4325
гаӡом	-4326
гаԥса	-4327
гьара	-4328
нуҵҟа	-4329
▁абзи	-4330
▁еиҵа	-4331
▁ҳагә	-4332
ӷьареи	-4333
ҟазаара	-4334
▁аџьныш	-4335
▁зхыҵуа	-4336
▁ҳашьцәа	-4337
▁ԥхынгәымза	-4338
▁економикатә	-4339
ула	-4340
бран	-4341
▁арб	-4342
▁гыц	-4343
лымшо	-4344
▁нхыҵ	-4345
▁ҽнак	-4346
ԥсахуа	-4347
▁акәыр	-4348
▁аусзу	-4349
▁баграт	-4350
▁маҭфеи	-4351
▁алшарақәа	-4352
▁изакәызеи	-4353
▁кавказтәи	-4354
▁аиҭакрақәа	-4355
▁иазыԥҵәоуп	-4356
дум	-4357
дыс	-4358
▁рд	-4359
▁арԥ	-4360
рԥшуа	-4361
▁иали	-4362
▁иҩны	-4363
▁кәыҵ	-4364
▁фази	-4365
▁имари	-4366
▁ргәыр	-4367
ҩызцәеи	-4368
▁иҳәара	-4369
▁илҳәоит	-4370
▁аҳаҭыртә	-4371
▁иреиҳәеит	-4372
▁рзеиҭаҳәара	-4373
уи	-4374
наго	-4375
шәар	-4376
ҳәоу	-4377
▁аҩн	-4378
▁ика	-4379
▁ҟам	-4380
▁арма	-4381
▁убра	-4382
▁азура	-4383
▁ашәҟә	-4384
▁рыхьӡ	-4385
▁имҩаԥысыз	-4386
▁реиԥылара	-4387
20	-4388
▁дҭа	-4389
▁зура	-4390
▁шәха	-4391
убилеи	-4392
▁иаҳбо	-4393
▁европа	-4394
▁иаирхә	-4395
▁џьашьа	-4396
▁ҳамҭак	-4397
▁алшозеи	-4398
▁изыӡырҩ	-4399
▁иқәыԥшу	-4400
▁аспорттә	-4401
▁зҳахәҭоу	-4402
▁черқьесс	-4403
▁ахьчаратә	-4404
▁ишԥарылшо	-4405
шоз	-4406
ҭым	-4407
хшыҩ	-4408
▁мза	-4409
▁қәы	-4410
лԥшьа	-4411
мҭаны	-4412
хәоит	-4413
▁асҭа	-4414
▁уаҩы	-4415
зыԥшуп	-4416
ҳәарҭа	-4417
▁еиқәа	-4418
ҭашәара	-4419
▁аорден	-4420
▁ахгара	-4421
▁иаԥсоу	-4422
▁саргьы	-4423
▁фазиль	-4424
▁џьопуа	-4425
▁аганқәа	-4426
▁аумҭақәа	-4427
▁аларҵәара	-4428
ои	-4429
барц	-4430
▁193	-4431
▁ажь	-4432
▁уан	-4433
ҟынтә	-4434
ҭаауа	-4435
▁анаа	-4436
▁аҵла	-4437
▁есфир	-4438
▁ихаан	-4439
гарақәа	-4440
▁асасцәа	-4441
▁жәабран	-4442
▁ахәмарра	-4443
▁иахьынӡа	-4444
▁аҵыхәтәан	-4445
▁иаанагозеи	-4446
▁ирыдҳәалоу	-4447
ԥи	-4448
миа	-4449
икеи	-4450
ҟьаз	-4451
деиаа	-4452
ҵуеит	-4453
▁иуда	-4454
▁ҟазҵо	-4455
ҳараӡак	-4456
▁иҳәоуп	-4457
▁ҭаацәа	-4458
▁адгьыли	-4459
▁багаԥшь	-4460
▁алхрақәа	-4461
▁мҩаԥгахоит	-4462
▁хархәагақәа	-4463
▁46	-4464
▁ун	-4465
лшом	-4466
узеи	-4467
ҷаҳа	-4468
▁аҵә	-4469
▁ель	-4470
▁сеи	-4471
▁рҳәа	-4472
▁ҟаҵа	-4473
▁ҭыԥқәа	-4474
▁ҳазҭоу	-4475
▁аихьӡара	-4476
▁цәгьақәа	-4477
▁иԥааимбар	-4478
▁агәымбылџь	-4479
уҩы	-4480
▁ҟана	-4481
ҩаԥысуа	-4482
ҿцәажәо	-4483
▁арамка	-4484
▁иҭыҵыз	-4485
▁маҵура	-4486
▁асҭамыр	-4487
▁ҳажәлар	-4488
▁ихьанҭоу	-4489
▁лажәақәа	-4490
▁сентиабр	-4491
▁усбарҭақәа	-4492
ӡәа	-4493
▁би	-4494
ҷара	-4495
▁196	-4496
▁иам	-4497
рҭынч	-4498
ҵозар	-4499
▁зқәым	-4500
▁анеира	-4501
▁цхыраа	-4502
▁ԥсыхәа	-4503
▁абзацқәа	-4504
▁иазгәарҭ	-4505
▁институт	-4506
▁усҟантәи	-4507
▁рхархәара	-4508
уааи	-4509
▁зцу	-4510
▁изи	-4511
▁уна	-4512
рыԥшь	-4513
▁хшыҩ	-4514
▁аалыҵ	-4515
▁интер	-4516
▁шыҟоу	-4517
чымазара	-4518
▁иарбанзаалак	-4519
еки	-4520
лых	-4521
орис	-4522
стра	-4523
ҟаза	-4524
▁зыз	-4525
▁иап	-4526
клаԥш	-4527
лшара	-4528
▁агьа	-4529
▁зуаз	-4530
▁иаир	-4531
▁ааглы	-4532
▁ароль	-4533
▁зураб	-4534
▁лакоба	-4535
▁руаӡәк	-4536
цхраауан	-4537
▁иорданиа	-4538
▁ахымҩаԥга	-4539
▁ишԥааирԥш	-4540
▁анагӡаразы	-4541
▁жәеинраала	-4542
▁ҳацхраауеит	-4543
▁иазԥхьагәаҭоу	-4544
рын	-4545
ҵак	-4546
ҟәыр	-4547
▁млн	-4548
бааны	-4549
ециал	-4550
уклет	-4551
▁ақәи	-4552
▁аимак	-4553
▁албаа	-4554
▁кәала	-4555
цәырҵуа	-4556
▁аҭыжьы	-4557
▁иаалыр	-4558
▁аԥшаҳәа	-4559
▁уиаҟара	-4560
▁цәгьара	-4561
▁ааирԥшит	-4562
емо	-4563
руг	-4564
ԥшы	-4565
▁см	-4566
гало	-4567
ҵаар	-4568
▁ишь	-4569
▁саи	-4570
▁ҳша	-4571
▁аани	-4572
▁агха	-4573
▁аҩна	-4574
▁аҳаир	-4575
▁ишԥаи	-4576
▁аҵаиҩит	-4577
▁аныҳәарҭа	-4578
▁аполитика	-4579
▁агәыҳалалратә	-4580
▁ич	-4581
цәым	-4582
ԥшыз	-4583
▁ҳау	-4584
ҩызшо	-4585
ҵәоит	-4586
▁иҟны	-4587
▁ныҳәа	-4588
хьчареи	-4589
▁ашьаус	-4590
▁иакәын	-4591
▁шәареи	-4592
▁ҟалаӡом	-4593
▁кәаласаа	-4594
▁наԥхгара	-4595
зра	-4596
ӡои	-4597
ӷар	-4598
ркра	-4599
▁мыз	-4600
▁рба	-4601
хыҵра	-4602
▁иаур	-4603
цәагьы	-4604
▁иаҳәо	-4605
▁алгара	-4606
▁рыгәра	-4607
дыруазар	-4608
▁асоциал	-4609
▁аашәырԥш	-4610
▁мҩаԥигеит	-4611
▁акыршықәса	-4612
▁ачемпионат	-4613
цәи	-4614
▁55	-4615
мҩаԥ	-4616
ӷьас	-4617
еилыр	-4618
▁2014	-4619
▁аҭыр	-4620
хылаԥш	-4621
▁ааныр	-4622
▁атеатр	-4623
▁иҿыԥшра	-4624
ҵәо	-4625
▁ез	-4626
▁гри	-4627
маҭәа	-4628
▁арым	-4629
▁уама	-4630
▁аҩган	-4631
▁еилыс	-4632
▁иаҿуп	-4633
▁иусура	-4634
▁иҟарҵо	-4635
▁иҟаҵаны	-4636
▁иазырхоу	-4637
ҟәымҵӡакәа	-4638
▁еиҳараӡак	-4639
▁шәрыхәаԥш	-4640
▁ҩынтәзакәан	-4641
ҩар	-4642
кара	-4643
ҳәыз	-4644
▁дыл	-4645
▁цәа	-4646
▁акьа	-4647
▁дууп	-4648
дыруеи	-4649
▁аштат	-4650
▁хадас	-4651
анитартә	-4652
▁игәҭакы	-4653
▁ишәымоу	-4654
▁азааигәара	-4655
▁аԥсахрақәа	-4656
▁миллионҩыла	-4657
▁рызҵаарақәа	-4658
▁иаанарԥшуеит	-4659
▁ишԥаҳацхраауеи	-4660
дм	-4661
шу	-4662
раль	-4663
ҭахын	-4664
▁алеи	-4665
▁аҭах	-4666
▁шына	-4667
гыларц	-4668
▁адлеи	-4669
▁закәу	-4670
▁спорт	-4671
▁арыцҳа	-4672
ҵахырхәа	-4673
▁иҳалшоит	-4674
▁амаҵзуратә	-4675
▁аҽынкылара	-4676
▁еилҳаргоит	-4677
сп	-4678
ану	-4679
енд	-4680
▁доу	-4681
▁еле	-4682
▁шам	-4683
ланар	-4684
▁18.0	-4685
▁иԥша	-4686
▁сгәа	-4687
▁фонд	-4688
▁шәын	-4689
озициа	-4690
ҭахӡам	-4691
ҵаареи	-4692
▁иҽази	-4693
▁навин	-4694
▁наигӡ	-4695
▁реиҭа	-4696
▁ацқьара	-4697
▁иҳаҩсыз	-4698
▁аиқәԥара	-4699
▁акыраамҭа	-4700
▁аиԥыларақәа	-4701
▁иаалырҟьаны	-4702
▁раԥхьаӡатәи	-4703
▁азакәанеидкыла	-4704
ома	-4705
гәуа	-4706
план	-4707
салиа	-4708
ҟәаҿы	-4709
▁ашҟа	-4710
▁ириа	-4711
▁рыԥс	-4712
кәшара	-4713
цалара	-4714
▁ахәыц	-4715
▁изыҟа	-4716
▁иҳәон	-4717
▁зыхьӡу	-4718
▁идунеи	-4719
▁ахьынӡа	-4720
▁кәыҵниа	-4721
цәыхьчара	-4722
▁ҭахрақәа	-4723
▁ицхыраара	-4724
▁иҭаацәара	-4725
дак	-4726
лра	-4727
▁от	-4728
иҭарц	-4729
цҵаны	-4730
шьҭан	-4731
шәқәа	-4732
қәоуп	-4733
▁комп	-4734
▁ашьра	-4735
▁борис	-4736
▁ҭынха	-4737
▁ахатәы	-4738
▁рынцәа	-4739
цхраауаз	-4740
ыҵәҟьаны	-4741
▁басариа	-4742
▁ахәҭақәа	-4743
▁реиҳәеит	-4744
▁ацхыраарала	-4745
бац	-4746
ҵау	-4747
ҵыс	-4748
ӷыр	-4749
хәуа	-4750
ҭыԥш	-4751
▁зду	-4752
▁амет	-4753
▁аҭар	-4754
▁ибон	-4755
▁аахыс	-4756
▁иадыр	-4757
▁лазар	-4758
гьежьра	-4759
▁абираҟ	-4760
▁аизарахь	-4761
▁ариашара	-4762
бзи	-4763
туа	-4764
▁рны	-4765
▁уах	-4766
▁акры	-4767
▁бжьы	-4768
▁ддыр	-4769
▁агәеи	-4770
▁еилаҳ	-4771
▁иалоу	-4772
▁ианаа	-4773
▁изнык	-4774
ныҟәоит	-4775
▁амқәаб	-4776
▁ашьаҭа	-4777
▁жәабжь	-4778
▁шәхаҿы	-4779
▁система	-4780
▁асахьаҿы	-4781
▁ирыбжьоу	-4782
▁рыдкылара	-4783
▁ақалақьқәа	-4784
▁мраҭашәара	-4785
▁разыҟаҵара	-4786
▁рыцхыраара	-4787
урц	-4788
крат	-4789
сқәа	-4790
▁кар	-4791
▁ҳир	-4792
▁амҽы	-4793
▁иаци	-4794
▁инал	-4795
▁аҳара	-4796
▁жәаба	-4797
▁ицқьам	-4798
▁аиашазы	-4799
▁дызусҭа	-4800
▁изааигәа	-4801
гәалашәоит	-4802
ҩи	-4803
гом	-4804
ҵыр	-4805
ҵәыр	-4806
▁аҷы	-4807
▁вик	-4808
ҩанга	-4809
▁иаба	-4810
▁изыз	-4811
▁аҿари	-4812
▁абуклет	-4813
▁еиҿкаау	-4814
▁иалкаау	-4815
шьаалақәа	-4816
▁аԥсҭалара	-4817
▁қырҭтәыла	-4818
▁агәырҿыхагақәа	-4819
ал	-4820
кле	-4821
лаи	-4822
лаша	-4823
џьал	-4824
ӡааӡо	-4825
▁атәа	-4826
▁зҳәо	-4827
▁арԥар	-4828
доуҳатә	-4829
▁афильм	-4830
▁еиӷьуп	-4831
▁захьӡу	-4832
▁ҳамҭас	-4833
▁февраль	-4834
▁аброшиурақәа	-4835
▁ацәаныррақәа	-4836
▁ор	-4837
гори	-4838
тиор	-4839
фика	-4840
хьам	-4841
▁хаз	-4842
▁хкы	-4843
зиаст	-4844
▁арра	-4845
шәарыц	-4846
▁иҳаил	-4847
риаҟара	-4848
▁ахысра	-4849
▁аҵараи	-4850
▁гәацԥы	-4851
▁есфирь	-4852
▁иаҳгәа	-4853
▁ириҭаз	-4854
▁партиа	-4855
цәыцәгьа	-4856
ҵамҭақәа	-4857
▁арыжәтә	-4858
▁амзызқәа	-4859
▁ааҳарԥшуеит	-4860
▁аветеранцәа	-4861
▁азакәанԥҵара	-4862
вер	-4863
лин	-4864
цны	-4865
▁65	-4866
▁со	-4867
▁ум	-4868
ҿиаа	-4869
▁нам	-4870
бжьар	-4871
▁сааҭ	-4872
▁ахәым	-4873
зымариа	-4874
зыҟашьа	-4875
ҭынҵара	-4876
▁иалаго	-4877
▁иезеки	-4878
гәыӷрақәа	-4879
▁аамҭазгьы	-4880
▁аибашьцәа	-4881
▁диҿцәажәо	-4882
▁атерриториа	-4883
▁ихаҭыԥуаҩыс	-4884
нет	-4885
шәаз	-4886
▁195	-4887
▁адип	-4888
▁диит	-4889
▁идир	-4890
▁рыди	-4891
шәалоу	-4892
▁анапа	-4893
▁атекст	-4894
▁аԥсшәа	-4895
▁виктор	-4896
▁иаанхаз	-4897
▁ҳахәаԥшып	-4898
▁республика	-4899
▁азԥхьагәаҭоуп	-4900
изн	-4901
уад	-4902
ҭам	-4903
ҭарц	-4904
▁габ	-4905
▁дым	-4906
▁агра	-4907
▁саул	-4908
▁еизаз	-4909
дкыланы	-4910
▁ааӡаԥса	-4911
▁ахәҭоуп	-4912
▁ӷәӷәақәа	-4913
▁ақәныҟәара	-4914
▁бзиабарала	-4915
▁изныкымкәа	-4916
▁аинвестициатә	-4917
гаа	-4918
еила	-4919
жьын	-4920
ҳана	-4921
▁аҷа	-4922
амҭоу	-4923
дароу	-4924
ҵзуреи	-4925
▁дҳара	-4926
▁кырӡа	-4927
▁ркуль	-4928
лҵшьҭра	-4929
▁аиҭага	-4930
▁ашьаҿа	-4931
▁петерб	-4932
клезиаст	-4933
▁аарԥшуа	-4934
▁иалахәу	-4935
▁иҳамоуп	-4936
▁азнеишьа	-4937
▁ихәыцшьа	-4938
▁аиқәырхара	-4939
▁ацеремониа	-4940
▁ргәалашәара	-4941
хада	-4942
ҩбара	-4943
ҳамҭа	-4944
ҵанӡа	-4945
▁алев	-4946
▁ахьч	-4947
▁бара	-4948
▁хәҭа	-4949
хгареи	-4950
▁амхра	-4951
▁ашәра	-4952
▁рылар	-4953
▁шалшо	-4954
дыруама	-4955
ӷәӷәеит	-4956
▁аҳәсеи	-4957
▁григори	-4958
▁шаҳаҭра	-4959
▁аамҭахәҭа	-4960
▁ашәҟәыҩҩы	-4961
▁хаҭалатәи	-4962
▁ажәалагала	-4963
▁политикатә	-4964
уд	-4965
▁мш	-4966
▁фл	-4967
мҭаз	-4968
фара	-4969
ӡоуп	-4970
▁аев	-4971
▁ихи	-4972
▁тра	-4973
▁анры	-4974
▁аума	-4975
цылара	-4976
▁роуит	-4977
▁ҵакыс	-4978
хәаԥшра	-4979
▁абџьар	-4980
▁асцена	-4981
▁адаҟьақәа	-4982
▁афинанстә	-4983
▁қәҿиарала	-4984
▁амҩақәҵара	-4985
▁ахазынақәа	-4986
шш	-4987
тит	-4988
уар	-4989
баау	-4990
зылԥ	-4991
наҭо	-4992
шьуа	-4993
ыртә	-4994
ҭәаа	-4995
▁агы	-4996
▁пол	-4997
лшәыр	-4998
цәымӷ	-4999
шәаны	-5000
ҭанеи	-5001
ԥеиԥш	-5002
▁зқьы	-5003
▁крас	-5004
▁ҳани	-5005
гахоит	-5006
шәылшо	-5007
▁ибжьы	-5008
ӷәӷәареи	-5009
▁аханатә	-5010
▁аҟәымшәы	-5011
▁аҳауагәа	-5012
▁изаамҭаны	-5013
▁петербург	-5014
▁абжьаратәи	-5015
▁азҿлымҳара	-5016
ыҩ	-5017
▁э	-5018
ген	-5019
▁ел	-5020
▁виа	-5021
▁рин	-5022
▁рҵа	-5023
балак	-5024
гылаҩ	-5025
естор	-5026
▁адәа	-5027
▁аимп	-5028
▁амин	-5029
▁анҳа	-5030
▁саит	-5031
▁техн	-5032
шьақәа	-5033
▁ирыди	-5034
▁алырша	-5035
▁жәлары	-5036
▁мҩаԥыз	-5037
қьырсиан	-5038
▁агхақәа	-5039
▁имариам	-5040
▁ицхыраа	-5041
▁џьаҳаны	-5042
▁ҵәыџьԥҳа	-5043
▁ианаамҭоу	-5044
▁рыцхраара	-5045
▁аколлектив	-5046
▁ажурналистцәа	-5047
еж	-5048
быс	-5049
сит	-5050
ӡеи	-5051
▁ҷы	-5052
▁ҳаа	-5053
▁ареж	-5054
емориа	-5055
чеслав	-5056
џьагьы	-5057
ҳәозеи	-5058
▁зыхьӡ	-5059
▁реила	-5060
▁аламыс	-5061
▁цәеижь	-5062
▁ҭҵаара	-5063
▁аспециал	-5064
▁инеихьоу	-5065
▁азыӡырҩра	-5066
▁виачеслав	-5067
▁игәалашәара	-5068
▁имҩаԥысраны	-5069
фо	-5070
сим	-5071
цун	-5072
хиаз	-5073
ҟала	-5074
ҭәеи	-5075
▁иун	-5076
▁ҩны	-5077
лартә	-5078
хаӡом	-5079
шәарц	-5080
ентқәа	-5081
шәареи	-5082
ԥҵәара	-5083
▁аилар	-5084
▁иахыс	-5085
▁ҭарба	-5086
▁аагара	-5087
▁аԥшәма	-5088
▁иҟаҳҵар	-5089
▁иҟәыӷоу	-5090
▁инарҭбааны	-5091
▁ажәабжьҳәаҩ	-5092
ҭон	-5093
арас	-5094
елли	-5095
ункт	-5096
цқьа	-5097
ыреи	-5098
▁хԥа	-5099
неиуа	-5100
тациа	-5101
ӡареи	-5102
иссиор	-5103
шьуеит	-5104
ҷаҳара	-5105
▁аҩӡба	-5106
▁ихала	-5107
▁пицун	-5108
хырҭатә	-5109
▁ацҵара	-5110
ферендум	-5111
▁иашьцәа	-5112
▁иреиҳау	-5113
▁рыцҳара	-5114
ҵанакуеит	-5115
▁ахырхарҭа	-5116
▁иԥхьаӡоуп	-5117
▁иаҳнарбоит	-5118
▁аҳәынҭқарреи	-5119
▁ос	-5120
▁шу	-5121
▁ица	-5122
▁чач	-5123
▁шаа	-5124
закны	-5125
ндара	-5126
▁гәаҟ	-5127
▁дааи	-5128
▁дула	-5129
▁нико	-5130
▁дшыҟа	-5131
цәгьоуп	-5132
▁гәахәа	-5133
▁ҟазара	-5134
▁абырзен	-5135
▁ахьыҟоу	-5136
▁ахьӡала	-5137
▁аӡбарҭа	-5138
▁аҵарауаҩ	-5139
▁ишьақәир	-5140
▁рыԥшаара	-5141
▁џьаҳаным	-5142
▁игәрахаҵара	-5143
4;	-5144
шԥа	-5145
ҵам	-5146
124;	-5147
лекс	-5148
▁кан	-5149
галан	-5150
ынтәи	-5151
▁афар	-5152
▁дҳар	-5153
сҳәоит	-5154
хароуп	-5155
▁аршба	-5156
▁иманы	-5157
▁&#124;	-5158
▁зхадоу	-5159
ранспорт	-5160
▁аизҳара	-5161
▁уажәазы	-5162
▁аимадара	-5163
▁имаҵзура	-5164
▁цәанырра	-5165
▁ареферендум	-5166
▁ԥхынҷкәынмза	-5167
бус	-5168
дио	-5169
лга	-5170
ума	-5171
хоуп	-5172
▁авт	-5173
гылон	-5174
хразы	-5175
хәҭам	-5176
▁адир	-5177
▁асар	-5178
▁ишаа	-5179
▁рыбз	-5180
гхақәа	-5181
▁акоуп	-5182
▁аӡӷаб	-5183
▁иааит	-5184
▁иалыр	-5185
▁усқәа	-5186
▁аҳасаб	-5187
дыррақәа	-5188
▁гәыԥҩык	-5189
▁иақәшәо	-5190
▁изиашаз	-5191
мԥадатәиу	-5192
▁раарԥшра	-5193
▁агәнаҳара	-5194
▁акандидат	-5195
▁араионқәа	-5196
▁литература	-5197
▁ҳҳәынҭқарра	-5198
▁аџьынџьтәылатә	-5199
тап	-5200
▁ҵы	-5201
ԥсуа	-5202
иҵеит	-5203
кәара	-5204
▁бааш	-5205
▁злам	-5206
▁ихәы	-5207
▁иҟас	-5208
▁ҳзыр	-5209
разҵаа	-5210
▁иаауа	-5211
гылазаа	-5212
▁амузеи	-5213
▁амҩаду	-5214
▁мадина	-5215
▁изиашоу	-5216
▁ҿарацәа	-5217
динхаҵара	-5218
ҽанызаара	-5219
▁инацҵаны	-5220
▁ихьыԥшым	-5221
▁қәыӷәӷәара	-5222
▁ашьапылампыл	-5223
▁иҳацхраауазеи	-5224
ҵаша	-5225
ӷьаҳ	-5226
▁ава	-5227
▁аок	-5228
▁аӷа	-5229
▁сры	-5230
▁иқәы	-5231
▁ршьа	-5232
▁шьын	-5233
уазҭгьы	-5234
цәыхара	-5235
ҵыхәтәа	-5236
▁ацентр	-5237
▁иаарԥш	-5238
▁рҳәеит	-5239
▁ҳаҟоуп	-5240
▁анаӡара	-5241
▁ақырҭуа	-5242
▁ирҳәоит	-5243
▁иуадаҩу	-5244
▁ҟаиҵоит	-5245
▁ҳаиҭоит	-5246
▁аиӷьтәра	-5247
▁инагӡаны	-5248
▁аҟәандара	-5249
▁афедералтә	-5250
дин	-5251
▁уас	-5252
▁флп	-5253
еиқәа	-5254
▁санкт	-5255
ҳәарада	-5256
▁библиа	-5257
▁иԥацәа	-5258
меигӡара	-5259
социациа	-5260
▁ибзиаӡаны	-5261
ван	-5262
зак	-5263
кад	-5264
меҭ	-5265
▁ен	-5266
хашә	-5267
цәаз	-5268
ҽхак	-5269
ԥыло	-5270
▁хыс	-5271
каала	-5272
шәҳәа	-5273
ҭаратә	-5274
ҭҵаара	-5275
▁ахала	-5276
▁ухаҿы	-5277
▁ҩажәи	-5278
▁аҭахуп	-5279
▁ибзиоу	-5280
бзиабара	-5281
гәалашәо	-5282
▁агәырҩа	-5283
▁азгәарҭ	-5284
▁аҵарауаа	-5285
▁шықәсанӡа	-5286
▁аԥсҭҳәақәа	-5287
▁ишьақәгылаз	-5288
▁апроблемақәа	-5289
▁далацәажәеит	-5290
▁имҵахырхәара	-5291
ты	-5292
гуа	-5293
хап	-5294
ҵом	-5295
▁90	-5296
геиа	-5297
ԥшны	-5298
▁500	-5299
▁зна	-5300
▁ицо	-5301
▁ула	-5302
▁асра	-5303
▁раҳа	-5304
гәылиа	-5305
хаанӡа	-5306
хыҵуаз	-5307
▁аргәы	-5308
▁арԥыс	-5309
▁аҟәыр	-5310
▁аҷыда	-5311
▁игәаз	-5312
▁руеит	-5313
▁шьаҿа	-5314
▁афилиа	-5315
▁апионер	-5316
▁алахәцәа	-5317
▁аҩадатәи	-5318
▁егьырҭгьы	-5319
▁иезекииль	-5320
гер	-5321
цоз	-5322
▁цы	-5323
одар	-5324
хуаз	-5325
шақә	-5326
ӷьыц	-5327
қьаны	-5328
▁афак	-5329
▁аҳәы	-5330
▁еица	-5331
▁ирба	-5332
ҭбаара	-5333
ҽхәара	-5334
▁ахӡыр	-5335
▁инаӡо	-5336
▁марфа	-5337
▁рхала	-5338
▁рыман	-5339
▁фесса	-5340
шәшәара	-5341
▁аидара	-5342
▁аламҭа	-5343
▁афымца	-5344
▁аҳәатә	-5345
▁изеиԥш	-5346
кәыршаны	-5347
цеиҩызшо	-5348
▁аанарԥш	-5349
▁рџьынџь	-5350
▁адиректор	-5351
ҽыз	-5352
▁ол	-5353
тәны	-5354
цырк	-5355
▁веф	-5356
▁хьа	-5357
▁қьа	-5358
валид	-5359
цәаҳа	-5360
галеит	-5361
уктура	-5362
▁акурс	-5363
▁аумҭа	-5364
▁елена	-5365
▁ҳҳәар	-5366
▁дақәиҭ	-5367
▁марина	-5368
▁уаргьы	-5369
▁ҭоурых	-5370
▁ауаагьы	-5371
▁иаартны	-5372
▁рыхгара	-5373
▁ҳаиҿыԥш	-5374
▁фессалон	-5375
▁аиҿкааҩцәа	-5376
ӡе	-5377
вал	-5378
уама	-5379
ҟана	-5380
▁аел	-5381
▁вен	-5382
▁дук	-5383
▁заҳ	-5384
▁зда	-5385
▁иҭи	-5386
иться	-5387
ӡәӡәа	-5388
▁ачар	-5389
▁быжь	-5390
▁ателе	-5391
▁дызла	-5392
▁шәана	-5393
▁ҟаԥшь	-5394
▁агәыла	-5395
▁рхатәы	-5396
▁рыбжьа	-5397
▁ҳауеит	-5398
ҭеиҳәеит	-5399
▁адҵақәа	-5400
▁мҩаԥган	-5401
▁абызшәақәа	-5402
▁ахымҩаԥгашьа	-5403
▁рыгәрахаҵара	-5404
гыз	-5405
▁ед	-5406
ӡами	-5407
ӷьра	-5408
▁иир	-5409
бласт	-5410
шанҵа	-5411
▁шьҭи	-5412
тәқәеи	-5413
▁иааны	-5414
заалакь	-5415
хаҵареи	-5416
▁аҵыхәа	-5417
▁вефиль	-5418
мыршҭлан	-5419
хҭынҵара	-5420
қәыргәыӷ	-5421
▁адлеиба	-5422
▁аиҭанеи	-5423
▁бызшәеи	-5424
▁риааира	-5425
▁ҳахәҭоу	-5426
▁аҽӡаахра	-5427
▁гәахәара	-5428
▁иҿырԥштәы	-5429
▁аԥсабаратә	-5430
▁ахшыҩзышьҭра	-5431
лов	-5432
ибоз	-5433
роль	-5434
әыма	-5435
▁зну	-5436
гарала	-5437
хьчала	-5438
▁астра	-5439
▁иаҩыз	-5440
▁тарас	-5441
▁иамоуп	-5442
▁акьыԥхь	-5443
▁амшынӡы	-5444
▁анагара	-5445
▁рыҿиара	-5446
▁жәаҳәарада	-5447
лла	-5448
наа	-5449
сон	-5450
суа	-5451
▁рб	-5452
едит	-5453
ҭцәа	-5454
▁рыш	-5455
иақәа	-5456
ссатә	-5457
ԥшаар	-5458
▁архе	-5459
▁илеи	-5460
▁исым	-5461
▁хьӡы	-5462
▁доусы	-5463
▁лареи	-5464
▁ҟалом	-5465
▁аиасра	-5466
▁здыруа	-5467
▁иҟаҵоу	-5468
▁римтәи	-5469
▁шьынқә	-5470
цԥыҳәара	-5471
▁алитера	-5472
▁иҳараку	-5473
▁адиаспора	-5474
▁ахьырхәра	-5475
▁инормақәа	-5476
▁еиликаауан	-5477
▁шәыԥсҭазаара	-5478
оди	-5479
ҩыр	-5480
ынӡа	-5481
▁адо	-5482
▁жен	-5483
▁ахыҵ	-5484
▁аҭаа	-5485
▁дзыр	-5486
▁хҩык	-5487
▁ԥсра	-5488
▁абаҟа	-5489
▁азыҟа	-5490
▁дахьа	-5491
▁шәгәа	-5492
▁ҭаара	-5493
▁еизгоу	-5494
▁иаҳзеи	-5495
▁алаҵара	-5496
▁иакәзар	-5497
▁уамашәа	-5498
▁аихшанҵа	-5499
▁иаҳҭахуп	-5500
▁иеиҳәоит	-5501
▁категориа	-5502
▁уаанӡатәи	-5503
▁рацәажәара	-5504
▁ргәаанагара	-5505
▁ахырхарҭақәа	-5506
ӡыз	-5507
▁пер	-5508
▁ҭын	-5509
▁дыши	-5510
▁лахь	-5511
шәҵала	-5512
ҭахоит	-5513
ҭаххар	-5514
ԥылоит	-5515
▁иҭынч	-5516
▁рцәыр	-5517
еицуреи	-5518
▁аформа	-5519
▁ҟарҵоит	-5520
▁ирацәоуп	-5521
▁аҭҵааразы	-5522
▁идикылеит	-5523
▁алагамҭаҿы	-5524
▁иазгәаҭоуп	-5525
▁иҟаҵатәузеи	-5526
▁рықәныҟәара	-5527
▁ҳгәазҭанаҵоит	-5528
ник	-5529
сыз	-5530
ҳаи	-5531
олда	-5532
убли	-5533
екциа	-5534
жәытә	-5535
ҽеира	-5536
▁ауан	-5537
▁банк	-5538
▁шәҽа	-5539
заазго	-5540
нҩажәи	-5541
▁абҩар	-5542
▁астол	-5543
▁ауада	-5544
▁мысра	-5545
▁рнапы	-5546
▁шьҭыз	-5547
▁ҳажәа	-5548
▁амшала	-5549
▁ахыхра	-5550
▁бзиоуп	-5551
графиатә	-5552
рҭадареи	-5553
▁иҳаиҭаз	-5554
гәырӷьара	-5555
▁алаҳәара	-5556
▁рымацара	-5557
▁ҳаамҭазтәи	-5558
▁ауниверситет	-5559
аӡа	-5560
лен	-5561
оҭа	-5562
хәуп	-5563
▁ӡба	-5564
ангьа	-5565
ԥсоуп	-5566
▁изин	-5567
▁ыҟан	-5568
▁агәам	-5569
▁гыцба	-5570
▁иссир	-5571
▁иубар	-5572
уратура	-5573
ҳәаларц	-5574
▁иақәиҭ	-5575
▁ииҭаху	-5576
▁ишәзеи	-5577
▁шьҭахь	-5578
▁аанхара	-5579
▁ахақәиҭ	-5580
▁хыркәша	-5581
▁аԥстәқәа	-5582
▁рҵыхәтәа	-5583
▁аҽалархәра	-5584
▁екклезиаст	-5585
▁уԥсҭазаара	-5586
▁анапхгаратә	-5587
цар	-5588
анба	-5589
леиа	-5590
лимп	-5591
▁ави	-5592
▁зан	-5593
зҭгьы	-5594
ӡбоит	-5595
▁агум	-5596
▁угәа	-5597
халоит	-5598
ԥшуазар	-5599
▁арҳара	-5600
▁ахәаша	-5601
▁аҩныҟа	-5602
▁аҳабла	-5603
▁иаԥсам	-5604
▁сынцәа	-5605
шәалахәы	-5606
▁азанааҭ	-5607
▁аиԥшәым	-5608
▁аобласт	-5609
▁имгакәа	-5610
▁шықәсқәа	-5611
▁шьамтәыла	-5612
▁аофициалтә	-5613
▁асаламшәҟәы	-5614
ҟак	-5615
▁аҷ	-5616
▁ҳал	-5617
бозар	-5618
ҭареи	-5619
▁авва	-5620
▁адис	-5621
лараны	-5622
ҷаҳауа	-5623
гәеиҭаз	-5624
▁англыз	-5625
▁иреиӷь	-5626
▁иҟаҳҵо	-5627
▁нестор	-5628
▁рҭахуп	-5629
▁хылоит	-5630
зыӡырҩла	-5631
џьынџьал	-5632
▁армагед	-5633
▁ацәгьеи	-5634
▁информа	-5635
▁ҳџьынџь	-5636
дыруазааит	-5637
▁амилаҭқәа	-5638
▁реиҿкаара	-5639
лаа	-5640
шәҭ	-5641
▁мм	-5642
гшәы	-5643
либа	-5644
нест	-5645
▁аль	-5646
▁тур	-5647
▁ԥыҭ	-5648
ломат	-5649
шықәс	-5650
ҵәеит	-5651
▁аара	-5652
▁аҵаа	-5653
шаратә	-5654
әымкәа	-5655
▁азхам	-5656
▁ишәыз	-5657
▁нахыс	-5658
▁шәахь	-5659
▁ҭаниа	-5660
кәызгьы	-5661
қәҵареи	-5662
ҽанҵара	-5663
▁аргәаҟ	-5664
▁иаҳдыр	-5665
▁ицқьоу	-5666
▁каҳаны	-5667
▁қалақь	-5668
зылхратә	-5669
хыраареи	-5670
ҿиарақәа	-5671
▁зынӡаск	-5672
▁аҟәыӷареи	-5673
▁армагеддон	-5674
еви	-5675
тав	-5676
▁ҿы	-5677
арда	-5678
шәан	-5679
қәын	-5680
▁зма	-5681
▁рза	-5682
▁ҟал	-5683
ҵысра	-5684
▁азыр	-5685
▁арба	-5686
▁аӷьы	-5687
▁икыл	-5688
▁иҩит	-5689
▁реид	-5690
▁ҵакы	-5691
гәаҟуа	-5692
ҵароуп	-5693
▁красн	-5694
▁аҵареи	-5695
▁ҟалеит	-5696
▁галаҭаа	-5697
▁аринахыс	-5698
▁ацәанырра	-5699
▁ацәгьоура	-5700
▁агәазыҳәара	-5701
ия	-5702
▁47	-5703
вира	-5704
заҵә	-5705
ҵаҟа	-5706
ӡқәа	-5707
ԥшыр	-5708
шәоуп	-5709
▁акыд	-5710
▁згаз	-5711
▁здыз	-5712
▁ицәа	-5713
▁шәаз	-5714
хьынтә	-5715
хәҭоуп	-5716
▁ажәра	-5717
▁ачара	-5718
▁нагӡа	-5719
гәырӷьо	-5720
ҵауланы	-5721
▁андреи	-5722
▁анажьра	-5723
▁аӡхыҵра	-5724
▁аинвалид	-5725
▁закәанла	-5726
▁ахәыҷқәеи	-5727
▁ааглыхратә	-5728
▁апроектқәа	-5729
▁ацәқәырԥара	-5730
▁еиҿкаарақәа	-5731
еч	-5732
▁рп	-5733
аиуа	-5734
езиа	-5735
скьа	-5736
уара	-5737
ҵӷәы	-5738
ԥҳаи	-5739
▁иқь	-5740
▁ҳма	-5741
цҳауа	-5742
▁апол	-5743
▁аџьы	-5744
▁ақәҵ	-5745
▁иацә	-5746
▁иира	-5747
▁сана	-5748
тәуеит	-5749
хатәра	-5750
ҿагыла	-5751
▁иԥсыз	-5752
хәыцшьа	-5753
қәныҟәа	-5754
▁арзаҳа	-5755
▁ахьтәы	-5756
▁шымҩаԥ	-5757
▁атәылаҿа	-5758
▁ишәарҭоу	-5759
▁иҭаацәеи	-5760
▁адемонцәа	-5761
▁реилкаара	-5762
▁апрофессор	-5763
▁ашьҭахьгьы	-5764
▁рыбзоурала	-5765
▁аадырԥшуеит	-5766
▁алацәажәара	-5767
▁агәацԥыҳәара	-5768
▁аҭагылазаашьаҿы	-5769
ып	-5770
овч	-5771
хив	-5772
орон	-5773
хьуа	-5774
▁кам	-5775
▁мак	-5776
отека	-5777
ҟарҵо	-5778
▁ауха	-5779
▁афил	-5780
▁афон	-5781
▁ешба	-5782
▁иаха	-5783
▁избо	-5784
▁илым	-5785
▁ркон	-5786
▁ҳаны	-5787
шаҭара	-5788
ҵәыреи	-5789
▁алаԥш	-5790
▁баҭал	-5791
▁ибара	-5792
▁ииуль	-5793
▁ҿиара	-5794
инистра	-5795
▁аԥсреи	-5796
▁женева	-5797
▁ицәгьа	-5798
▁риҭоит	-5799
▁анаплак	-5800
▁уадаҩра	-5801
▁абарҭқәа	-5802
▁аинститут	-5803
▁алагалара	-5804
▁ацәеижьтә	-5805
▁иуаажәлар	-5806
нт	-5807
рк	-5808
▁52	-5809
▁до	-5810
▁ни	-5811
лазы	-5812
▁амы	-5813
▁иԥы	-5814
▁сха	-5815
оуеит	-5816
усура	-5817
▁2013	-5818
▁амон	-5819
▁аном	-5820
истика	-5821
▁актиор	-5822
▁аредак	-5823
▁иакәны	-5824
▁тәылак	-5825
▁аԥхьаҟа	-5826
▁мчыбжьы	-5827
▁апроцесс	-5828
▁аҩганктәи	-5829
▁иааизакны	-5830
▁аиԥылараҿы	-5831
▁апатуқәҵара	-5832
▁инарҵауланы	-5833
▁ажьырныҳәамза	-5834
шьаз	-5835
мариа	-5836
хәаша	-5837
▁асим	-5838
▁ахыб	-5839
▁аҩра	-5840
▁мыса	-5841
ԥхьеит	-5842
▁иамаз	-5843
▁иҭахы	-5844
▁мыкәша	-5845
▁хықәкы	-5846
▁апартиа	-5847
▁драматә	-5848
▁иаҳәшьа	-5849
▁инаӡеит	-5850
▁зылԥхара	-5851
▁апрокурор	-5852
▁ишьақәнар	-5853
▁аобиектқәа	-5854
▁астатиақәа	-5855
▁апубликациа	-5856
▁иалацәажәеит	-5857
дан	-5858
▁қы	-5859
ертә	-5860
жәба	-5861
икаа	-5862
сҭан	-5863
шьни	-5864
ҟало	-5865
ҭира	-5866
▁ҵҩа	-5867
▁акәы	-5868
▁еибы	-5869
▁иҟау	-5870
бацәеи	-5871
▁ҟалап	-5872
▁ҳасаб	-5873
шарақәа	-5874
шьҭуеит	-5875
▁иаажәг	-5876
накылоит	-5877
ҭыԥқәаки	-5878
ԥҟарақәа	-5879
▁ахацәеи	-5880
▁ашьхара	-5881
▁иаагоуп	-5882
▁николаи	-5883
▁аиашамра	-5884
▁аҭыжьымҭа	-5885
▁шәыбжьара	-5886
▁ралагалара	-5887
▁хәажәкырамза	-5888
▁ацҳаражәҳәарҭа	-5889
ҩна	-5890
▁51	-5891
енко	-5892
▁сыл	-5893
▁ҭоу	-5894
ыҩцәа	-5895
ҳәаша	-5896
ӡаара	-5897
▁азым	-5898
▁акар	-5899
▁бжьа	-5900
▁ицәы	-5901
▁иҭар	-5902
хьынхо	-5903
▁ацқьа	-5904
▁еиҳау	-5905
▁ианеи	-5906
▁шьҭна	-5907
▁ҳалшо	-5908
▁дшыҟоу	-5909
▁инаӡам	-5910
▁инаӡоу	-5911
▁рыбжьы	-5912
▁алалара	-5913
▁даҽазны	-5914
▁ельвира	-5915
▁ишәхашә	-5916
▁арҵаҩцәа	-5917
▁аӡбаҩцәа	-5918
▁иаанагар	-5919
▁аԥсадгьыл	-5920
▁еиқәыршәа	-5921
▁аашәырԥшла	-5922
▁ишԥааирԥши	-5923
▁игәаанагара	-5924
▁амаӡаныҟәгаҩ	-5925
▁ирыдыркылеит	-5926
▁фессалоникаа	-5927
▁гәацԥыҳәарала	-5928
илом	-5929
креи	-5930
оума	-5931
умҭа	-5932
ԥҽра	-5933
▁длы	-5934
▁зҵо	-5935
▁сем	-5936
▁ҭеи	-5937
▁ҳац	-5938
ҭарна	-5939
▁идҵа	-5940
▁хьан	-5941
шәашәа	-5942
▁арҵаҩ	-5943
▁асаса	-5944
▁атури	-5945
▁ианры	-5946
▁илшон	-5947
▁лҵшәа	-5948
наҳақәа	-5949
▁абзиеи	-5950
▁абылра	-5951
▁аргара	-5952
▁аԥсцәа	-5953
▁аиуразы	-5954
▁иазхәыц	-5955
▁аԥырхага	-5956
▁иӷәӷәаны	-5957
зааҭгылеит	-5958
▁иадҳәалоуп	-5959
▁амҵахырхәара	-5960
▁апрокуратура	-5961
▁ашәышықәсақәа	-5962
анг	-5963
фон	-5964
неит	-5965
тара	-5966
ышьа	-5967
ҩуаз	-5968
▁ели	-5969
▁мед	-5970
▁мыр	-5971
▁уаз	-5972
былра	-5973
▁арҩа	-5974
▁иуза	-5975
▁ҳаан	-5976
гӡареи	-5977
наҵоит	-5978
▁дышры	-5979
▁иҭара	-5980
▁абибли	-5981
▁ахьынӡ	-5982
▁иалага	-5983
▁иусқәа	-5984
▁ралхра	-5985
▁сымоуп	-5986
▁хьыбла	-5987
▁аввакум	-5988
▁алагала	-5989
▁астрате	-5990
▁даҭааит	-5991
▁иахәаԥш	-5992
ҭагылазаашьа	-5993
▁аҿырԥштәқәа	-5994
шьақәыргыларатә	-5995
▁ажәабжьҳәараҿы	-5996
▁апубликациақәа	-5997
чу	-5998
қы	-5999
▁иҿ	-6000
ортә	-6001
ҭаҿы	-6002
▁вар	-6003
овчег	-6004
тәаны	-6005
ыԥҵәа	-6006
ҭымра	-6007
лкаатә	-6008
▁аҵана	-6009
▁дыҟам	-6010
▁знапы	-6011
▁иԥхьа	-6012
▁шимоу	-6013
▁еиԥшым	-6014
▁ианвар	-6015
анацҳауа	-6016
министра	-6017
сахьақәа	-6018
хәаԥшышьа	-6019
▁ахыркәша	-6020
▁ашьаустә	-6021
▁аныҟәгаԥса	-6022
▁абҩарҵәыреи	-6023
зо	-6024
раҳ	-6025
тәын	-6026
ӡбаз	-6027
▁ацы	-6028
▁мет	-6029
зыраз	-6030
халак	-6031
ӡырҩы	-6032
▁иааҳ	-6033
▁ирны	-6034
▁рарт	-6035
▁рхыр	-6036
кыратә	-6037
кьаҿны	-6038
нагеит	-6039
хьӡала	-6040
шьцара	-6041
▁абыжь	-6042
▁апарк	-6043
▁кьыла	-6044
▁ламыс	-6045
▁гәаарт	-6046
▁иаҟәыҵ	-6047
▁чагәаа	-6048
ҭынхацәа	-6049
▁еилырга	-6050
▁рааӡара	-6051
▁ҳаиҭеит	-6052
ныҳәалоит	-6053
▁ҳмаҵзура	-6054
▁амузыкатә	-6055
▁гәымбылџь	-6056
▁арежиссиор	-6057
▁зҵаарақәоу	-6058
▁иаадырԥшуа	-6059
▁апринципқәа	-6060
▁ишазгәеиҭаз	-6061
▁аԥсҭазаарахь	-6062
▁реиқәыршәара	-6063
▁аконституциатә	-6064
ҩу	-6065
ерз	-6066
ҿуп	-6067
игӡо	-6068
хало	-6069
▁уҽа	-6070
гшәыг	-6071
культ	-6072
лҿиаа	-6073
ҵаауа	-6074
▁апор	-6075
▁дақә	-6076
▁ииун	-6077
▁лышә	-6078
▁олег	-6079
▁ахьры	-6080
▁даныр	-6081
▁ианба	-6082
дарақәа	-6083
▁русқәа	-6084
▁шәыҟаз	-6085
лацәажәа	-6086
хьеиқәҵа	-6087
▁арсалиа	-6088
▁афилиал	-6089
▁даныҟаз	-6090
▁жәларык	-6091
▁амазаара	-6092
▁аҭҵаареи	-6093
▁библиатә	-6094
▁машәырла	-6095
▁шьынқәба	-6096
ҭаацәараҿы	-6097
▁еизааигәа	-6098
▁шәарҭадара	-6099
▁асасдкылара	-6100
▁ахыԥхьаӡара	-6101
▁аҷыдалкаатә	-6102
▁агәҽанызаара	-6103
▁ашьақәгылара	-6104
ԥу	-6105
ела	-6106
сер	-6107
ҵла	-6108
дышә	-6109
ирит	-6110
ӷара	-6111
▁18.	-6112
▁уха	-6113
анаҵы	-6114
арцәы	-6115
кылон	-6116
лагаз	-6117
хартә	-6118
ызмал	-6119
▁амам	-6120
▁ачер	-6121
▁гәыл	-6122
▁гәым	-6123
▁дрыз	-6124
▁ирым	-6125
▁рышә	-6126
▁шәаа	-6127
угақәа	-6128
▁алықь	-6129
▁закәы	-6130
▁иҳана	-6131
▁аопера	-6132
▁ацәкра	-6133
▁иҟалар	-6134
▁намӡац	-6135
▁урыҳәа	-6136
▁шрымоу	-6137
▁аацҳара	-6138
▁ауаҩԥсы	-6139
▁аӡбамҭа	-6140
▁аԥсуааи	-6141
▁ҭыԥхада	-6142
▁ҳҭахызар	-6143
ԥхықәрақәа	-6144
▁гәаартыла	-6145
▁аҳауагәаҭа	-6146
▁гәахәарыла	-6147
▁афедерациеи	-6148
▁ахылаԥшырҭа	-6149
гаша	-6150
ырго	-6151
▁иум	-6152
хозар	-6153
ҵааит	-6154
ҵазар	-6155
ҵакәа	-6156
ԥхьаз	-6157
▁дшәы	-6158
▁иаку	-6159
ектрон	-6160
мҭацәа	-6161
ҭакқәа	-6162
ԥсахит	-6163
▁ворон	-6164
▁игылоу	-6165
▁ноемин	-6166
▁шыҟало	-6167
▁самариа	-6168
ӷьасшьоит	-6169
▁гагәылиа	-6170
▁иаанагон	-6171
▁ҭынхақәа	-6172
▁динхаҵара	-6173
▁усмҩаԥгатә	-6174
▁аилатәараҿы	-6175
енг	-6176
зан	-6177
про	-6178
шәх	-6179
▁ок	-6180
▁уҽ	-6181
гӡаз	-6182
олиу	-6183
▁зры	-6184
▁шра	-6185
гиатә	-6186
изнес	-6187
кылоз	-6188
ҳҵоит	-6189
▁дрыц	-6190
▁ишиа	-6191
▁рымч	-6192
ҭатәуп	-6193
ҿаԥхьа	-6194
▁ишьҭа	-6195
▁уасил	-6196
▁хьӡыс	-6197
бзиареи	-6198
ҵаауеит	-6199
▁зинмчы	-6200
▁ишәҟәы	-6201
▁мушьни	-6202
▁аиагара	-6203
▁ацәгьоу	-6204
▁ихьӡала	-6205
▁анхаразы	-6206
▁шьҭахьҟа	-6207
▁дызусҭада	-6208
▁ажәҩанқәеи	-6209
▁имҩаԥгахоит	-6210
▁мҵахырхәара	-6211
▁излаанацҳауа	-6212
бу	-6213
датә	-6214
ҟәын	-6215
▁арш	-6216
▁гар	-6217
▁ева	-6218
▁еих	-6219
▁лиу	-6220
▁ҳза	-6221
гартә	-6222
тәиуп	-6223
шьуаз	-6224
▁анар	-6225
▁ахаҿ	-6226
жьуеит	-6227
▁иаҭаа	-6228
▁анҵара	-6229
▁еизҳар	-6230
▁рыманы	-6231
▁адулара	-6232
▁аковчег	-6233
▁анхарҭа	-6234
▁аспирит	-6235
▁аԥаратә	-6236
▁ируакуп	-6237
▁иҳәатәы	-6238
▁рартист	-6239
▁аиубилеи	-6240
▁ауснагӡа	-6241
▁ахьчареи	-6242
▁атуристтә	-6243
▁женеватәи	-6244
▁игәымбылџь	-6245
▁аҳәынҭқаррақәа	-6246
ӷан	-6247
▁цә	-6248
лҵит	-6249
ости	-6250
поль	-6251
раҿы	-6252
▁атә	-6253
▁дши	-6254
лырԥш	-6255
▁аҭәа	-6256
▁аҽар	-6257
▁зықь	-6258
▁лаша	-6259
▁прид	-6260
▁ҭыԥк	-6261
дарала	-6262
▁абырг	-6263
▁алҵра	-6264
▁аԥхын	-6265
▁иуада	-6266
▁музеи	-6267
▁мшаԥы	-6268
▁ҵуеит	-6269
шәалара	-6270
ҳарԥшуа	-6271
ҳәшьцәа	-6272
▁аамҭеи	-6273
▁шәҽазы	-6274
▁адунеитә	-6275
▁еилкаауп	-6276
▁шакәугьы	-6277
▁асахьақәа	-6278
▁ақәиҭымра	-6279
▁ацхырааразы	-6280
ей	-6281
ҿын	-6282
екиа	-6283
лаго	-6284
▁раб	-6285
▁сар	-6286
▁ҟас	-6287
аирҭа	-6288
мыкьа	-6289
хьчар	-6290
ҳауаз	-6291
▁аиҵы	-6292
▁аҵра	-6293
▁уана	-6294
▁хаҵа	-6295
▁шәҟә	-6296
шәалар	-6297
қәшәар	-6298
ҭахеит	-6299
ҭҵааҩы	-6300
▁ибеит	-6301
▁ҩнаҭа	-6302
нестров	-6303
▁акласс	-6304
▁иҟаиҵо	-6305
▁алаирхә	-6306
▁ааныжьны	-6307
▁ауасақәа	-6308
▁иусбарҭа	-6309
▁ихыркәша	-6310
▁шакәызгьы	-6311
▁ԥыҭраамҭа	-6312
▁еиҭеиҳәоит	-6313
▁раҳасабала	-6314
▁алитературатә	-6315
▁ҳаԥсҭазаараҿы	-6316
▁маҵураҭыԥқәаки	-6317
лаш	-6318
▁76	-6319
едиа	-6320
лега	-6321
рахь	-6322
ызеи	-6323
ҳарц	-6324
ҽани	-6325
▁дах	-6326
▁неи	-6327
бароу	-6328
лаӡом	-6329
ччара	-6330
▁ауал	-6331
▁ацҵа	-6332
▁ақаҩ	-6333
▁згәа	-6334
▁мчра	-6335
кәакәа	-6336
лакгьы	-6337
ҵалоит	-6338
ҿиареи	-6339
▁авель	-6340
▁аныха	-6341
▁ахәша	-6342
▁имчра	-6343
ҟарҵоит	-6344
ҵәрақәа	-6345
▁акапан	-6346
▁аҳәоит	-6347
▁герман	-6348
▁имҩаԥи	-6349
▁иҟазар	-6350
▁иҟәышу	-6351
ҭарнакра	-6352
▁акәхеит	-6353
▁алықьса	-6354
▁арымара	-6355
▁ахӡырым	-6356
▁ақәԥара	-6357
▁иаҳбоит	-6358
▁наплакы	-6359
▁рганахь	-6360
▁алархәны	-6361
▁афарисеи	-6362
▁политика	-6363
▁ааирԥшуан	-6364
▁ақалақьтә	-6365
▁дырԥылеит	-6366
▁аламҭалазы	-6367
▁аибашьрақәа	-6368
▁аконституциа	-6369
▁ахәышәтәырҭа	-6370
▁ԥааимбаражәа	-6371
▁ӷ	-6372
пыл	-6373
шәу	-6374
ҟьо	-6375
▁кр	-6376
гӡоу	-6377
ԥшит	-6378
▁119	-6379
▁аау	-6380
▁рҭы	-6381
▁сос	-6382
лацәа	-6383
▁аиҿы	-6384
▁гали	-6385
кыҩцәа	-6386
ныҟәон	-6387
халара	-6388
▁анааи	-6389
▁иаҭәа	-6390
▁ибжьа	-6391
▁рҵара	-6392
▁ҳаԥсы	-6393
шьахеит	-6394
▁хадақәа	-6395
▁апаспорт	-6396
▁ақьиареи	-6397
▁аҟьашьра	-6398
▁аҵиаақәа	-6399
▁бааԥсқәа	-6400
▁ихәарҭоу	-6401
▁ахантәаҩыс	-6402
▁зқьышықәса	-6403
▁ахархәарала	-6404
▁аԥааимбарцәа	-6405
уф	-6406
быџ	-6407
оужь	-6408
ҭаҵа	-6409
▁аор	-6410
▁нур	-6411
лабра	-6412
шьҭуа	-6413
қарра	-6414
▁анти	-6415
▁ахба	-6416
▁ирҿа	-6417
▁саид	-6418
▁соуп	-6419
▁шәан	-6420
ҟазшьа	-6421
▁инана	-6422
▁иумоу	-6423
қәныҟәо	-6424
▁дыԥсит	-6425
▁залшом	-6426
▁арегион	-6427
▁илҳәеит	-6428
▁аӡыргара	-6429
▁шьақәзыр	-6430
▁ахәаԥшцәа	-6431
▁иадҳәалаз	-6432
▁иацәажәара	-6433
▁ԥыҭраамҭак	-6434
▁амцдинхаҵара	-6435
▁апарламенттә	-6436
ӡӷ	-6437
дҵа	-6438
лбы	-6439
▁зу	-6440
▁сп	-6441
егьы	-6442
▁ден	-6443
▁ззы	-6444
▁тит	-6445
гӡеит	-6446
иҵоит	-6447
кақәа	-6448
уалтә	-6449
ӡақәа	-6450
▁злаз	-6451
▁кара	-6452
латәуп	-6453
▁архәа	-6454
▁инеит	-6455
▁хәыда	-6456
▁хәҭак	-6457
▁занҭар	-6458
▁урҭгьы	-6459
▁иаҭааит	-6460
▁ахьынӡана	-6461
▁ишԥаанаго	-6462
▁аазырԥшуаз	-6463
▁ааҳарԥшлар	-6464
▁аиашьаратә	-6465
▁анҵәамҭазы	-6466
▁атәылаҿацә	-6467
▁иааркьаҿны	-6468
▁ааныркылеит	-6469
▁аиҿкаарақәа	-6470
▁рҽазыршәоит	-6471
▁аҳауагәаҭаҩцәа	-6472
▁аилацәажәарақәа	-6473
gt	-6474
луа	-6475
сым	-6476
цын	-6477
батә	-6478
тива	-6479
цоит	-6480
▁ԥша	-6481
арыла	-6482
▁днеи	-6483
▁сахь	-6484
▁ҳаԥс	-6485
▁игәаԥ	-6486
▁раҳәа	-6487
▁уигьы	-6488
▁шәача	-6489
зыҟазар	-6490
▁ахеиҵа	-6491
▁иреиԥш	-6492
▁аҿиареи	-6493
▁ҟаҳҵоит	-6494
▁ақыҭақәа	-6495
▁иалахәын	-6496
▁иҳаилнар	-6497
▁рылаҳәара	-6498
▁жәабранмза	-6499
▁илахьеиқәҵа	-6500
▁агуманитартә	-6501
▁еилыркаауеит	-6502
▁ишьақәырӷәӷәа	-6503
унд	-6504
ԥра	-6505
▁49	-6506
▁фи	-6507
тәык	-6508
шьит	-6509
џьра	-6510
▁ади	-6511
▁асы	-6512
▁зҵа	-6513
▁уар	-6514
ҳәаҩы	-6515
▁азал	-6516
▁ишҳа	-6517
бароуп	-6518
иссион	-6519
▁акалҭ	-6520
▁ахаша	-6521
▁иузеи	-6522
▁ишԥау	-6523
баратәы	-6524
зымхәыц	-6525
▁аҽаҩра	-6526
▁ишаҳәо	-6527
▁ишԥаҟа	-6528
▁иԥшәма	-6529
▁лазарь	-6530
▁хадара	-6531
гылаҩцәа	-6532
ԥшаауеит	-6533
▁иааигәа	-6534
▁хәмарра	-6535
▁азыҟаҵаҩ	-6536
▁аҟәырҟан	-6537
▁хылаԥшҩы	-6538
▁агәҭынчра	-6539
▁адипломат	-6540
▁азыҟаҵара	-6541
▁ашьцылара	-6542
▁дызхылҵыз	-6543
▁иааирԥшуа	-6544
▁маҭәашьар	-6545
▁убриаҟара	-6546
▁асасааирҭа	-6547
▁иаҳдыруеит	-6548
▁арегионалтә	-6549
▁аринахысгьы	-6550
▁ахәаахәҭратә	-6551
▁рхыԥхьаӡараҿы	-6552
зми	-6553
ком	-6554
нда	-6555
ули	-6556
ҷаб	-6557
▁54	-6558
▁еш	-6559
ҵага	-6560
ҵәра	-6561
ԥшуп	-6562
▁быр	-6563
▁виф	-6564
▁ман	-6565
жьырц	-6566
ҳауан	-6567
▁амҳа	-6568
▁фран	-6569
баҩцәа	-6570
мпаниа	-6571
▁аиҭар	-6572
▁ауаса	-6573
▁библи	-6574
▁ииҭаз	-6575
▁ирҳәо	-6576
▁ицоит	-6577
культет	-6578
шьҭыхра	-6579
▁ахәҭоу	-6580
▁иаҳхаҳ	-6581
▁рышьҭа	-6582
▁биуџьет	-6583
▁агыгшәыг	-6584
▁амассатә	-6585
▁аурокқәа	-6586
▁гәылрыԥшь	-6587
▁аиԥшәымара	-6588
▁ахамеигӡара	-6589
▁аԥсҭазаараҿы	-6590
▁цәаныррақәоу	-6591
▁адныҳәаларатә	-6592
мҭ	-6593
зин	-6594
▁ги	-6595
еида	-6596
елла	-6597
жәра	-6598
пыҵа	-6599
сиаҭ	-6600
хиан	-6601
▁лзы	-6602
▁рын	-6603
ылман	-6604
▁араз	-6605
зыԥшыз	-6606
лаԥшуа	-6607
▁аеҵәа	-6608
▁аҿгьы	-6609
▁ихәыҷ	-6610
▁роман	-6611
▁рымҩа	-6612
▁шьаҟа	-6613
гьангьа	-6614
страциа	-6615
▁академ	-6616
▁алагьы	-6617
▁аланар	-6618
▁алевит	-6619
▁маӡала	-6620
▁неемиа	-6621
ҵалароуп	-6622
▁концерт	-6623
▁ҳнаҭоит	-6624
▁адгьылаҿы	-6625
▁арыцқьара	-6626
▁администра	-6627
▁аспиритизм	-6628
▁еиҭалҳәоит	-6629
▁имҩаԥысуан	-6630
▁ҳџьынџьуаа	-6631
▁аихшьаалақәа	-6632
▁аладырхәуеит	-6633
▁аҟәымшәышәра	-6634
вет	-6635
дам	-6636
киа	-6637
скь	-6638
фар	-6639
ҵауа	-6640
▁иаҿу	-6641
▁ишым	-6642
▁ҳдыр	-6643
кыларц	-6644
▁алхас	-6645
▁еизыр	-6646
▁даҽакы	-6647
▁алексеи	-6648
▁аҭакқәа	-6649
▁ицәеижь	-6650
▁иҟанаҵо	-6651
гылазаара	-6652
▁иапостол	-6653
▁уажәнатә	-6654
зышәарақәа	-6655
▁аныҳәақәа	-6656
▁хәышықәса	-6657
▁ҳқьырсиан	-6658
▁аҵарадырра	-6659
▁ҳаҳәарақәа	-6660
▁аконференциа	-6661
▁алитературеи	-6662
▁ауаатәыҩсатә	-6663
▁ҩнаҭацыԥхьаӡа	-6664
ги	-6665
уш	-6666
ска	-6667
шаа	-6668
уатә	-6669
цеит	-6670
ҳәом	-6671
▁бза	-6672
▁диб	-6673
жьара	-6674
октор	-6675
хәырц	-6676
ҳарҵо	-6677
ҵәаны	-6678
▁алек	-6679
▁балк	-6680
▁ирхы	-6681
▁кана	-6682
каамеҭ	-6683
▁абанк	-6684
▁аибар	-6685
▁дааит	-6686
▁дцеит	-6687
▁иоуит	-6688
▁сахьа	-6689
▁ҳадаҳ	-6690
▁ҳарак	-6691
▁амҽыша	-6692
▁аныхра	-6693
▁ахахәы	-6694
кратиатә	-6695
накылеит	-6696
▁амузыка	-6697
▁аусуреи	-6698
▁аҿҳәара	-6699
▁дырҵара	-6700
▁иажәаҿы	-6701
▁ҟабарда	-6702
▁изеиԥшра	-6703
▁аиқәыршәа	-6704
▁еилатәара	-6705
▁изыӡырҩра	-6706
▁амаҭәарқәа	-6707
▁ашәҟәыҩҩцәа	-6708
▁мрагыларатәи	-6709
жра	-6710
фед	-6711
кәар	-6712
хаша	-6713
шьап	-6714
▁аиҩ	-6715
бжьаз	-6716
мамыз	-6717
▁дагь	-6718
▁заур	-6719
▁зықә	-6720
▁иефф	-6721
▁меда	-6722
▁стан	-6723
▁ҳамч	-6724
илаҭтә	-6725
ҭахума	-6726
▁минуҭ	-6727
▁шьҭыр	-6728
▁ԥҟара	-6729
ҩызареи	-6730
ӷьарахь	-6731
▁адырга	-6732
▁аилиба	-6733
▁арбара	-6734
▁артист	-6735
▁ашьхар	-6736
▁иалахә	-6737
▁иахьыр	-6738
▁иӡбеит	-6739
▁мазара	-6740
▁шрылшо	-6741
дҳәаланы	-6742
едерациа	-6743
труктура	-6744
▁албаага	-6745
▁еиҿкаан	-6746
▁зҵазкуа	-6747
▁ирымоуп	-6748
▁команда	-6749
▁еимадара	-6750
▁миллиард	-6751
▁шәҽазышә	-6752
▁аиқәшаҳаҭ	-6753
▁ишамҭақәа	-6754
▁краснодар	-6755
▁шәышықәса	-6756
▁иадҳәаланы	-6757
мз	-6758
гал	-6759
гас	-6760
дир	-6761
ока	-6762
лҵыз	-6763
галаз	-6764
гьыли	-6765
▁иҟьа	-6766
▁иҵау	-6767
▁рыуа	-6768
▁хәба	-6769
маҵура	-6770
ҵәҟьаз	-6771
▁аиуит	-6772
▁аҭҵаа	-6773
▁иҭоуп	-6774
▁ҭамаз	-6775
▁ҳгәаз	-6776
▁аллаҳи	-6777
▁ацәҳәы	-6778
▁ԥҳәысс	-6779
▁ноеминь	-6780
▁шԥамҩаԥ	-6781
урҭақәаки	-6782
▁абаҳчаҿы	-6783
▁ианалага	-6784
▁шԥаҳалшо	-6785
▁ҟалаанӡа	-6786
▁ажәытәтәи	-6787
▁аҭыԥҳацәа	-6788
▁ҳацеиҩызшо	-6789
▁сыԥсҭазаара	-6790
▁аизҳазыӷьара	-6791
▁ақыҭанхамҩатә	-6792
▁аҭышәынтәалареи	-6793
▁иҵабыргыҵәҟьаны	-6794
был	-6795
мха	-6796
ҿар	-6797
▁бо	-6798
▁ҽа	-6799
бахь	-6800
гӡоз	-6801
ылаз	-6802
ӡамц	-6803
▁ает	-6804
▁дсы	-6805
лааит	-6806
лахҿы	-6807
дыруам	-6808
ныҟәоз	-6809
хьоума	-6810
▁адыга	-6811
▁амеда	-6812
▁бџьар	-6813
▁дунеи	-6814
▁дызбо	-6815
▁захар	-6816
▁игана	-6817
▁ицеит	-6818
▁лшара	-6819
ологиеи	-6820
▁аартуа	-6821
▁аинрал	-6822
▁мариам	-6823
▁автобус	-6824
▁акредит	-6825
▁инеиԥын	-6826
▁анкылара	-6827
▁атехника	-6828
▁мҩаԥызго	-6829
▁рхаҭақәа	-6830
қәыргәыӷыз	-6831
▁гәырӷьара	-6832
▁чагәааԥҳа	-6833
▁аусеицуреи	-6834
▁аусеицуразы	-6835
▁усурҭақәаки	-6836
ау	-6837
таб	-6838
ӡны	-6839
ԥыц	-6840
бзоу	-6841
зыра	-6842
мырш	-6843
ԥсыз	-6844
▁192	-6845
▁меи	-6846
нарбо	-6847
шьырц	-6848
▁амаҭ	-6849
▁анха	-6850
▁ацҳа	-6851
▁едем	-6852
▁ирха	-6853
▁иҭәу	-6854
▁ҳнар	-6855
▁ҵаҟа	-6856
хьчарц	-6857
цәышәы	-6858
цәыӡыз	-6859
ԥсыреи	-6860
▁аркра	-6861
▁асекс	-6862
▁нхара	-6863
еспубли	-6864
кылареи	-6865
шаҳаҭра	-6866
ҭанкыла	-6867
▁агьама	-6868
▁аргәын	-6869
▁ашьҭра	-6870
▁ақаҩба	-6871
▁еиӷьаҳ	-6872
▁иҳадаҳ	-6873
▁акаамеҭ	-6874
▁ауриатә	-6875
▁аҵакыра	-6876
▁иаажәга	-6877
▁жәларқәа	-6878
▁иҟанаҵаз	-6879
▁хылаԥшра	-6880
напхгаҩцәа	-6881
▁иҟалараны	-6882
▁азҵаарақәеи	-6883
▁лыԥсҭазаара	-6884
▁ажәабжьҳәаразы	-6885
▁иқәыргәыӷрақәа	-6886
гак	-6887
кыд	-6888
рҭо	-6889
▁57	-6890
дион	-6891
кырц	-6892
▁аиԥ	-6893
▁аҟы	-6894
▁дәы	-6895
▁уба	-6896
▁хын	-6897
шьҭам	-6898
ҭыԥан	-6899
▁2008	-6900
▁анра	-6901
▁днар	-6902
▁зхыҵ	-6903
▁зыҟа	-6904
▁иацу	-6905
▁мсыр	-6906
▁шьҭы	-6907
дырӡом	-6908
ҭәаара	-6909
▁акара	-6910
▁атәан	-6911
▁ахьҭа	-6912
▁еиҿна	-6913
▁исаак	-6914
▁роурц	-6915
▁форум	-6916
▁хынтә	-6917
нагӡара	-6918
цәырҵит	-6919
▁аураҿы	-6920
▁иеффаи	-6921
▁ишԥары	-6922
ҵәҟьагьы	-6923
▁агылара	-6924
▁аршаҳаҭ	-6925
▁зҵаарак	-6926
▁изхадоу	-6927
▁имариоу	-6928
▁ҵарақәа	-6929
хынҳәуеит	-6930
▁аиудеиаа	-6931
▁ириашаны	-6932
▁усеицура	-6933
▁ҭаацәара	-6934
зыӡырҩуеит	-6935
хьаркыратә	-6936
▁алхырҭатә	-6937
▁арҿиаратә	-6938
▁имаҵуҩцәа	-6939
▁ҭышәынтәа	-6940
▁атуристцәа	-6941
▁шьаҭанкыла	-6942
▁ақәҿиарақәа	-6943
▁рынагӡаразы	-6944
▁иазгәаҭатәуп	-6945
уоу	-6946
▁иф	-6947
қәаз	-6948
▁аен	-6949
▁дин	-6950
▁лԥа	-6951
▁нӡа	-6952
гарҭа	-6953
дырҩы	-6954
ҭахьа	-6955
▁аары	-6956
▁ажьа	-6957
▁афыр	-6958
▁ирыл	-6959
▁смыр	-6960
наҭоит	-6961
чмазаҩ	-6962
қәырԥа	-6963
▁алада	-6964
▁ахьаҳ	-6965
▁ашара	-6966
▁игәаҟ	-6967
▁ракад	-6968
▁шәзеи	-6969
▁ашьапы	-6970
▁ақәхра	-6971
▁иҷкәын	-6972
▁мариеи	-6973
▁хәыҷла	-6974
бзиаратә	-6975
ҩыџьагьы	-6976
▁аԥшьаша	-6977
▁аацҳамҭа	-6978
▁занҭариа	-6979
▁лымкаала	-6980
▁аелектрон	-6981
▁ақәгылара	-6982
▁ажәабжьқәа	-6983
▁аҳақьымцәа	-6984
▁аинвалидцәа	-6985
▁конференциа	-6986
▁ашәарҭадареи	-6987
▁инеиԥынкыланы	-6988
▁рыдиныҳәалеит	-6989
▁гәымбылџьбарала	-6990
▁©	-6991
тон	-6992
шәи	-6993
▁53	-6994
▁58	-6995
▁ер	-6996
▁иг	-6997
▁ҳҽ	-6998
зааз	-6999
мари	-7000
қәкы	-7001
ҳәны	-7002
▁рыл	-7003
▁азиа	-7004
▁иӡба	-7005
ларшәа	-7006
ҵаанӡа	-7007
▁аетап	-7008
▁алшон	-7009
▁шилшо	-7010
▁ашьара	-7011
▁ашьыжь	-7012
▁ицәымӷ	-7013
▁мамзар	-7014
▁рылшон	-7015
▁ҳахшыҩ	-7016
▁акурорт	-7017
▁амҩақәа	-7018
▁ацхыраа	-7019
▁рҩызцәа	-7020
▁иаагозар	-7021
▁мчыбжьык	-7022
▁ргәазҭеи	-7023
▁аилкааразы	-7024
▁ахашәалахәы	-7025
▁еилҳаргозеи	-7026
▁аспециалистцәа	-7027
еди	-7028
ыжә	-7029
▁ипр	-7030
▁лан	-7031
▁ажәҩ	-7032
▁аҿыц	-7033
▁идеи	-7034
▁иоуз	-7035
▁аклуб	-7036
▁амҵәы	-7037
▁анапы	-7038
▁аԥшра	-7039
▁ишԥаҳ	-7040
▁ҳхатә	-7041
▁ԥсада	-7042
▁арыцхә	-7043
▁рҭаара	-7044
▁аиҳабыс	-7045
▁воронов	-7046
▁дҟалеит	-7047
▁закәытә	-7048
▁иахәҭак	-7049
▁принцип	-7050
▁хәарҭас	-7051
▁изиашаны	-7052
▁ихадароу	-7053
▁реиҳарак	-7054
▁аԥшьбатәи	-7055
▁иалхрақәа	-7056
▁иреиҳәоит	-7057
▁уахцәажәа	-7058
▁еиҭарҳәарц	-7059
▁рырӷәӷәара	-7060
▁атәылауаҩра	-7061
▁иаҳзааигәоу	-7062
▁ирыцхраауеит	-7063
бза	-7064
бзы	-7065
мин	-7066
нат	-7067
оуа	-7068
ҵны	-7069
град	-7070
лект	-7071
саит	-7072
▁144	-7073
▁дон	-7074
▁дуу	-7075
бадыр	-7076
маҷра	-7077
хаара	-7078
хәҭаз	-7079
шаара	-7080
▁араб	-7081
▁дышә	-7082
▁рсиа	-7083
▁рӷьы	-7084
▁џьон	-7085
шәақәа	-7086
▁арепа	-7087
▁бзиоу	-7088
▁иднар	-7089
▁симон	-7090
▁фатәы	-7091
▁хыркә	-7092
▁ихадаз	-7093
▁иҳаиҭо	-7094
▁ахәҭаҿы	-7095
▁аҩысҭаа	-7096
▁ҟалҵеит	-7097
▁ҳхаҵара	-7098
▁афырхаҵа	-7099
▁маҷымкәа	-7100
▁рахьынтә	-7101
▁русбарҭа	-7102
▁шьақәдыр	-7103
▁реиҩызара	-7104
▁ҳмаҵзуреи	-7105
▁ашықәсынҵа	-7106
▁аџьармыкьа	-7107
▁имаҵураҭыԥ	-7108
▁ирзыԥҵәоуп	-7109
▁азхәыцрақәа	-7110
▁ахымҩаԥгара	-7111
▁ашәахтәқәеи	-7112
▁иаадырԥшуеит	-7113
▁хымԥадатәиуп	-7114
▁ахаҭарнакцәеи	-7115
виу	-7116
кин	-7117
ори	-7118
ԥаа	-7119
ение	-7120
кьыс	-7121
лафа	-7122
▁аеп	-7123
▁зыл	-7124
▁саа	-7125
гәоуп	-7126
цакра	-7127
▁2020	-7128
▁ацыр	-7129
▁иԥеи	-7130
▁рҽеи	-7131
▁ҳәаз	-7132
ерзмаа	-7133
каауаз	-7134
▁аҩаша	-7135
▁иаара	-7136
▁ишаԥу	-7137
▁ҷанба	-7138
ҳәаратә	-7139
▁апатри	-7140
▁бааԥсы	-7141
▁еиҳауп	-7142
▁изеиҭа	-7143
▁шәыԥсы	-7144
дикылеит	-7145
▁ацәаҳәа	-7146
▁рзинқәа	-7147
▁шәынцәа	-7148
▁аӡӡаахра	-7149
▁шәиҳәала	-7150
▁ахықәкқәа	-7151
▁ишьақәдыр	-7152
қәшаҳаҭхеит	-7153
▁ауааԥсыреи	-7154
▁изакәанқәа	-7155
▁израильтәи	-7156
▁есышықәсатәи	-7157
▁ҭырқәтәылатәи	-7158
▁ахьынӡанаӡааӡо	-7159
быз	-7160
окс	-7161
цаз	-7162
▁72	-7163
тали	-7164
хьра	-7165
шҭра	-7166
аӡара	-7167
хозеи	-7168
шаӡом	-7169
▁1914	-7170
▁база	-7171
▁заҟа	-7172
▁черк	-7173
▁шааи	-7174
блақәа	-7175
цәыӡит	-7176
әымзар	-7177
▁акино	-7178
▁денис	-7179
▁еиқәы	-7180
▁рхада	-7181
▁усзуҩ	-7182
хәышәтә	-7183
ҵаҩцәеи	-7184
▁иеиԥшу	-7185
▁филипп	-7186
қәҵарала	-7187
▁абизнес	-7188
▁абиԥара	-7189
▁ианаало	-7190
▁ҳамазар	-7191
▁ҵәыџьба	-7192
▁атәылаҿы	-7193
▁ашколқәа	-7194
▁аштатқәа	-7195
▁далагоит	-7196
▁иаҳнарҵо	-7197
▁ирықәшәо	-7198
▁уаажәлар	-7199
▁агәыҩбара	-7200
▁дзықәшәаз	-7201
▁аргыларатә	-7202
▁ҳзаанагоит	-7203
▁ахьыԥшымреи	-7204
▁иԥсҭазаараҿы	-7205
▁акраҵанакуеит	-7206
ие	-7207
мс	-7208
шам	-7209
▁во	-7210
втәи	-7211
хәоз	-7212
цәас	-7213
ынхо	-7214
▁ати	-7215
▁бжа	-7216
▁апси	-7217
▁дбар	-7218
▁еиҿа	-7219
▁клуб	-7220
▁рымш	-7221
▁стат	-7222
лкаауа	-7223
▁аиқәы	-7224
▁акала	-7225
▁амцхә	-7226
▁аӡбаҩ	-7227
▁бираҟ	-7228
▁ианар	-7229
▁рымаҵ	-7230
▁хаала	-7231
▁шагыз	-7232
▁аҟәара	-7233
▁бзиара	-7234
▁идырны	-7235
▁ирбоит	-7236
▁нарцәы	-7237
▁шамиль	-7238
▁ыҟаӡам	-7239
▁афараон	-7240
▁гәымшәа	-7241
▁иргәала	-7242
▁ракәӡам	-7243
▁ҩырақәа	-7244
▁русеицура	-7245
▁афинансқәа	-7246
▁приднестров	-7247
▁аҭҵаарадырратә	-7248
вит	-7249
ҷра	-7250
▁56	-7251
хана	-7252
цаны	-7253
цент	-7254
ԥшқа	-7255
▁дыс	-7256
▁кал	-7257
▁мир	-7258
▁уза	-7259
есқәа	-7260
кәзар	-7261
ҵыҩра	-7262
ԥырха	-7263
▁аҵас	-7264
▁аԥҟа	-7265
▁иуль	-7266
▁рҭах	-7267
▁став	-7268
зыжьуа	-7269
цқьара	-7270
ԥшаара	-7271
▁архит	-7272
▁аԥсаа	-7273
▁дыруа	-7274
▁иацәы	-7275
▁игәыр	-7276
▁ииҳәо	-7277
▁округ	-7278
▁ҭаҭар	-7279
▁ҳсаит	-7280
▁ҳхаҿы	-7281
▁аҭӡамц	-7282
▁инагӡа	-7283
▁иҳарак	-7284
гылахоит	-7285
қәырхара	-7286
ҭазаашьа	-7287
▁леиуеит	-7288
▁акырынтә	-7289
▁аргәаҟра	-7290
▁ахәшьара	-7291
▁зеиԥшроу	-7292
▁рымазарц	-7293
▁ҳзықәшәо	-7294
▁дизиашаны	-7295
▁еиҳараҩык	-7296
▁ҳаиҩызара	-7297
▁азакәанқәа	-7298
▁арыцҳашьара	-7299
▁маӡаныҟәгаҩ	-7300
▁ацәгьаурақәа	-7301
▁асахьаҭыхыҩцәа	-7302
▁аҭакԥхықәрақәа	-7303
ву	-7304
иӡ	-7305
зын	-7306
кан	-7307
оуз	-7308
▁66	-7309
лиев	-7310
тцәа	-7311
ӡааи	-7312
ӡаар	-7313
ԥшын	-7314
▁дха	-7315
▁иҩы	-7316
▁пут	-7317
етрад	-7318
талтә	-7319
ҳәауа	-7320
▁алҩа	-7321
▁амши	-7322
▁илыз	-7323
▁кәал	-7324
▁лашә	-7325
хәареи	-7326
хәыҷыз	-7327
▁акәыз	-7328
▁аманы	-7329
▁апара	-7330
▁архив	-7331
▁аҩада	-7332
▁дааны	-7333
▁ианыз	-7334
▁ирыбз	-7335
▁ԥышәа	-7336
мадареи	-7337
хынҳәра	-7338
▁еиқәир	-7339
▁лҿырԥш	-7340
бжьаратә	-7341
лацәажәо	-7342
▁алахьеи	-7343
▁америка	-7344
▁арзаҳал	-7345
▁асаркьа	-7346
▁ҳаразиа	-7347
▁агәырԥса	-7348
▁изхылҵыз	-7349
▁қьырсиан	-7350
▁ԥсадгьыл	-7351
▁фестиваль	-7352
▁агәҽанҵара	-7353
▁ажурналист	-7354
▁агәазыҟашьа	-7355
▁адемонстрациа	-7356
▁ишәхашәмыршҭлан	-7357
ня	-7358
пп	-7359
ҳх	-7360
ром	-7361
ения	-7362
мент	-7363
нана	-7364
хәаз	-7365
хәит	-7366
ҟақәа	-7367
ҭелиа	-7368
▁алак	-7369
▁анҵы	-7370
▁наҳа	-7371
▁нури	-7372
▁риҵа	-7373
гӡарах	-7374
хараны	-7375
ӷәӷәон	-7376
▁аишәа	-7377
▁иаҳир	-7378
▁иаҵоу	-7379
▁иҵегь	-7380
▁ароман	-7381
▁ақьала	-7382
▁аҿартә	-7383
▁данԥсы	-7384
▁иашәыр	-7385
▁ибааԥс	-7386
▁идәықә	-7387
мышьҭахь	-7388
▁ачҳареи	-7389
▁дазхәыц	-7390
▁ишазгәа	-7391
▁ишыҟало	-7392
▁рыдагьы	-7393
▁рызхәыц	-7394
▁черқьес	-7395
андидатура	-7396
▁аԥхьаԥшьа	-7397
▁иҿагылара	-7398
▁ркультура	-7399
▁реизырҳара	-7400
▁азхамҵаҩцәа	-7401
▁аихьӡарақәа	-7402
▁иерусалимҟа	-7403
▁ирыԥхьаӡоит	-7404
▁агәымбылџьбара	-7405
ден	-7406
исс	-7407
шон	-7408
▁ло	-7409
▁ҳп	-7410
жәла	-7411
лома	-7412
ӡбар	-7413
▁аҵх	-7414
▁биб	-7415
▁цар	-7416
▁ӡиӡ	-7417
мчқәа	-7418
мшқәа	-7419
неира	-7420
сылшо	-7421
хәеит	-7422
шьҭыр	-7423
▁алам	-7424
▁ател	-7425
▁еккл	-7426
▁уоуп	-7427
▁хана	-7428
▁шама	-7429
зеиԥшу	-7430
ӡамкәа	-7431
▁апери	-7432
▁ацәеи	-7433
▁аҵаҩы	-7434
▁ишьҭы	-7435
▁рбара	-7436
▁рыҽры	-7437
шәаҳәаҩ	-7438
ҳәҳәара	-7439
▁арҭынч	-7440
▁габниа	-7441
▁езекиа	-7442
▁ргәала	-7443
раалареи	-7444
ҩаԥгареи	-7445
▁арҽеира	-7446
▁аиҷаҳара	-7447
▁аԥхьатәи	-7448
▁иамоузеи	-7449
▁имаалықь	-7450
▁аҭамзаара	-7451
▁жәашықәса	-7452
▁иудыруама	-7453
▁ҿырԥштәыс	-7454
гылазаашьеи	-7455
▁аанарԥшуеит	-7456
▁агәыҳалалра	-7457
▁адгаларақәа	-7458
бж	-7459
кс	-7460
ерв	-7461
цен	-7462
ҩым	-7463
озар	-7464
ырба	-7465
▁300	-7466
▁ива	-7467
▁раи	-7468
▁тон	-7469
▁фес	-7470
крада	-7471
саала	-7472
шәага	-7473
ҿакны	-7474
▁аҭыӡ	-7475
▁даха	-7476
▁рцәы	-7477
иаанӡа	-7478
хомызт	-7479
цхрааз	-7480
шьцыла	-7481
▁иаԥса	-7482
▁рыцеи	-7483
▁рыцҳа	-7484
▁уареи	-7485
▁ҳаиба	-7486
▁ҳамам	-7487
ографиа	-7488
▁аеванг	-7489
▁ахҳәаа	-7490
▁ачерқь	-7491
▁диҳәон	-7492
▁ставро	-7493
▁ҩызцәа	-7494
қәгәыӷуа	-7495
▁игәаԥхо	-7496
▁пицунда	-7497
▁рӷьырак	-7498
▁уажәгьы	-7499
▁ҳаизара	-7500
▁ҳаламыс	-7501
▁ахынҳәра	-7502
▁игәрагоу	-7503
▁хықәкқәа	-7504
мҩаԥгашьеи	-7505
қәиргәыӷыз	-7506
▁акампаниа	-7507
▁ахьчаразы	-7508
▁ракадемиа	-7509
▁ааирԥшуеит	-7510
▁ахыркәшара	-7511
▁иааҳарԥшуа	-7512
▁ирыцхраауа	-7513
▁цәыргақәҵа	-7514
▁ирыбзоураны	-7515
▁ҳқьырсиантә	-7516
▁ачымазарақәа	-7517
▁изааигәахара	-7518
▁рхымҩаԥгашьа	-7519
▁аизҳазыӷьареи	-7520
ҽу	-7521
кар	-7522
▁мых	-7523
▁рал	-7524
▁фак	-7525
▁хир	-7526
уразы	-7527
ҭакра	-7528
ԥслак	-7529
ԥхьыӡ	-7530
▁19.0	-7531
▁акаҳ	-7532
▁ахыҭ	-7533
▁зшаз	-7534
џьабаа	-7535
▁иаани	-7536
▁ишеит	-7537
▁ражәа	-7538
▁ҳаурц	-7539
▁абраҟа	-7540
▁рзаана	-7541
▁шиҭаху	-7542
▁ԥҳәыск	-7543
▁арбџьар	-7544
▁иаӷацәа	-7545
ҿиамҭақәа	-7546
▁ақәымчра	-7547
▁ҳамҭақәа	-7548
▁аиҭаҳәара	-7549
▁аныҟәгара	-7550
▁меигӡарах	-7551
зымариахоит	-7552
▁амыругақәа	-7553
▁ганкахьала	-7554
▁ҳауаажәлар	-7555
▁ҳҽазаҳшәоит	-7556
▁ауснагӡатәқәа	-7557
▁жәеинраалақәа	-7558
бал	-7559
ерг	-7560
ово	-7561
▁ҽы	-7562
зкуа	-7563
лана	-7564
шьыз	-7565
ҩаны	-7566
▁иаг	-7567
▁фил	-7568
екәын	-7569
мбара	-7570
талиа	-7571
хәрас	-7572
шәынҭ	-7573
ҳаҭыр	-7574
ӷәаза	-7575
▁гәҭа	-7576
▁иҭеи	-7577
▁иҵәа	-7578
▁клас	-7579
▁реих	-7580
▁рнаԥ	-7581
▁ԥшьа	-7582
гароуп	-7583
ԥсахыз	-7584
▁иалам	-7585
▁иаҳар	-7586
▁иҳауа	-7587
▁ргоит	-7588
▁рыбжь	-7589
▁сариа	-7590
▁уҳәар	-7591
▁хыҭуа	-7592
▁азхара	-7593
▁еилика	-7594
▁инаигӡ	-7595
▁шьалуа	-7596
▁ҳаракы	-7597
▁аиҭакра	-7598
▁аушьҭра	-7599
▁ҟалашьа	-7600
дамзаргьы	-7601
хьынџьара	-7602
хәаԥҵәара	-7603
▁аимпериа	-7604
▁аиԥшәыма	-7605
▁иаҩызоуп	-7606
▁акәзаргьы	-7607
▁аҟаҵаразы	-7608
▁еилаҳкаап	-7609
▁зҿлымҳара	-7610
▁алагамҭазы	-7611
▁иофициалтә	-7612
▁мҩаԥыргоит	-7613
▁мҩаԥысраны	-7614
▁уаԥстәылеи	-7615
▁иаҳхаҳмыршҭ	-7616
▁адиннапхгаҩцәа	-7617
ож	-7618
рем	-7619
цик	-7620
ԥеи	-7621
▁оп	-7622
роуа	-7623
тәоу	-7624
шәап	-7625
ӷырӡ	-7626
ԥсра	-7627
▁сул	-7628
▁уск	-7629
баҳча	-7630
заауа	-7631
мониа	-7632
хәарц	-7633
▁аиур	-7634
▁игоу	-7635
▁иԥха	-7636
▁муҳа	-7637
▁парк	-7638
маншәа	-7639
нҩажәа	-7640
ордина	-7641
▁ахьҳа	-7642
▁ахқәа	-7643
▁инцәа	-7644
▁лиудм	-7645
▁рхаҭа	-7646
▁рҿгьы	-7647
зыӡырҩы	-7648
фикациа	-7649
ԥарақәа	-7650
▁агәмаа	-7651
▁бырзен	-7652
▁иссиру	-7653
лымкаауа	-7654
ҷаҳауеит	-7655
▁аизгара	-7656
▁аилыҵра	-7657
▁арҿиара	-7658
▁аԥҳәыси	-7659
▁знымзар	-7660
▁иалҵшәа	-7661
▁иаҿырԥш	-7662
▁илагала	-7663
▁иҟаиҵоз	-7664
▁ҟаларын	-7665
▁ҳаҭырла	-7666
цәажәашьа	-7667
▁бзиабара	-7668
▁германиа	-7669
▁иациҵеит	-7670
▁нызқьҩык	-7671
▁шьақәнар	-7672
▁абжьаратә	-7673
▁аидгылара	-7674
▁иԥҟарақәа	-7675
▁аусшәҟәқәа	-7676
▁ԥсҭазаареи	-7677
▁агәырӷьареи	-7678
▁аусбарҭақәа	-7679
▁ахархәагақәа	-7680
▁ви	-7681
естр	-7682
икит	-7683
иуит	-7684
ҳәса	-7685
ҵкыс	-7686
▁амо	-7687
▁тем	-7688
▁хеи	-7689
▁ԥха	-7690
▁ԥыр	-7691
аниеи	-7692
бгара	-7693
дуард	-7694
иааит	-7695
хеиба	-7696
хьчоз	-7697
ҷҷара	-7698
▁аӡра	-7699
▁каин	-7700
▁маҷу	-7701
▁рыцә	-7702
▁тема	-7703
гәаԥхо	-7704
ционер	-7705
ҟаҵаҩы	-7706
▁агәка	-7707
▁акрит	-7708
▁ахҵәа	-7709
▁ашәах	-7710
▁аҳәын	-7711
▁дшәыр	-7712
▁изкыу	-7713
▁килом	-7714
▁ргәыԥ	-7715
▁шамоу	-7716
▁аушьҭы	-7717
▁ахаҵеи	-7718
▁ахәԥса	-7719
▁аҩнқәа	-7720
▁змамыз	-7721
▁иалхыз	-7722
▁мҩаԥаҳ	-7723
гәаԥхоит	-7724
▁ахахәыл	-7725
▁ахьымӡӷ	-7726
▁рыгәқәа	-7727
▁уахәама	-7728
▁ҳаракуп	-7729
▁аветеран	-7730
▁лиудмила	-7731
▁аилыргара	-7732
▁аҵарадырреи	-7733
▁иаҳгәалаҳар	-7734
▁рцәыргақәҵа	-7735
▁ихымҩаԥгашьа	-7736
▁уажәраанӡагьы	-7737
▁аԥсаломшәаҳәаҩ	-7738
▁рџьынџьтәылатә	-7739
есу	-7740
цуп	-7741
чиа	-7742
ҭни	-7743
бааи	-7744
гахо	-7745
ениа	-7746
иада	-7747
маны	-7748
чаԥа	-7749
қьыр	-7750
ҵәоу	-7751
▁иҽи	-7752
▁рзи	-7753
хьаԥш	-7754
ҟәҟәа	-7755
▁2011	-7756
▁2012	-7757
▁аниа	-7758
▁арԥш	-7759
▁зымч	-7760
▁план	-7761
▁ҟәыӷ	-7762
сааира	-7763
ҵәахра	-7764
▁ааира	-7765
▁ааныз	-7766
▁гәара	-7767
▁молда	-7768
қәшәара	-7769
▁едуард	-7770
▁еиҳабы	-7771
▁иахәҭа	-7772
▁иҟаҵаз	-7773
▁мҩаԥго	-7774
▁шаҭаху	-7775
▁ԥсахра	-7776
лшәыркаа	-7777
шьцылара	-7778
▁ахьшьра	-7779
▁иашьҭоу	-7780
▁аиҭагара	-7781
▁рыхьӡала	-7782
▁чымазара	-7783
▁ҩынҩажәи	-7784
▁ҵабыргла	-7785
▁аинтервиу	-7786
▁аинтернет	-7787
▁аџьынџьал	-7788
▁еиликааит	-7789
▁агәаԥхашәа	-7790
▁анагӡаратә	-7791
▁уадаҩрақәа	-7792
▁аҽацәыхьчара	-7793
▁ихымԥадатәиу	-7794
▁ҳаигәырӷьоит	-7795
▁иԥааимбаражәа	-7796
тик	-7797
цаҳ	-7798
шьу	-7799
шҩы	-7800
▁ст	-7801
▁ибз	-7802
▁рла	-7803
дохеи	-7804
ижьит	-7805
нагаз	-7806
ӷониа	-7807
ԥхьон	-7808
▁асыс	-7809
▁атеа	-7810
▁аҭел	-7811
▁иван	-7812
▁ицыз	-7813
▁иҭаз	-7814
▁мыхц	-7815
зыԥшым	-7816
▁арахә	-7817
▁аҵхра	-7818
▁лыхны	-7819
▁лыԥха	-7820
зымӡырҩ	-7821
хәҭақәа	-7822
▁африка	-7823
▁аӡынба	-7824
▁аԥсныи	-7825
▁иҩуеит	-7826
қәымгәыӷ	-7827
▁ашәахьа	-7828
▁аҭалара	-7829
▁иҟаларц	-7830
▁иҟалҵаз	-7831
▁милаҭтә	-7832
▁ԥырхага	-7833
▁аанагоит	-7834
▁аԥагьара	-7835
▁мардохеи	-7836
▁цәқәырԥа	-7837
▁ҳрызхәыц	-7838
▁инарҭбаау	-7839
▁черқьесск	-7840
▁аҭыԥҳацәеи	-7841
▁ҿырԥштәқәа	-7842
дысныҳәалоит	-7843
▁аелектронтә	-7844
▁еиҭашьақәыр	-7845
▁атәылауаҩратә	-7846
▁аиқәшаҳаҭрақәа	-7847
вы	-7848
ср	-7849
лей	-7850
маҵ	-7851
ԥыз	-7852
ебиа	-7853
уада	-7854
шыра	-7855
▁азу	-7856
▁акь	-7857
▁уал	-7858
▁шыл	-7859
зымхо	-7860
парат	-7861
ӡәара	-7862
▁арга	-7863
▁ахан	-7864
▁ашах	-7865
▁аӷар	-7866
▁зауа	-7867
▁нана	-7868
▁усуп	-7869
ишьеит	-7870
▁амҵан	-7871
▁ирныр	-7872
▁адокум	-7873
▁аномер	-7874
▁ҳәагьы	-7875
▁абекәын	-7876
▁акажьра	-7877
▁захариа	-7878
▁икьыԥхь	-7879
▁публика	-7880
хәаԥшуеит	-7881
▁абыргцәа	-7882
▁аусураҿы	-7883
▁галилеиа	-7884
▁дызусҭоу	-7885
▁комплекс	-7886
▁ҳамазарц	-7887
▁агәшаҭара	-7888
▁иреиӷьӡоу	-7889
▁еилыскааит	-7890
▁ставрополь	-7891
▁агәымшәареи	-7892
▁адгьылтәыла	-7893
▁аминистрреи	-7894
▁амҩаԥгаразы	-7895
▁аԥсҭазаареи	-7896
▁астратегиатә	-7897
▁ахынраалареи	-7898
▁ашколхәыҷқәа	-7899
▁аџьашьахәқәа	-7900
▁лышәшәарақәа	-7901
▁ижәдыруазааит	-7902
бна	-7903
кур	-7904
мон	-7905
ӡан	-7906
ӡар	-7907
згәа	-7908
илтә	-7909
кыга	-7910
нқәа	-7911
уаҩы	-7912
▁ако	-7913
▁зиа	-7914
▁лыр	-7915
▁таи	-7916
жәаба	-7917
зымчу	-7918
кьаҿу	-7919
▁абӷа	-7920
▁амчи	-7921
▁иаби	-7922
▁иибо	-7923
▁ирзи	-7924
▁ишәу	-7925
▁прит	-7926
▁сыла	-7927
▁қьыр	-7928
зылԥхо	-7929
хьынҵа	-7930
▁аиааи	-7931
▁аниба	-7932
▁аперс	-7933
▁ақьаа	-7934
▁иабжь	-7935
▁иахыр	-7936
▁мзазы	-7937
▁рныҟә	-7938
цәажәар	-7939
▁азыӡба	-7940
▁иаасҭа	-7941
▁тетрад	-7942
▁хәыҷык	-7943
▁ҳзаана	-7944
▁ԥшьҩык	-7945
ҭагалара	-7946
▁иаҭахуп	-7947
▁шәҟәқәа	-7948
▁аусуразы	-7949
▁еиԥылара	-7950
▁игәалаир	-7951
▁иуадаҩыз	-7952
▁салагеит	-7953
▁шьҭызхуа	-7954
▁ҳаамҭазы	-7955
▁абжьыҭира	-7956
▁аилкаареи	-7957
▁издыруеит	-7958
▁рҿагылара	-7959
▁ибзиабараҿ	-7960
▁ахаҭарнакра	-7961
▁ахӡырымгара	-7962
▁аԥхьахәгара	-7963
▁иадамзаргьы	-7964
▁ицәаныррақәа	-7965
▁рцәаныррақәа	-7966
▁аиҿцәажәарақәа	-7967
жи	-7968
пек	-7969
уть	-7970
ӡоз	-7971
▁кә	-7972
▁ом	-7973
▁ӡы	-7974
ланд	-7975
тиль	-7976
тәаз	-7977
шьад	-7978
лагьы	-7979
ларҭа	-7980
лԥазы	-7981
усқәа	-7982
▁абла	-7983
▁ануп	-7984
▁аӡым	-7985
▁дрых	-7986
▁еима	-7987
▁зана	-7988
▁иныр	-7989
▁иӡаа	-7990
▁хьӡи	-7991
▁ҟашә	-7992
▁ԥшеи	-7993
лымӡаа	-7994
▁аполи	-7995
▁араса	-7996
▁ахәра	-7997
▁аҭира	-7998
▁иҳәоз	-7999
▁лабҿа	-8000
▁ухатә	-8001
коллега	-8002
▁аметод	-8003
▁иазкуп	-8004
▁имаҷны	-8005
▁инхоит	-8006
▁рацәак	-8007
▁ԥыҭҩык	-8008
лармониа	-8009
хәыҷқәеи	-8010
ҵәахырҭа	-8011
▁асимвол	-8012
▁ашәагаа	-8013
▁ицәажәо	-8014
▁ныҟәара	-8015
▁спорттә	-8016
▁џьаргьы	-8017
▁ажәылара	-8018
▁игәырӷьа	-8019
▁ицәырҵуа	-8020
▁рмаҵзура	-8021
▁рыхьӡқәа	-8022
▁ҳазхиоуп	-8023
▁ашьаҿақәа	-8024
▁зегьзымчу	-8025
▁рыргылара	-8026
▁рыхьчареи	-8027
▁шықәсқәак	-8028
▁ҳизиашаны	-8029
▁алыршахеит	-8030
▁арсалиаԥҳа	-8031
▁иаанагаӡом	-8032
▁иаҳзаанаго	-8033
▁информациа	-8034
▁зехьынџьара	-8035
▁ишьақәгылоу	-8036
▁агәнаҳарақәа	-8037
▁аԥсҭазааразы	-8038
▁еиӷьаҳтәуеит	-8039
▁игәаанагарала	-8040
рд	-8041
гба	-8042
гым	-8043
сан	-8044
▁62	-8045
▁69	-8046
▁он	-8047
▁ҭи	-8048
иҭон	-8049
иҵоз	-8050
кьиа	-8051
мҭеи	-8052
хәла	-8053
қьын	-8054
ҳауп	-8055
ҵатә	-8056
▁бар	-8057
▁бра	-8058
▁роб	-8059
▁соф	-8060
хароу	-8061
ҭахыу	-8062
ԥхьар	-8063
▁адра	-8064
▁ахыс	-8065
▁ачба	-8066
▁ашҭа	-8067
▁ваал	-8068
▁дырҩ	-8069
▁егип	-8070
▁иным	-8071
▁иӷар	-8072
▁хымш	-8073
хәуеит	-8074
ҳәашьа	-8075
ҳәызба	-8076
▁ааԥын	-8077
▁ашәба	-8078
▁ақәра	-8079
▁аԥҽра	-8080
▁бжаки	-8081
▁иҳәан	-8082
▁иҵара	-8083
▁сосна	-8084
▁хкқәа	-8085
▁шыҟам	-8086
▁ҳгәаҳ	-8087
ралитет	-8088
ҭахузеи	-8089
▁агәамч	-8090
▁адырҩа	-8091
▁анорма	-8092
▁аолимп	-8093
▁аԥыхра	-8094
▁иахьеи	-8095
гәеиҭоит	-8096
цхраазеи	-8097
ыцҳауеит	-8098
▁ацәҳара	-8099
▁раԥҵара	-8100
▁ҳзыԥсам	-8101
▁ӡиӡариа	-8102
цхрааларц	-8103
▁аицлабра	-8104
▁аусеилыр	-8105
▁ачерқьес	-8106
▁ашәҟәаҿы	-8107
▁аӡбаратә	-8108
▁аԥшьгара	-8109
▁еицҿакны	-8110
▁имҩаԥган	-8111
▁ҟанаҵоит	-8112
▁ҳиҳәалар	-8113
▁арӷәӷәоит	-8114
▁аԥшьаҩцәа	-8115
▁рызхәыцра	-8116
▁ҿырԥштәык	-8117
▁иҭышәынтәа	-8118
▁рыларҵәара	-8119
▁зыԥсҭазаара	-8120
▁иаҳархәалар	-8121
▁акандидатцәа	-8122
▁амҩақәҵарақәа	-8123
7-	-8124
қу	-8125
дым	-8126
иба	-8127
иса	-8128
орт	-8129
▁об	-8130
▁қа	-8131
жәҩа	-8132
иҭаз	-8133
хази	-8134
шәом	-8135
▁баш	-8136
▁лот	-8137
▁хаа	-8138
инаго	-8139
▁аинт	-8140
▁афҩы	-8141
▁дасу	-8142
▁лаҟә	-8143
▁лгәа	-8144
▁ҳаҟа	-8145
символ	-8146
▁аврам	-8147
▁амаӡа	-8148
▁асаби	-8149
▁аҵкыс	-8150
▁еиԥшу	-8151
▁иахьи	-8152
▁игәам	-8153
▁иҳади	-8154
шәагатә	-8155
▁аиуеит	-8156
▁аусзуҩ	-8157
▁ашьаҟа	-8158
▁аԥҵоуп	-8159
▁далҵит	-8160
▁еилука	-8161
▁иазыҟа	-8162
▁ирзыҟа	-8163
▁ишыҟаз	-8164
▁премиа	-8165
▁руаӡәы	-8166
зхәыцуаз	-8167
▁едемтәи	-8168
▁иагьыҟа	-8169
▁инықәыр	-8170
▁рдоктор	-8171
▁усуратә	-8172
▁хәыҷқәа	-8173
емориалтә	-8174
қәыршәара	-8175
▁ааныжьра	-8176
▁акаԥсара	-8177
▁анаплакы	-8178
▁арԥарцәа	-8179
▁зыҟаҵара	-8180
▁аамҭақәак	-8181
▁алаирхәит	-8182
▁атәамбара	-8183
▁афырхацәа	-8184
▁аҭҵааҩцәа	-8185
▁еиԥшҵәҟьа	-8186
▁зныкымкәа	-8187
▁ирдыруеит	-8188
▁ацхыраареи	-8189
▁ҳәынҭқаррак	-8190
▁ҵыхәаԥҵәара	-8191
▁ахыркәшамҭаз	-8192
▁рышьақәыргылара	-8193
бӷа	-8194
кҩы	-8195
мас	-8196
ный	-8197
▁ре	-8198
бага	-8199
оуит	-8200
ӷәра	-8201
▁вал	-8202
▁ран	-8203
▁шри	-8204
▁амҵа	-8205
▁асин	-8206
▁атео	-8207
▁еилу	-8208
▁ефес	-8209
▁неем	-8210
▁рком	-8211
▁тәыс	-8212
▁убар	-8213
▁ҳаид	-8214
▁ҳауп	-8215
анарԥш	-8216
нагара	-8217
цәыԥха	-8218
ынгыла	-8219
ԥшааит	-8220
▁заана	-8221
▁ианын	-8222
▁исаия	-8223
анааҭтә	-8224
ижьуеит	-8225
ологцәа	-8226
ыԥҵәаха	-8227
▁агәара	-8228
▁ашаҳаҭ	-8229
▁аҭыхра	-8230
▁ижәытә	-8231
▁пиотри	-8232
▁реилыр	-8233
▁ҵаҵӷәы	-8234
▁акәхоит	-8235
▁аҭыжьра	-8236
▁иаауеит	-8237
▁иахәоит	-8238
▁лашәриа	-8239
▁иҟаиҵеит	-8240
▁иҟаиҵазеи	-8241
▁ргәазҭаҵа	-8242
▁рҭоурыхтә	-8243
▁атранспорт	-8244
▁дидикылеит	-8245
▁ишԥашәылшо	-8246
▁азнеишьақәа	-8247
▁хшыҩзышьҭра	-8248
▁хәышәтәырҭа	-8249
▁изқәыргәыӷыз	-8250
▁рылацәажәара	-8251
▁аҳәаахьчаратә	-8252
ре	-8253
мун	-8254
рик	-8255
хна	-8256
ҭых	-8257
итор	-8258
лсра	-8259
триа	-8260
шьон	-8261
шәны	-8262
ҵәыу	-8263
▁дла	-8264
жәаны	-8265
хьӡыз	-8266
ҳәҳәа	-8267
ҵарҭа	-8268
▁диас	-8269
▁поет	-8270
ҵаҵәҟь	-8271
▁ашәуа	-8272
▁дрықә	-8273
▁дышҳа	-8274
▁хәыта	-8275
ԥхьаӡон	-8276
▁аидеиа	-8277
▁амурҭа	-8278
▁гәымба	-8279
▁дынхон	-8280
▁иашьак	-8281
▁иеихыр	-8282
▁ишаҳбо	-8283
▁хаданы	-8284
▁хацырк	-8285
▁хырхар	-8286
▁шәҟәык	-8287
▁ҭамара	-8288
▁ӡбарҭа	-8289
▁архиара	-8290
▁атәанча	-8291
▁гәаҟрак	-8292
▁иԥхьаӡа	-8293
▁иԥҳәыси	-8294
▁лҭаацәа	-8295
цәаҳахьча	-8296
▁даҽазнык	-8297
▁диижьҭеи	-8298
▁иазхиоуп	-8299
ланаршәоит	-8300
▁аҭагалара	-8301
▁европатәи	-8302
▁абаҩхатәра	-8303
▁агәалашәара	-8304
▁ақалақьқәеи	-8305
▁еиликаауеит	-8306
▁аҳаҭырқәҵара	-8307
▁мраҭашәаратәи	-8308
ҿио	-8309
▁ит	-8310
▁лу	-8311
гәду	-8312
лизм	-8313
хьтә	-8314
▁ашы	-8315
▁лыл	-8316
хааит	-8317
шьҭны	-8318
ԥсаны	-8319
▁амат	-8320
▁амҭа	-8321
▁аныл	-8322
▁музы	-8323
▁шәыҽ	-8324
▁ықәи	-8325
гомызт	-8326
ҳаларц	-8327
▁агәын	-8328
▁афрон	-8329
▁еибар	-8330
▁еиӷьу	-8331
▁иааҳа	-8332
▁ихара	-8333
намӡара	-8334
▁авидео	-8335
▁амҽхак	-8336
▁ақьаад	-8337
▁гәырҩа	-8338
▁дшыҟаз	-8339
▁ишԥана	-8340
▁павели	-8341
▁проект	-8342
ныҟәалар	-8343
▁ааԥсара	-8344
▁анасыԥи	-8345
▁дыҟаӡам	-8346
▁шиакәыз	-8347
▁ҳаниҳәо	-8348
▁абжьыхра	-8349
▁аексперт	-8350
▁атемақәа	-8351
▁даналага	-8352
▁зықьҩыла	-8353
▁иашьҭоуп	-8354
▁иақәшәаз	-8355
▁акурорттә	-8356
▁арԥарцәеи	-8357
▁ахыҵхырҭа	-8358
▁аҽыԥсахра	-8359
▁иеилкаара	-8360
▁азгәалҭеит	-8361
▁аиҳәшьцәеи	-8362
▁мҩаԥнагоит	-8363
▁аматериалтә	-8364
▁иапостолцәа	-8365
▁зылԥхарақәоу	-8366
▁шьамтәылатәи	-8367
▁азԥхьагәаҭаны	-8368
▁дарбанзаалакь	-8369
ԥх	-8370
вед	-8371
лац	-8372
пас	-8373
роп	-8374
тла	-8375
хыҭ	-8376
▁61	-8377
бома	-8378
згаз	-8379
▁аҟь	-8380
▁нин	-8381
лырша	-8382
хысыз	-8383
шьаны	-8384
шьаша	-8385
ҵароу	-8386
ӡыӡаа	-8387
▁абыз	-8388
▁акри	-8389
▁ахав	-8390
▁иалҵ	-8391
▁руан	-8392
▁уахы	-8393
▁шышә	-8394
▁шьаҟ	-8395
▁шьаҿ	-8396
▁ҳауа	-8397
ҿыԥшла	-8398
ҿыԥшуа	-8399
▁алашә	-8400
▁аҩсҭа	-8401
▁излар	-8402
бзоуроу	-8403
ҩангага	-8404
▁азинтә	-8405
▁зеиӷьа	-8406
▁иаԥҵоу	-8407
▁иоанни	-8408
▁убраҟа	-8409
▁хьанҭа	-8410
▁қьырса	-8411
гәырӷьон	-8412
ԥааимбар	-8413
▁аихамҩа	-8414
▁аобиект	-8415
▁ахьеизо	-8416
▁иудеиаа	-8417
▁еиҵагыло	-8418
▁иаҳәшьак	-8419
▁ихәыҷқәа	-8420
▁рмилаҭтә	-8421
▁хықәкыла	-8422
▁хәылԥазы	-8423
қәгәыӷуеит	-8424
▁иааирԥшыз	-8425
▁ахәыцрақәа	-8426
▁еиҭалҳәеит	-8427
▁ирыҵанакуа	-8428
▁иҟазшьақәа	-8429
▁рыԥсадгьыл	-8430
▁аҳазылхратә	-8431
▁иԥшәмаԥҳәыс	-8432
▁уадаҩрақәоу	-8433
▁краснодартәи	-8434
ад	-8435
кли	-8436
пуа	-8437
фра	-8438
хьо	-8439
▁71	-8440
дкыл	-8441
жәуа	-8442
уреа	-8443
усти	-8444
хома	-8445
хьыз	-8446
▁105	-8447
залху	-8448
раҳим	-8449
хьтәи	-8450
ҵалыҵ	-8451
ҵаӡом	-8452
▁иган	-8453
▁уала	-8454
▁узҭо	-8455
▁уԥсы	-8456
▁цаҳә	-8457
▁ҟаҵо	-8458
▁ԥхьа	-8459
бахьиа	-8460
хьазар	-8461
шьҭаны	-8462
ҩынтра	-8463
ԥхьарц	-8464
▁аконт	-8465
▁акыла	-8466
▁дцоит	-8467
▁ишәыр	-8468
▁шәыгә	-8469
гылашьа	-8470
жәжәара	-8471
мыршҭын	-8472
▁ахьыҟа	-8473
▁ахәҭак	-8474
▁египет	-8475
▁ииҳәоз	-8476
▁шәҟәыҩ	-8477
гыларатә	-8478
▁акомпиу	-8479
▁ахалара	-8480
▁аџьуатә	-8481
▁иаԥсоуп	-8482
▁ибраҳим	-8483
▁ирдыруа	-8484
▁иреиуоу	-8485
▁ирыдҳәа	-8486
▁иқәгәыӷ	-8487
▁иҟазарц	-8488
▁иҟынтәи	-8489
▁сҭаацәа	-8490
цәырҵуеит	-8491
▁амцҳәара	-8492
▁амшныҳәа	-8493
▁арҽхәара	-8494
▁аҭоурыхи	-8495
▁еиҿкаауп	-8496
▁унитартә	-8497
▁цәгьарак	-8498
▁ԥааимбар	-8499
▁адгьылбжьа	-8500
▁аибашьраҿы	-8501
▁ассоциациа	-8502
▁аџьашьахәы	-8503
▁иаҵанакуаз	-8504
▁игәаԥхашәа	-8505
▁шьыҵәрақәа	-8506
▁ҳаизааигәа	-8507
▁ҳанрықәшәо	-8508
▁анааҳарԥшуа	-8509
▁аимабзиаратә	-8510
6-	-8511
еми	-8512
етр	-8513
зтә	-8514
лер	-8515
орк	-8516
қәо	-8517
ҩуа	-8518
▁ге	-8519
▁ро	-8520
▁уш	-8521
▁чы	-8522
зҵаз	-8523
рҭәа	-8524
ҵуан	-8525
▁150	-8526
▁ззи	-8527
▁тер	-8528
маӡам	-8529
налтә	-8530
▁акап	-8531
▁аԥҳа	-8532
▁рцәа	-8533
обилтә	-8534
паҵаҟа	-8535
татара	-8536
хьарԥш	-8537
қәшаҳа	-8538
ԥсахыр	-8539
▁амгәа	-8540
▁амлак	-8541
▁ацәыӡ	-8542
▁еиҿыр	-8543
▁пункт	-8544
▁уаҵәы	-8545
▁шьаҭа	-8546
лафахәы	-8547
пектива	-8548
ҭныԥсах	-8549
▁аартны	-8550
▁ауразы	-8551
▁ахкқәа	-8552
▁есымчы	-8553
▁ишаабо	-8554
▁ҳусура	-8555
▁ҳҟынтә	-8556
▁апериод	-8557
▁асинаго	-8558
▁ашьхары	-8559
▁доуҳатә	-8560
▁дҟалоит	-8561
▁иалихыз	-8562
▁ииашоуп	-8563
▁ишиашоу	-8564
▁процесс	-8565
▁убасала	-8566
▁ааиаанӡа	-8567
▁агәнаҳаи	-8568
▁иҟәыӷара	-8569
хәыцрақәеи	-8570
▁ианашьоуп	-8571
▁имҩаԥгахо	-8572
▁иҟаҳҵалар	-8573
▁рҭаацәара	-8574
▁рҭахрақәа	-8575
▁факультет	-8576
▁аамышьҭахь	-8577
▁агәыҭбаара	-8578
▁еибашьраан	-8579
▁иадырхәоит	-8580
▁реидгылара	-8581
▁агәабзиареи	-8582
▁ахархәаразы	-8583
▁аизыҟазаашьа	-8584
▁аматериалқәа	-8585
▁адинхаҵарақәа	-8586
▁асахьаркыратә	-8587
▁ауаҩытәыҩсатә	-8588
их	-8589
дар	-8590
даҭ	-8591
▁59	-8592
▁77	-8593
гага	-8594
елие	-8595
уард	-8596
қәаҳ	-8597
▁103	-8598
▁17.	-8599
▁кны	-8600
галак	-8601
итинг	-8602
кратә	-8603
хәҭак	-8604
цәхьа	-8605
ылеит	-8606
ԥшьра	-8607
ԥҵәоу	-8608
▁абжа	-8609
▁ажра	-8610
▁акан	-8611
▁аԥыз	-8612
▁дали	-8613
▁ибла	-8614
▁исыз	-8615
▁мура	-8616
▁полу	-8617
▁ԥлиа	-8618
▁ԥшӡа	-8619
зҵааит	-8620
уазгьы	-8621
цхрааи	-8622
ҟьақәа	-8623
▁агәҭа	-8624
▁ахьар	-8625
▁бзиеи	-8626
▁вадим	-8627
▁гьежь	-8628
▁ихшыҩ	-8629
▁ишԥаа	-8630
▁маҷуп	-8631
▁ныҟәы	-8632
▁уаҩын	-8633
▁шәала	-8634
▁ҵараи	-8635
ларақәа	-8636
машьына	-8637
олиуциа	-8638
ӡырҩцәа	-8639
ԥхьаӡоз	-8640
▁анацәа	-8641
▁зеиԥшу	-8642
▁нурбеи	-8643
▁авигеиа	-8644
▁аҿыԥшра	-8645
▁аԥҵәара	-8646
▁диҳәеит	-8647
▁знеишьа	-8648
▁ииҭахыз	-8649
▁рҳәатәы	-8650
зыӡырҩуан	-8651
▁абзазара	-8652
▁агәеилых	-8653
▁атуризми	-8654
▁гәарамиа	-8655
▁иахәҭоуп	-8656
▁ирзеиԥшу	-8657
▁ирыбжьар	-8658
▁иҩызцәеи	-8659
▁иҽеимкәа	-8660
▁рыцҳарас	-8661
шьҭашәарыц	-8662
▁аарԥшразы	-8663
▁аиҭанеира	-8664
▁алашьцара	-8665
▁ашамҭақәа	-8666
▁иааирԥшит	-8667
еинраалақәа	-8668
▁еилаҳкааит	-8669
▁иаадырԥшыз	-8670
▁иаанагозар	-8671
▁филармониа	-8672
▁шымҩаԥысуа	-8673
▁џьашьахәыла	-8674
▁аԥсҭазааратә	-8675
▁аԥсшьарамшқәа	-8676
▁шәыгәрахаҵара	-8677
▁апрофессионалтә	-8678
,5	-8679
оч	-8680
▁▪	-8681
зав	-8682
кла	-8683
рос	-8684
хша	-8685
хыҩ	-8686
итаи	-8687
нуть	-8688
ҭыша	-8689
▁120	-8690
▁аху	-8691
▁иҩа	-8692
▁под	-8693
зымҵо	-8694
тәӡам	-8695
ххара	-8696
хьчон	-8697
шьуан	-8698
ԥшааз	-8699
▁адиа	-8700
▁кәыр	-8701
▁рҭыԥ	-8702
▁саны	-8703
▁фара	-8704
▁ҳзеи	-8705
зыԥшын	-8706
рацәоу	-8707
қәшәоз	-8708
ҭахыуп	-8709
▁адемо	-8710
▁аџьма	-8711
▁игеит	-8712
▁ргеит	-8713
▁рҳәон	-8714
▁иашала	-8715
▁ирылар	-8716
▁исымоу	-8717
▁иудеиа	-8718
▁лариса	-8719
▁никара	-8720
▁шьаҟры	-8721
▁шәеиба	-8722
нографиа	-8723
уазароуп	-8724
▁амҩаԥга	-8725
▁архәара	-8726
▁аҭаҵара	-8727
▁захьӡыз	-8728
▁ииҳәарц	-8729
▁имҩаԥыр	-8730
▁иҵаулоу	-8731
▁реиҳабы	-8732
▁рҿырԥшы	-8733
▁ҳҩызцәа	-8734
▁гьерзмаа	-8735
▁иқәыԥшыз	-8736
▁рыгхақәа	-8737
▁ҳпублика	-8738
▁абжьаҵара	-8739
▁аредактор	-8740
▁есыҽнытәи	-8741
▁реилагара	-8742
▁аиҳабацәеи	-8743
▁ахәыҷбаҳча	-8744
▁аҵанакуеит	-8745
▁еилыркаарц	-8746
▁еиҿкаахоит	-8747
▁аиҿцәажәара	-8748
▁аилацәажәара	-8749
▁атеократиатә	-8750
▁иҳаилшәыркаа	-8751
▁уахәаԥшуазар	-8752
▁агәаларшәагатә	-8753
бек	-8754
ино	-8755
ҿыр	-8756
▁64	-8757
▁85	-8758
▁ки	-8759
▁уч	-8760
▁ӡа	-8761
антә	-8762
гәҭа	-8763
мышҭ	-8764
тина	-8765
хашҭ	-8766
ҵахо	-8767
▁145	-8768
▁ази	-8769
▁аҭә	-8770
▁гад	-8771
▁исп	-8772
▁рыҿ	-8773
▁ҟча	-8774
▁ҭаҳ	-8775
▁ҳах	-8776
кәажә	-8777
суеит	-8778
хәала	-8779
шәары	-8780
қәдыр	-8781
ԥшуан	-8782
▁абду	-8783
▁аизы	-8784
▁алаф	-8785
▁ауар	-8786
▁дшаҳ	-8787
▁рост	-8788
▁рыду	-8789
▁шьоу	-8790
▁ҳалш	-8791
▁ҳреи	-8792
лошьад	-8793
тралтә	-8794
харгьы	-8795
▁ацәаа	-8796
▁ацәым	-8797
▁дырба	-8798
▁дырра	-8799
▁иашам	-8800
▁рҵакы	-8801
▁чачба	-8802
цәырҵыз	-8803
қәыԥшыз	-8804
▁залқәа	-8805
▁ианнеи	-8806
▁иахьры	-8807
▁изаана	-8808
▁рнырра	-8809
▁аректор	-8810
▁аҵәахра	-8811
▁зыхьӡыз	-8812
▁ишьаҭар	-8813
▁коӷониа	-8814
▁шәхәыҷы	-8815
▁акурсқәа	-8816
▁арҵаратә	-8817
▁аԥхьареи	-8818
▁иажәабжь	-8819
▁традициа	-8820
▁христоси	-8821
еспубликеи	-8822
▁акылҵәара	-8823
▁акәыршара	-8824
▁ахылаԥшҩы	-8825
▁мапкыҩцәа	-8826
▁ракәымкәа	-8827
▁шәрызхәыц	-8828
▁ҭҵаарақәа	-8829
▁аҵараиурҭа	-8830
▁еиҳаракгьы	-8831
шәарыцарақәа	-8832
▁иԥсхҭынҵара	-8833
▁ауадаҩрақәеи	-8834
▁еизааигәахара	-8835
▁аҭышәынтәалара	-8836
арх	-8837
гог	-8838
жьу	-8839
иҵа	-8840
ная	-8841
ӡон	-8842
ԥны	-8843
▁97	-8844
гылт	-8845
ириа	-8846
кьаҭ	-8847
тери	-8848
цәра	-8849
ҵәаз	-8850
ԥаҿы	-8851
▁атр	-8852
▁бер	-8853
▁вол	-8854
▁зго	-8855
▁ишу	-8856
▁оль	-8857
▁пор	-8858
▁рԥы	-8859
халар	-8860
ынхоз	-8861
ҟынӡа	-8862
▁акьы	-8863
▁аста	-8864
▁ацха	-8865
▁аҟар	-8866
▁дуны	-8867
▁ирза	-8868
▁курс	-8869
▁маҭф	-8870
▁мира	-8871
▁сықә	-8872
▁хәым	-8873
бызшәа	-8874
мҩаԥыс	-8875
ҳәазеи	-8876
ҵомызт	-8877
▁агәыл	-8878
▁еидыз	-8879
▁иддыр	-8880
▁ироуз	-8881
▁ирхыр	-8882
▁иуеит	-8883
▁наука	-8884
▁нелли	-8885
▁ҩажәа	-8886
емориал	-8887
мыжькәа	-8888
▁аламиа	-8889
▁анарко	-8890
▁апункт	-8891
▁аршәра	-8892
▁ахраҿа	-8893
▁бзиала	-8894
▁иаабац	-8895
▁иаҳҳәо	-8896
▁лакрба	-8897
шьҭрақәа	-8898
ҵахырхәо	-8899
▁адыгеиа	-8900
▁амамкәа	-8901
▁ахҟьара	-8902
▁аҩсҭааи	-8903
▁аԥшьаҩы	-8904
▁дыруаӡә	-8905
▁иҟазшьа	-8906
▁иҟалаша	-8907
▁рыхәҭак	-8908
▁черкесс	-8909
▁ирдыруан	-8910
▁ҟаҳҵалар	-8911
▁ҳабжьара	-8912
▁ахьчаҩцәа	-8913
▁игәазҭана	-8914
▁иҳацхраар	-8915
▁рҩыџьагьы	-8916
▁амшынеиқәа	-8917
▁гәдоуҭатәи	-8918
▁реидкылара	-8919
▁цацыԥхьаӡа	-8920
цәаныррақәеи	-8921
▁ицхыраарала	-8922
▁рассоциациа	-8923
▁иаҳнарҵаҵәҟь	-8924
▁асаламшәҟәқәа	-8925
мҵ	-8926
уҩ	-8927
лыл	-8928
пба	-8929
▁ԥи	-8930
лиеи	-8931
ович	-8932
шьын	-8933
▁лен	-8934
▁ҳра	-8935
зыԥшы	-8936
рҭоуп	-8937
уреат	-8938
цәшәа	-8939
џьныр	-8940
ԥсахы	-8941
▁абыс	-8942
▁аҭеи	-8943
▁реиҿ	-8944
▁рыҟа	-8945
▁ссир	-8946
гаанӡа	-8947
портал	-8948
рыцқьа	-8949
усҭцәа	-8950
хагыла	-8951
шәозар	-8952
ӷәӷәар	-8953
▁ахәар	-8954
▁аҭакс	-8955
▁аҭаца	-8956
▁еилыл	-8957
▁иитәу	-8958
▁ирена	-8959
▁ирыду	-8960
▁ирыхь	-8961
▁нинев	-8962
▁рҽыры	-8963
шьҭанеи	-8964
ҭеиҭыԥш	-8965
ҳәаақәа	-8966
▁амедал	-8967
▁араӡны	-8968
▁ахадеи	-8969
▁венесу	-8970
▁даннеи	-8971
▁иакови	-8972
▁илымаз	-8973
▁раамҭа	-8974
▁рыҭира	-8975
▁аарԥшла	-8976
▁аахәара	-8977
▁ажәлари	-8978
▁азгәаҭа	-8979
▁атҟәара	-8980
▁ахьынхо	-8981
▁аҽҳәара	-8982
▁аԥшасра	-8983
▁есааира	-8984
▁иашақәа	-8985
▁иҟашәҵа	-8986
▁иҟашәҵо	-8987
▁комитет	-8988
▁хәытаба	-8989
▁шәусура	-8990
цәыцәгьоу	-8991
▁агәылаҵа	-8992
▁академиа	-8993
▁аҵарҭыша	-8994
▁еихьӡара	-8995
▁рдоуҳатә	-8996
▁рыҩнуҵҟа	-8997
▁шәеизара	-8998
▁шәрыԥхьа	-8999
▁ахыбрақәа	-9000
▁ишԥасылшо	-9001
▁гәаанагара	-9002
▁аиԥшәымацәа	-9003
▁ахәмаррақәа	-9004
▁иазхаҵаҩцәа	-9005
▁иуцхраауеит	-9006
▁меигӡарахда	-9007
▁адинхаҵаратә	-9008
▁арымарахьала	-9009
▁аҭҵаарадырра	-9010
▁уаажәларратә	-9011
▁•	-9012
гам	-9013
итә	-9014
урт	-9015
чер	-9016
ччо	-9017
шҭа	-9018
қар	-9019
ҿра	-9020
▁67	-9021
▁86	-9022
баиа	-9023
боуп	-9024
лышә	-9025
хәон	-9026
шәыз	-9027
қьра	-9028
ԥыла	-9029
▁фым	-9030
▁қьы	-9031
дгала	-9032
кқәеи	-9033
лихыз	-9034
струк	-9035
ториа	-9036
хиеит	-9037
цәыры	-9038
шьапы	-9039
ҟәаны	-9040
ӡатәи	-9041
▁аибы	-9042
▁ахим	-9043
▁вооз	-9044
▁иҭыԥ	-9045
▁шәыш	-9046
антцәа	-9047
цәырыз	-9048
ҟалоит	-9049
▁абыкь	-9050
▁аиҭеи	-9051
▁аконф	-9052
▁дахьи	-9053
▁кьышь	-9054
▁мышкы	-9055
▁ықәыр	-9056
ҳәалоит	-9057
ҳәахьаз	-9058
ҿыԥшлар	-9059
ӷьӷьара	-9060
▁аҟыбаҩ	-9061
▁дышԥар	-9062
▁иалҵыз	-9063
▁иаҭаны	-9064
▁иаԥхьа	-9065
▁ишьҭра	-9066
▁рыҟәша	-9067
иргылеит	-9068
хаҵаратә	-9069
▁аиҵыхра	-9070
▁амашәыр	-9071
▁ихаҭара	-9072
▁полуиан	-9073
▁уҭаацәа	-9074
▁ҭагалан	-9075
▁ҳанхоит	-9076
қәшаҳаҭра	-9077
▁амҳаџьыр	-9078
▁ашьхақәа	-9079
▁балкариа	-9080
▁еизадоуп	-9081
▁иаҿагыло	-9082
▁иҟалазеи	-9083
▁лшарақәа	-9084
▁агәырҭынч	-9085
▁адырҩаҽны	-9086
▁аиҿкаареи	-9087
▁анихыҵуаз	-9088
▁даҽаџьара	-9089
▁еизарақәа	-9090
▁иԥхьаӡоит	-9091
▁ҟәыӷарала	-9092
▁азыӡырҩцәа	-9093
▁аибашьратә	-9094
▁уизыӡырҩла	-9095
▁ҳахәҭоузеи	-9096
▁асахьаҭыхҩы	-9097
▁ацәгьоурақәа	-9098
▁рыԥсҭазаараҿы	-9099
▁иҳаилнаркаауеит	-9100
бах	-9101
дыл	-9102
лит	-9103
таа	-9104
чаа	-9105
анта	-9106
аным	-9107
ость	-9108
оурц	-9109
ӷьыз	-9110
▁шәҽ	-9111
ангьы	-9112
газар	-9113
уагьы	-9114
хиара	-9115
ххоит	-9116
шьала	-9117
ҭозар	-9118
ԥаҳго	-9119
▁аруб	-9120
▁аҵыр	-9121
▁аҽаз	-9122
▁дуаҩ	-9123
▁ирбо	-9124
▁напы	-9125
▁шәна	-9126
▁џьар	-9127
рыжьит	-9128
ҵатәуп	-9129
▁ахылҵ	-9130
▁еилак	-9131
▁иаары	-9132
▁иџьоу	-9133
▁аикәар	-9134
▁амзазы	-9135
▁афронт	-9136
▁ахыԥхь	-9137
▁аӷацәа	-9138
▁гәыӷра	-9139
▁еилырг	-9140
▁идемон	-9141
▁иосифи	-9142
▁ирылшо	-9143
▁ихыҵра	-9144
▁притчи	-9145
▁рҭахын	-9146
▁ҟаиҵон	-9147
уааԥсыра	-9148
▁ажәҩана	-9149
▁ақәгара	-9150
▁аҟәышра	-9151
▁инапаҿы	-9152
▁аиашареи	-9153
▁акәашара	-9154
▁далахәын	-9155
▁дрызхәыц	-9156
▁иаанхеит	-9157
▁ҳажәақәа	-9158
▁аадырԥшит	-9159
▁аазырԥшыз	-9160
▁зеиӷьаҟам	-9161
▁иаирхәоит	-9162
▁ҳазхәыцып	-9163
▁ҳаџьымбеи	-9164
▁аиубилеитә	-9165
▁анаԥхгареи	-9166
▁араионқәеи	-9167
▁асексуалтә	-9168
▁есымчыбжьа	-9169
▁арыцҳарақәа	-9170
▁зҿлымҳарала	-9171
▁иазгәарҭоит	-9172
▁иацхраауеит	-9173
▁хыркәшахеит	-9174
▁ҳаназхәыцуа	-9175
▁рықәыргылара	-9176
▁агәаанагарақәа	-9177
не	-9178
ҳк	-9179
имы	-9180
тие	-9181
цым	-9182
чба	-9183
▁2.	-9184
▁63	-9185
▁68	-9186
емец	-9187
рҭам	-9188
▁изл	-9189
▁рар	-9190
▁ҳаҽ	-9191
▁ҳҿы	-9192
енгиз	-9193
олькл	-9194
тақәа	-9195
ҵәира	-9196
▁ааит	-9197
▁азеи	-9198
▁зтәу	-9199
▁иаау	-9200
▁иацы	-9201
▁идуу	-9202
▁илоу	-9203
▁иҽыр	-9204
▁теле	-9205
▁ԥшьы	-9206
шәаара	-9207
ҩаӡара	-9208
ҵаратә	-9209
ԥшаауа	-9210
▁инаҳа	-9211
▁итәуп	-9212
▁иузым	-9213
▁ихада	-9214
▁ишақә	-9215
▁чачха	-9216
▁ҳашԥа	-9217
лымӡаах	-9218
ыԥныҳәа	-9219
ҭагылоу	-9220
ҭаххоит	-9221
▁амҩала	-9222
▁аразҟы	-9223
▁аусхкы	-9224
▁игылаз	-9225
▁изакәа	-9226
▁избоит	-9227
▁имаӡоу	-9228
▁иоуеит	-9229
▁ртәыла	-9230
▁аалырԥш	-9231
▁аппарат	-9232
▁ашахмат	-9233
▁материа	-9234
▁уажәтәи	-9235
▁академик	-9236
▁гагратәи	-9237
▁иалалеит	-9238
▁иԥсабара	-9239
▁нормақәа	-9240
▁реизгара	-9241
▁рыҭҵаара	-9242
▁ҟанаҵеит	-9243
▁аарԥшраҿы	-9244
▁аҳаирплан	-9245
▁аԥхьаҩцәа	-9246
▁молдавтәи	-9247
▁иманшәалоу	-9248
▁самариатәи	-9249
▁инадҳәаланы	-9250
▁арбџьармчқәа	-9251
▁аушьҭымҭацәа	-9252
▁рымҩаԥгаразы	-9253
иоу	-9254
ыша	-9255
ҭом	-9256
ҳҭа	-9257
вили	-9258
дура	-9259
лтәу	-9260
наҵы	-9261
пату	-9262
цқәа	-9263
цҳәа	-9264
ҳабы	-9265
ԥсыҽ	-9266
▁дос	-9267
▁дуи	-9268
▁шхы	-9269
▁ҳиа	-9270
анизм	-9271
зыҟам	-9272
хысра	-9273
хыхра	-9274
хәмар	-9275
чҳауа	-9276
ӷәара	-9277
▁амаҷ	-9278
▁амла	-9279
▁аныс	-9280
▁ахир	-9281
▁ачеи	-9282
▁аӡаа	-9283
▁гиви	-9284
▁дзеи	-9285
▁зиҭо	-9286
▁зхыз	-9287
▁иааг	-9288
▁идуӡ	-9289
▁итра	-9290
▁ицоз	-9291
▁ухьӡ	-9292
дгьыли	-9293
зааирт	-9294
зылбаа	-9295
ландиа	-9296
лбыҽха	-9297
мазарц	-9298
цәгьан	-9299
қьареи	-9300
▁аизыр	-9301
▁аинфо	-9302
▁ахәшә	-9303
▁аҵоуп	-9304
▁вифле	-9305
▁ишәым	-9306
▁раион	-9307
▁ҟалар	-9308
▁ԥшьба	-9309
гыларҭа	-9310
шәҳәала	-9311
▁абхази	-9312
▁аерман	-9313
▁аиҟара	-9314
▁арадио	-9315
▁аҭынха	-9316
▁есымза	-9317
▁заанаҵ	-9318
▁икьаҿу	-9319
▁ихынҳә	-9320
▁иҵегьы	-9321
зылԥхоит	-9322
▁абацәеи	-9323
▁амаҭәар	-9324
▁аӷьычра	-9325
▁гәырӷьа	-9326
▁иажәахә	-9327
▁ибзиоуп	-9328
▁франциа	-9329
▁агьангьа	-9330
▁акомитет	-9331
▁анаукатә	-9332
▁аҳәсақәа	-9333
▁аӡәымзар	-9334
▁изакәытә	-9335
▁иҟалозеи	-9336
▁ракзаара	-9337
▁рацәаҩны	-9338
▁шынаигӡо	-9339
▁адгьылқәа	-9340
▁аиқәшәара	-9341
▁макьаназы	-9342
▁нарыгӡоит	-9343
▁политикеи	-9344
▁рхаҭарнак	-9345
▁абиԥарақәа	-9346
▁азгәарҭоит	-9347
▁анапхгареи	-9348
▁атеатралтә	-9349
▁ишәасҳәоит	-9350
▁ҳаԥсадгьыл	-9351
▁агәаҟрақәеи	-9352
▁аинфопортал	-9353
▁афарисеицәа	-9354
▁ахақәиҭтәра	-9355
▁ирыдыркылаз	-9356
▁шықәсырацәа	-9357
▁шьақәырӷәӷәа	-9358
▁дрылацәажәеит	-9359
▁изаамҭанытәиу	-9360
▁ишьақәыргылоу	-9361
▁приднестровтәи	-9362
ԥо	-9363
виа	-9364
еор	-9365
▁3.	-9366
анаҭ	-9367
иран	-9368
тизм	-9369
ться	-9370
ульт	-9371
▁07-	-9372
▁125	-9373
▁бзы	-9374
▁лус	-9375
▁нов	-9376
▁хац	-9377
ариеи	-9378
дгыло	-9379
мырԥш	-9380
скьын	-9381
▁амик	-9382
▁ариа	-9383
▁ачаи	-9384
▁гәҭы	-9385
▁иҭан	-9386
▁оглы	-9387
▁уҩны	-9388
▁џьан	-9389
▁ҟрым	-9390
▁ҳҽыр	-9391
▁ԥсыҽ	-9392
шарыла	-9393
ҵарала	-9394
▁адиск	-9395
▁излаҳ	-9396
▁ихшаа	-9397
▁рҽазы	-9398
▁уимоу	-9399
▁уҽазы	-9400
▁хҭыск	-9401
▁ԥыхьа	-9402
хынҳәит	-9403
▁абжьаа	-9404
▁акәхап	-9405
▁алагер	-9406
▁ахадас	-9407
▁иаҭааз	-9408
▁инаӡаз	-9409
▁иҭынха	-9410
▁лҳәоит	-9411
▁ростов	-9412
▁цәгьоу	-9413
▁ҿырԥшу	-9414
фициалла	-9415
хәҭоузеи	-9416
қьақьара	-9417
▁адырреи	-9418
▁анаҳҳәо	-9419
▁ахҵәара	-9420
▁аҵлақәа	-9421
▁аԥшӡара	-9422
▁иманшәа	-9423
▁рԥылара	-9424
▁уадаҩуп	-9425
▁уалԥшьа	-9426
▁ԥсшьара	-9427
▁акзаареи	-9428
▁аллаҳгьы	-9429
▁иахьыҟоу	-9430
▁иаҳәозеи	-9431
▁шәҭаацәа	-9432
▁аныԥшуеит	-9433
▁џьопуаԥҳа	-9434
▁акомпиутер	-9435
▁арыӷьарахь	-9436
▁иазгәарҭеит	-9437
▁угәрахаҵара	-9438
▁афилологиатә	-9439
▁аҳәатәхаҵара	-9440
▁дҳацхраауеит	-9441
▁маҭәашьарқәа	-9442
зор	-9443
пра	-9444
уал	-9445
уга	-9446
ход	-9447
хыӡ	-9448
гӡон	-9449
ерти	-9450
илир	-9451
кттә	-9452
ҟәры	-9453
ҿырҭ	-9454
ӷьар	-9455
▁600	-9456
▁аес	-9457
▁рҭи	-9458
▁сав	-9459
▁ҳшы	-9460
нагоу	-9461
струм	-9462
федра	-9463
ԥшьба	-9464
▁2010	-9465
▁ажьы	-9466
▁ганк	-9467
▁досу	-9468
▁егьа	-9469
▁иаҵа	-9470
▁илшо	-9471
▁омар	-9472
▁џьум	-9473
лаанӡа	-9474
тәарҭа	-9475
ԥжәара	-9476
▁агәыӷ	-9477
▁акрыр	-9478
▁аруаҩ	-9479
▁ақәар	-9480
▁аҭахы	-9481
▁гарри	-9482
▁изааи	-9483
▁ирана	-9484
▁крист	-9485
▁навал	-9486
▁рханы	-9487
▁шаҳаҭ	-9488
▁ҳахьы	-9489
клаԥшра	-9490
цхраала	-9491
▁агхара	-9492
▁агәала	-9493
▁адамра	-9494
▁амҩатә	-9495
▁аокруг	-9496
▁ахәмар	-9497
▁аҭакра	-9498
▁жәаҩык	-9499
▁зыҽӡаа	-9500
▁имазар	-9501
▁иразра	-9502
▁карате	-9503
▁ракәны	-9504
▁раҵкыс	-9505
▁рыхшыҩ	-9506
гәыӷуеит	-9507
дициақәа	-9508
▁аихшара	-9509
▁анацәеи	-9510
▁аԥжәара	-9511
▁бжьаниа	-9512
▁вифлеем	-9513
▁дырҩегь	-9514
▁уразҵаа	-9515
▁хабарда	-9516
гәаларшәа	-9517
▁аҿаҭахьа	-9518
▁инеиуеит	-9519
▁напхгаҩы	-9520
еитралитет	-9521
▁аҭахрақәа	-9522
▁иаҳҳәозар	-9523
▁ихшаазаҵә	-9524
▁реимадара	-9525
▁аиҿкааразы	-9526
▁идемонцәеи	-9527
▁иџьашьахәу	-9528
▁рыхьчаразы	-9529
▁шықәсазтәи	-9530
▁апорнографиа	-9531
▁закәандарала	-9532
▁шьақәзырӷәӷәо	-9533
▁иаҳгәалаҳаршәап	-9534
бом	-9535
теи	-9536
▁93	-9537
▁94	-9538
▁95	-9539
▁кы	-9540
▁оз	-9541
▁ҳм	-9542
анаа	-9543
шьоз	-9544
шәҵо	-9545
џьоу	-9546
ҟаны	-9547
ҟәуа	-9548
▁зыҽ	-9549
▁рка	-9550
мҭоуп	-9551
мӡара	-9552
сктәи	-9553
хшара	-9554
цҳаит	-9555
ԥшәма	-9556
▁2000	-9557
▁абыл	-9558
▁анри	-9559
▁ахор	-9560
▁зцәа	-9561
андарт	-9562
гараны	-9563
гаҩцәа	-9564
ларатә	-9565
ҿыхара	-9566
▁авока	-9567
▁адәыл	-9568
▁аџьам	-9569
▁аҟәеи	-9570
▁аҭаху	-9571
▁иагәы	-9572
▁рызҭо	-9573
▁рҽала	-9574
▁шәзыр	-9575
▁ҳазбо	-9576
нахуеит	-9577
▁анемец	-9578
▁елисеи	-9579
▁иаамҭа	-9580
▁ихатәы	-9581
▁иҟоума	-9582
▁раахыс	-9583
▁шиашоу	-9584
уеижьҭеи	-9585
▁акакәны	-9586
▁ахьыҟаз	-9587
▁аҩнуҵҟа	-9588
▁бызшәак	-9589
▁иҟарҵоз	-9590
▁ԥышәара	-9591
дыруамызт	-9592
▁агәырӷьа	-9593
▁аилагара	-9594
▁арубрика	-9595
▁аусдкыла	-9596
▁ахәыцшьа	-9597
▁ацәырҵра	-9598
▁инхаларц	-9599
банызаалак	-9600
▁аԥстәқәеи	-9601
▁имариамыз	-9602
▁иқәгылара	-9603
▁иааирԥшуаз	-9604
▁алахәхаразы	-9605
▁анаԥхгараҭара	-9606
▁аҵараиурҭақәа	-9607
▁ҳпубликациақәа	-9608
▁авидеонҵамҭақәа	-9609
ас	-9610
гн	-9611
кон	-9612
коп	-9613
ҵап	-9614
▁96	-9615
илов	-9616
маԥа	-9617
поет	-9618
уцәа	-9619
цәыс	-9620
қьан	-9621
ӷьуп	-9622
▁бел	-9623
▁рзу	-9624
дырит	-9625
закра	-9626
лымҳа	-9627
хазеи	-9628
шьбеи	-9629
шьҭар	-9630
ҳәага	-9631
ҳәырц	-9632
▁азоу	-9633
▁ацын	-9634
▁ддәы	-9635
▁дҭар	-9636
▁зыла	-9637
▁наву	-9638
▁стор	-9639
▁ҳхаҳ	-9640
накыло	-9641
хәалар	-9642
шьартә	-9643
▁ааԥхь	-9644
▁аҟаза	-9645
▁аҳаса	-9646
▁бебиа	-9647
▁дырны	-9648
▁иибоз	-9649
▁ииҩыз	-9650
▁мчқәа	-9651
▁усхкы	-9652
▁ҳазҭо	-9653
▁ҳамоу	-9654
▁ҳамҩа	-9655
лизациа	-9656
накылаз	-9657
шьыгатә	-9658
ҵарақәа	-9659
ӷәӷәарц	-9660
▁аамсҭа	-9661
▁ахәара	-9662
▁аӡахәа	-9663
▁гәырӷь	-9664
▁иламыс	-9665
▁ирыман	-9666
▁иуҭаху	-9667
▁иуҳәар	-9668
▁иҽӡааи	-9669
▁иԥсахы	-9670
▁нарҭаа	-9671
▁рԥеиԥш	-9672
▁самсон	-9673
▁ҩаӡара	-9674
▁ҳусқәа	-9675
▁аҵасқәа	-9676
▁зыҽӡааз	-9677
▁идиҵеит	-9678
▁ишиҭаху	-9679
▁ишԥалшо	-9680
▁хәарҭоу	-9681
▁ҩызцәас	-9682
▁ҳамҭоуп	-9683
мадарақәа	-9684
хәышәтәра	-9685
ҳәалароуп	-9686
▁аԥҳәызба	-9687
▁диԥылеит	-9688
▁еилҳарго	-9689
▁иадырхәо	-9690
▁ихарҭәаа	-9691
▁иҟашәҵар	-9692
▁рхадацәа	-9693
▁тҟәарчал	-9694
▁ҳахәҭоуп	-9695
▁ԥҟарақәа	-9696
уадаҩрақәа	-9697
ԥырхагахар	-9698
▁ахәҭаҷқәа	-9699
▁ақәыӡбара	-9700
▁игәаҵанӡа	-9701
▁иқәгылеит	-9702
▁ҳрыцхраар	-9703
▁аевангелие	-9704
▁аиҩызаратә	-9705
▁акатегориа	-9706
▁америкатәи	-9707
▁анапаҵыҩра	-9708
▁ахақәиҭреи	-9709
▁ахәаԥшышьа	-9710
▁жәҩантәыла	-9711
▁иӷәӷәахоит	-9712
▁иԥааимбари	-9713
▁амашьынақәа	-9714
▁ахырхарҭала	-9715
▁ақьырсианра	-9716
▁гәымшәарыла	-9717
▁еиҿкаарақәеи	-9718
▁аҭҵаарадырреи	-9719
ҭтә	-9720
▁73	-9721
▁74	-9722
▁99	-9723
▁зҽ	-9724
жәыр	-9725
имыр	-9726
кьоу	-9727
тәла	-9728
ыхәо	-9729
▁ааҳ	-9730
▁зҽы	-9731
▁зҿа	-9732
▁ниу	-9733
▁оби	-9734
▁рев	-9735
▁рос	-9736
тортә	-9737
тәала	-9738
ҭҵааҩ	-9739
▁ацик	-9740
▁ақьы	-9741
▁гект	-9742
▁дави	-9743
▁дшаз	-9744
▁ихьа	-9745
▁иԥыр	-9746
▁сани	-9747
▁хәыц	-9748
▁шәыс	-9749
барҭеи	-9750
дахара	-9751
ергети	-9752
хьчеит	-9753
шәаԥшь	-9754
ҭахызи	-9755
ҭаҳҳәо	-9756
▁акәша	-9757
▁ауҭра	-9758
▁ахҟьа	-9759
▁ақәиҭ	-9760
▁далыр	-9761
▁данры	-9762
▁залшо	-9763
▁иалар	-9764
▁измаз	-9765
▁иосиа	-9766
▁леиԥш	-9767
▁медал	-9768
▁путин	-9769
▁ҳазла	-9770
▁ҳхаҭа	-9771
▁ҳхәыц	-9772
шьақәир	-9773
▁азҟаза	-9774
▁атауар	-9775
▁ашьшьы	-9776
▁ашәуаа	-9777
▁аҟьара	-9778
▁аҭауад	-9779
▁аӷәӷәа	-9780
▁бигәаа	-9781
▁иашахь	-9782
▁ииҭоит	-9783
▁иӡбара	-9784
▁какоба	-9785
▁семион	-9786
▁уназго	-9787
▁ҟарҵон	-9788
▁ҭенгиз	-9789
елегациа	-9790
лиркааит	-9791
ҟазаратә	-9792
▁агызмал	-9793
▁аилибам	-9794
▁ауасиаҭ	-9795
▁ачаԥара	-9796
▁бзазара	-9797
▁еиқәдыр	-9798
▁зҵаароу	-9799
▁ичмазаҩ	-9800
▁мызқәак	-9801
▁мышқәак	-9802
▁шьаҟрыл	-9803
▁ҳҭаацәа	-9804
зыӡырҩлар	-9805
▁афактқәа	-9806
▁аӡиасқәа	-9807
▁иабантәа	-9808
▁рыҭаразы	-9809
▁ҳхәыцшьа	-9810
▁алахәхара	-9811
▁иашаҵәҟьа	-9812
▁уазыӡырҩы	-9813
▁хылҵшьҭра	-9814
▁акалҭбааԥс	-9815
▁аррамаҵура	-9816
▁гәрахаҵара	-9817
▁рыбзиабара	-9818
▁ҳабзиабара	-9819
▁аарыцҳауеит	-9820
▁ахаҭабзиара	-9821
▁рҿырԥштәқәа	-9822
▁аперспектива	-9823
▁административтә	-9824
ля	-9825
▁~	-9826
кым	-9827
мед	-9828
род	-9829
уло	-9830
хур	-9831
чча	-9832
ыль	-9833
▁08	-9834
▁91	-9835
ирха	-9836
лакь	-9837
ццак	-9838
шәҟә	-9839
џьиа	-9840
ҟәыҭ	-9841
ҭәба	-9842
ҳәеи	-9843
▁дад	-9844
▁кап	-9845
▁рма	-9846
▁саз	-9847
жьреи	-9848
ликаа	-9849
тудиа	-9850
тәиаа	-9851
хазҵо	-9852
шәмыр	-9853
ҟароу	-9854
ҭаххо	-9855
ҳалар	-9856
▁азиз	-9857
▁аопп	-9858
▁ачыс	-9859
▁иеил	-9860
▁ирод	-9861
▁нҵәа	-9862
▁қарҭ	-9863
▁ҳшыр	-9864
илициа	-9865
лашара	-9866
цклаԥш	-9867
ӷәӷәеи	-9868
▁дагьа	-9869
▁енвер	-9870
▁иагьи	-9871
▁излеи	-9872
▁иузаа	-9873
▁михеи	-9874
▁ҳрыла	-9875
мызҭгьы	-9876
хынҳәуа	-9877
қәымшәо	-9878
▁ажәала	-9879
▁аразра	-9880
▁ацәара	-9881
▁рацәан	-9882
▁реизга	-9883
▁рзеиԥш	-9884
▁уазҵаа	-9885
▁усзуҩы	-9886
дгалатәу	-9887
ԥсахуеит	-9888
▁акорруп	-9889
▁ахьыҟам	-9890
▁аҭаразы	-9891
▁аҳкәажә	-9892
▁далгеит	-9893
▁еиҭагоу	-9894
▁мчрақәа	-9895
▁наӡааӡо	-9896
▁риҵатәи	-9897
▁рышьақә	-9898
наҳарақәа	-9899
▁адаҟьаҿы	-9900
▁дыззыԥшу	-9901
▁шрыхәҭоу	-9902
▁абызшәала	-9903
▁бызшәақәа	-9904
▁иадырхәон	-9905
▁ирацәаҩны	-9906
▁ихаҭарнак	-9907
▁шәҭахызар	-9908
▁аиқәԥаразы	-9909
▁арӷәӷәареи	-9910
▁еилаҳкаарц	-9911
▁иаҳдырбоит	-9912
▁игәабзиара	-9913
▁ихылҵшьҭра	-9914
▁мҩаԥыргеит	-9915
▁шәҽацәышәы	-9916
▁агәынамӡара	-9917
▁ақәыргылара	-9918
▁ақәыӷәӷәара	-9919
▁аԥхьаԥшьаҩы	-9920
▁реиқәырхара	-9921
▁ҳҭагылазаашьа	-9922
▁аҭҵаарадыррақәа	-9923
▁ишәзеиӷьасшьоит	-9924
шр	-9925
бри	-9926
мго	-9927
ҿеи	-9928
▁89	-9929
езон	-9930
енти	-9931
ници	-9932
ҳхуа	-9933
▁ами	-9934
▁арс	-9935
▁вер	-9936
▁гра	-9937
▁уқә	-9938
▁ԥна	-9939
балар	-9940
гылап	-9941
кульп	-9942
туеит	-9943
фильм	-9944
фымца	-9945
хьчаҩ	-9946
шьҭын	-9947
ҭазар	-9948
▁аатр	-9949
▁апла	-9950
▁гәын	-9951
▁ибеи	-9952
▁иҳад	-9953
▁ӡбоу	-9954
лыркаа	-9955
хамзар	-9956
▁актуа	-9957
▁алеко	-9958
▁алмас	-9959
▁бытие	-9960
▁иабду	-9961
▁иахьӡ	-9962
▁иибаз	-9963
▁ироуа	-9964
▁ишану	-9965
▁мзызс	-9966
▁рылшо	-9967
▁рыпро	-9968
▁форма	-9969
▁шәаны	-9970
▁ҳәаны	-9971
мақарра	-9972
сҭаацәа	-9973
шшылара	-9974
ҳәахьан	-9975
ԥшаатәу	-9976
▁иваҟәы	-9977
▁инеиуа	-9978
▁иҟаӡам	-9979
▁логәуа	-9980
▁рышкол	-9981
▁турнир	-9982
▁шьарда	-9983
▁ҭыжәба	-9984
вагыланы	-9985
каауазеи	-9986
▁акоммер	-9987
▁амитинг	-9988
▁аныҟало	-9989
▁апремиа	-9990
▁иалагаз	-9991
▁игәнаҳа	-9992
▁ирызкыз	-9993
▁ишәылшо	-9994
▁лабҿаба	-9995
▁рбызшәа	-9996
▁рыӡбеит	-9997
▁ыҟамызт	-9998
▁ҭыԥқәак	-9999
олитикатә	-10000
▁алыршара	-10001
▁ашәаҳәаҩ	-10002
▁аҭакқәеи	-10003
▁аҵәыуара	-10004
▁еилыркаа	-10005
▁ирылшоит	-10006
▁лабжьара	-10007
▁ражәақәа	-10008
▁рзинқәеи	-10009
▁рыԥшаҳәа	-10010
▁цәеижьла	-10011
еографиатә	-10012
▁аиҩызареи	-10013
▁арепатриа	-10014
▁аԥхьахәтә	-10015
▁иаԥырхага	-10016
▁имҩаԥнаго	-10017
▁иԥсадгьыл	-10018
▁никарагуа	-10019
▁аструктура	-10020
▁библиотека	-10021
▁дықәгылеит	-10022
▁еилыркааит	-10023
▁рзаанагоит	-10024
▁хәмаррақәа	-10025
▁шамахамзар	-10026
▁ааннакылеит	-10027
▁аларҵәаразы	-10028
▁рыцхыраарала	-10029
▁уаԥстәылатәи	-10030
▁ҭакԥхықәрала	-10031
▁аҽазышәарақәа	-10032
▁ахыԥхьаӡарақәа	-10033
наҳ	-10034
рил	-10035
унт	-10036
хха	-10037
▁83	-10038
▁ме	-10039
▁фы	-10040
алан	-10041
гәыш	-10042
маҷу	-10043
стер	-10044
хнак	-10045
ызма	-10046
ҭало	-10047
▁06-	-10048
▁127	-10049
▁вах	-10050
▁иур	-10051
▁рду	-10052
▁сур	-10053
▁тор	-10054
▁чыс	-10055
▁шер	-10056
▁ҿыр	-10057
арқәа	-10058
дақәа	-10059
кразы	-10060
ызгьы	-10061
▁1919	-10062
▁1989	-10063
▁арти	-10064
▁лакә	-10065
▁насы	-10066
▁пред	-10067
▁шьап	-10068
барҭоу	-10069
ниципа	-10070
уардын	-10071
хәыцуа	-10072
шьозар	-10073
ҵәареи	-10074
▁аатит	-10075
▁аԥшеи	-10076
▁донец	-10077
▁ешыра	-10078
▁иахым	-10079
▁ирцәы	-10080
▁иҳәаз	-10081
▁иԥсҭа	-10082
▁сасра	-10083
▁ҳшибо	-10084
кәкәара	-10085
ҭәалара	-10086
ӷәӷәала	-10087
▁архара	-10088
▁аҭаҭын	-10089
▁дрыцҳа	-10090
▁иатәыз	-10091
▁напыла	-10092
▁цқьаны	-10093
▁шракәу	-10094
▁ҟаиҵар	-10095
хгаҩцәеи	-10096
ӡәӡәаара	-10097
▁акаҳара	-10098
▁акласси	-10099
▁аныҟала	-10100
▁аҟынгьы	-10101
▁дазхиан	-10102
▁жәлартә	-10103
▁иаҳзыҟа	-10104
▁игылоуп	-10105
▁рыламыс	-10106
▁рыҽӡаар	-10107
▁хҭысқәа	-10108
зымдыруаз	-10109
▁амобилтә	-10110
▁аҿарацәа	-10111
▁занашьоу	-10112
▁шҳахәҭоу	-10113
▁шәшьуеит	-10114
▁џьанаҭны	-10115
▁ҟамҵакәа	-10116
▁амҩадуқәа	-10117
▁ашәаҳәара	-10118
▁еилаҳкаар	-10119
▁иахылҿиаа	-10120
▁ирыдиҵеит	-10121
▁ргәырҽани	-10122
▁ҭаацәарак	-10123
▁апионерцәа	-10124
▁ацхыраагӡа	-10125
▁ркультуреи	-10126
▁русумҭақәа	-10127
▁агәышьҭыхра	-10128
▁еиднакылоит	-10129
▁иааидкыланы	-10130
▁исгәалашәоит	-10131
▁ишьақәгылоуп	-10132
▁шхымԥадатәиу	-10133
шьақәыргылареи	-10134
▁еилышәкаауеит	-10135
▁игәаԥхашәадоу	-10136
▁ишыҟазаалакгьы	-10137
цаҩ	-10138
ҷҷа	-10139
▁78	-10140
▁ҳу	-10141
анал	-10142
рҭаз	-10143
танг	-10144
урҵо	-10145
қьаҭ	-10146
ҳмыр	-10147
ӷьыч	-10148
▁190	-10149
▁гог	-10150
▁мал	-10151
▁мац	-10152
▁ҟау	-10153
икцәа	-10154
хкқәа	-10155
хәаны	-10156
ҟоума	-10157
ҩуеит	-10158
ҵыкәа	-10159
▁абан	-10160
▁аица	-10161
▁арев	-10162
▁иама	-10163
▁ибар	-10164
▁иорк	-10165
▁шәаб	-10166
инград	-10167
рақәеи	-10168
қәызҵо	-10169
қәыӡба	-10170
▁аарон	-10171
▁абокс	-10172
▁амҩан	-10173
▁ахьтә	-10174
▁еилоу	-10175
▁зманы	-10176
▁зхала	-10177
▁иарба	-10178
▁иаҳза	-10179
▁илбаа	-10180
▁иџьар	-10181
▁иҳәаа	-10182
▁темур	-10183
▁усгьы	-10184
ҭаауеит	-10185
▁аиҭеит	-10186
▁акомму	-10187
▁ампыҵа	-10188
▁англиа	-10189
▁астенд	-10190
▁дамоуп	-10191
▁еилаки	-10192
▁илшеит	-10193
▁ирҭаху	-10194
▁наӡала	-10195
▁рықәыр	-10196
▁сторож	-10197
▁шҳамоу	-10198
▁џьапуа	-10199
хеибакра	-10200
▁аанкыла	-10201
▁азинмчы	-10202
▁ацәеила	-10203
▁ашьыцра	-10204
▁аӡырҩра	-10205
▁зыхҟьаз	-10206
▁иазалху	-10207
▁излаҳәо	-10208
▁имазара	-10209
▁иреиуаз	-10210
▁рыбжьар	-10211
▁шьақәир	-10212
арԥшлатәу	-10213
▁абжьысра	-10214
▁адоуҳала	-10215
▁аҭеиҭыԥш	-10216
▁иисусгьы	-10217
▁иуасақәа	-10218
▁иусуратә	-10219
▁иҵабыргу	-10220
▁наукақәа	-10221
▁руалԥшьа	-10222
▁рыҿиареи	-10223
▁ацәқәырԥа	-10224
▁иаанагома	-10225
▁иуцхраауа	-10226
▁коллектив	-10227
▁сосналиев	-10228
▁ахәылбыҽха	-10229
▁ахәышәтәра	-10230
▁иузааигәоу	-10231
▁иҽазишәоит	-10232
▁рфедерациа	-10233
▁аиҭанеиразы	-10234
▁ирыбжьарҵаз	-10235
▁рнаԥхгаҩцәа	-10236
▁агәырӷьаратә	-10237
▁изаамҭанытәу	-10238
▁раԥхьаӡакәны	-10239
▁алахьеиқәҵара	-10240
▁реизыҟазаашьа	-10241
дры	-10242
ежь	-10243
зза	-10244
хак	-10245
цед	-10246
џьи	-10247
▁ку	-10248
▁тв	-10249
есто	-10250
жәбо	-10251
кату	-10252
кого	-10253
хәым	-10254
▁амҷ	-10255
▁бӷа	-10256
▁еим	-10257
▁лав	-10258
▁хыҵ	-10259
▁ҳад	-10260
еиԥшу	-10261
жьуам	-10262
зыман	-10263
тәреи	-10264
хазар	-10265
ҭцәоу	-10266
ҳалак	-10267
▁адек	-10268
▁алаб	-10269
▁аӷьа	-10270
▁иаса	-10271
▁изых	-10272
▁иком	-10273
▁ицон	-10274
▁осиа	-10275
▁ҳрыз	-10276
генциа	-10277
зеиҭеи	-10278
хынҳәы	-10279
ҵахьаз	-10280
▁азгьы	-10281
▁аихыр	-10282
▁акарт	-10283
▁алзыр	-10284
▁аџьба	-10285
▁ибаҟа	-10286
▁ироль	-10287
▁ихьаа	-10288
▁ишибо	-10289
▁риҭон	-10290
▁рықәы	-10291
▁хаҵак	-10292
▁ҳәоуп	-10293
лаҳкааз	-10294
хыркәша	-10295
▁аныҟәа	-10296
▁арацәа	-10297
▁ахҩара	-10298
▁ацаҟьа	-10299
▁аҭыҵра	-10300
▁даҟәыҵ	-10301
▁зҳарҵо	-10302
▁иалхра	-10303
▁ианакә	-10304
▁ишҳәаз	-10305
усҭцәада	-10306
▁ахсаала	-10307
▁аҭахӡам	-10308
▁иацҵаны	-10309
▁иаԥырха	-10310
▁иҟарҵар	-10311
ӷьаишьеит	-10312
▁аларҟәра	-10313
▁аҿаҳәара	-10314
▁аԥсылман	-10315
▁усзуҩцәа	-10316
▁чачхалиа	-10317
▁ҳдоуҳатә	-10318
▁ԥыхьатәи	-10319
▁актиорцәа	-10320
▁амамзаара	-10321
▁ашьҭаҵара	-10322
▁аҵыхәанӡа	-10323
▁шыҟаҵатәу	-10324
▁ааникылеит	-10325
▁иганахьала	-10326
▁агәырҭынчра	-10327
▁аԥхьагылара	-10328
▁еиқәыршәоуп	-10329
▁игәалашәоит	-10330
▁иаартыҵәҟьаны	-10331
▁илахьеиқәҵагоуп	-10332
мыг	-10333
ҭаҩ	-10334
▁92	-10335
баша	-10336
нала	-10337
неиз	-10338
олик	-10339
пкра	-10340
ххаа	-10341
члиа	-10342
ҵало	-10343
ԥшьы	-10344
▁дих	-10345
▁сза	-10346
▁сыш	-10347
▁тәа	-10348
андаз	-10349
ерцәа	-10350
ибоит	-10351
тәоуп	-10352
ҽаныз	-10353
▁аҵеи	-10354
▁иери	-10355
▁ицеи	-10356
▁маан	-10357
▁наур	-10358
▁ршәа	-10359
▁шәиа	-10360
мызгьы	-10361
ырхара	-10362
ҭәашьа	-10363
▁акылы	-10364
▁амина	-10365
▁ассир	-10366
▁бӷьыц	-10367
▁еибыр	-10368
▁зымуа	-10369
▁иоиль	-10370
▁ихәым	-10371
▁рзура	-10372
▁рыкәа	-10373
▁сааҭк	-10374
▁сыԥсы	-10375
▁улаԥш	-10376
▁феида	-10377
▁шәықә	-10378
▁ҳалал	-10379
еишьеит	-10380
циақәеи	-10381
ҳәалара	-10382
ӷәӷәаны	-10383
▁анагӡа	-10384
▁аҳәынҭ	-10385
▁аԥхара	-10386
▁дышреи	-10387
▁италиа	-10388
▁шьҭаҵа	-10389
▁ҭанаҵы	-10390
итациатә	-10391
культура	-10392
кьаҭмпыл	-10393
ҟаҵаратә	-10394
▁амҩаԥыс	-10395
▁армаҷра	-10396
▁атрагед	-10397
▁ацәгьар	-10398
▁аҭахума	-10399
▁вахтанг	-10400
▁захәҭоу	-10401
▁иақәшәа	-10402
▁изинқәа	-10403
▁рмазара	-10404
▁руаӡәык	-10405
▁узаазго	-10406
▁шәазҵаа	-10407
ҭынхацәеи	-10408
▁абжьгара	-10409
▁аилаӡара	-10410
▁амилициа	-10411
▁анапаҵаҩ	-10412
▁асценаҿы	-10413
▁ачемпион	-10414
▁ақәшаҳаҭ	-10415
▁аԥыжәара	-10416
▁еиқәаҵәа	-10417
▁иабжьгаҩ	-10418
▁иациҵоит	-10419
▁ирылшома	-10420
▁кобахьиа	-10421
▁хеидкыла	-10422
▁абжьааԥны	-10423
▁ахадарахь	-10424
▁ацыԥҵәаха	-10425
▁аԥхьаӡара	-10426
▁еизҳауеит	-10427
▁ишыҟоугьы	-10428
▁иҩызахара	-10429
▁рконгресс	-10430
▁аекологиеи	-10431
▁афотосахьа	-10432
▁ахәаԥшразы	-10433
▁ашәахтәқәа	-10434
▁аҳасабырба	-10435
▁вавилонтәи	-10436
▁традициала	-10437
▁аделегатцәа	-10438
▁аекспозициа	-10439
▁наунагӡатәи	-10440
▁ааҳарԥшуазар	-10441
▁агәрахаҵареи	-10442
▁азинхьчаратә	-10443
▁қырҭтәылатәи	-10444
▁ишәыцхраауеит	-10445
▁иорганизациаҿы	-10446
▁игәымбылџьбароу	-10447
аа	-10448
бил	-10449
лоп	-10450
▁84	-10451
гома	-10452
зықә	-10453
изит	-10454
казы	-10455
кьра	-10456
олиа	-10457
рҭеи	-10458
ство	-10459
таӷь	-10460
хгаҩ	-10461
хқәа	-10462
царц	-10463
ҟьар	-10464
ҵаҿы	-10465
▁аир	-10466
▁аоб	-10467
▁диз	-10468
▁иаҩ	-10469
▁син	-10470
▁уро	-10471
▁шар	-10472
▁ҭра	-10473
дырҵо	-10474
дҵара	-10475
ижьуа	-10476
овича	-10477
паган	-10478
скаиа	-10479
фавит	-10480
шьарц	-10481
ҿыцра	-10482
ԥашьа	-10483
ԥхьоз	-10484
▁18.1	-10485
▁2002	-10486
▁азаа	-10487
▁амҿы	-10488
▁араа	-10489
▁дыжә	-10490
▁рзым	-10491
▁таиф	-10492
▁уаан	-10493
▁хаҳә	-10494
▁ҳаур	-10495
ектура	-10496
заҵәык	-10497
цедура	-10498
ԥсаара	-10499
▁аизга	-10500
▁аиқәа	-10501
▁алахь	-10502
▁алиас	-10503
▁алиса	-10504
▁ацхра	-10505
▁гәыла	-10506
▁еилыз	-10507
▁иамеи	-10508
▁иназы	-10509
▁инхон	-10510
▁иҳәар	-10511
▁калмы	-10512
▁сҽазы	-10513
▁уаҩны	-10514
▁шьҭар	-10515
▁ҳасан	-10516
лкаатәу	-10517
неиуеит	-10518
цәырҵыр	-10519
▁аагоуп	-10520
▁адҵара	-10521
▁акагьы	-10522
▁афинал	-10523
▁ақьабз	-10524
▁имаҭәа	-10525
▁ишьоит	-10526
▁иқәдыр	-10527
▁нхамҩа	-10528
гәаладыр	-10529
рыцқьара	-10530
хьчаларц	-10531
ционертә	-10532
▁авраами	-10533
▁ахәымга	-10534
▁еиҿкааз	-10535
▁зхыҵуаз	-10536
▁иаҳәара	-10537
▁техника	-10538
гәырӷьеит	-10539
цәажәареи	-10540
ҵахырхәоз	-10541
▁данԥслак	-10542
▁иархәала	-10543
▁иҳәахьан	-10544
▁адыргақәа	-10545
▁аҳаракыра	-10546
▁аҽаԥсахит	-10547
▁иааԥхьара	-10548
▁иқьырсиан	-10549
▁проектқәа	-10550
▁аамҭалатәи	-10551
▁адышшылара	-10552
▁азыҟарҵоит	-10553
▁аизырҳареи	-10554
▁аиҿагылара	-10555
▁акоррупциа	-10556
▁аргыларазы	-10557
▁аусзуҩцәеи	-10558
▁ахахәылхреи	-10559
▁инықәырԥшны	-10560
▁рминистрреи	-10561
▁ҳагәнаҳақәа	-10562
▁аконгрессқәа	-10563
▁дазааҭгылеит	-10564
19	-10565
жет	-10566
лиз	-10567
тин	-10568
фор	-10569
цеп	-10570
илат	-10571
итәы	-10572
кәеи	-10573
лшар	-10574
цызт	-10575
ҭран	-10576
ҽхәо	-10577
ԥары	-10578
▁ахш	-10579
▁ека	-10580
▁екз	-10581
▁мон	-10582
▁шәш	-10583
▁ҟьа	-10584
иаԥҳа	-10585
лтәым	-10586
мақәа	-10587
сырԥш	-10588
ылоит	-10589
ҟҟара	-10590
▁2004	-10591
▁анын	-10592
▁арез	-10593
▁гәра	-10594
▁дума	-10595
▁икәа	-10596
▁рылҵ	-10597
▁хьыӡ	-10598
анӡааи	-10599
блаара	-10600
дыԥхьа	-10601
зыразу	-10602
урԥшыр	-10603
цәаара	-10604
ҳараку	-10605
ԥшаарц	-10606
▁азуны	-10607
▁асаба	-10608
▁еицәа	-10609
▁зхатә	-10610
▁иаҿын	-10611
▁илаԥш	-10612
▁иухоу	-10613
▁ихазы	-10614
▁ишына	-10615
▁ишықә	-10616
▁иҳауз	-10617
▁иҳәоу	-10618
▁назар	-10619
▁ҩызас	-10620
мҭақәеи	-10621
тәымкәа	-10622
хәаларц	-10623
▁аиндаҭ	-10624
▁амаӡам	-10625
▁амҳәыр	-10626
▁атәара	-10627
▁ахҵара	-10628
▁ахәаҷа	-10629
▁аҩнтәи	-10630
▁гогәуа	-10631
▁далхын	-10632
▁зныкыр	-10633
▁ихацыр	-10634
▁иԥшӡоу	-10635
▁ларгьы	-10636
▁медвед	-10637
▁ԥхақәа	-10638
скьагара	-10639
▁аиҿкааҩ	-10640
▁амлакра	-10641
▁анџьныр	-10642
▁ашьхаҿы	-10643
▁иааџьоу	-10644
▁муҳадин	-10645
▁шааирԥш	-10646
зеиҭаҳҳәо	-10647
▁аарԥшреи	-10648
▁алаԥшхыр	-10649
▁анапынҵа	-10650
▁ахыччара	-10651
▁даанхеит	-10652
▁иқәгылоу	-10653
▁мацарала	-10654
еллигенциа	-10655
▁аенергети	-10656
▁заанаҵтәи	-10657
▁иакәымкәа	-10658
▁ринститут	-10659
▁техникатә	-10660
▁цәгьашақә	-10661
▁ҭаҭарсҭан	-10662
▁ирықәшәоит	-10663
▁ихәыцрақәа	-10664
▁мҩаԥнагеит	-10665
▁аинтересқәа	-10666
▁акурортқәеи	-10667
▁еицырдыруаз	-10668
▁ранашьахеит	-10669
▁агәаҳәарақәа	-10670
▁ареспубликеи	-10671
▁лыгәрахаҵара	-10672
▁еилаҳкаауазеи	-10673
▁ҭҵаарадыррақәа	-10674
ктә	-10675
лба	-10676
охә	-10677
тыр	-10678
уҵо	-10679
хыл	-10680
ҭба	-10681
▁ле	-10682
▁эк	-10683
ваши	-10684
диум	-10685
исти	-10686
мҭан	-10687
нҭыҵ	-10688
ские	-10689
фера	-10690
ҟьоу	-10691
ӡахы	-10692
▁каз	-10693
▁лыз	-10694
▁угә	-10695
▁шен	-10696
▁ҭыз	-10697
▁ҳца	-10698
хьчаз	-10699
цаара	-10700
ҟәымҭ	-10701
ҭазҵо	-10702
▁адыд	-10703
▁апри	-10704
▁ашыц	-10705
▁аԥеи	-10706
▁дрыд	-10707
▁наль	-10708
▁рауф	-10709
▁тонн	-10710
▁узеи	-10711
▁шәза	-10712
иааиуа	-10713
наҵеит	-10714
цәыӡыр	-10715
ҟарҵаз	-10716
▁иоурц	-10717
▁ишьра	-10718
▁мызкы	-10719
▁рашәа	-10720
▁роума	-10721
▁уахык	-10722
▁шьыжь	-10723
▁ҳаныр	-10724
ргылара	-10725
шьҭыхны	-10726
ԥсаанӡа	-10727
ԥхьаӡаз	-10728
▁аиудеи	-10729
▁анҭала	-10730
▁архәҭа	-10731
▁ахьааи	-10732
▁ашәары	-10733
▁аџьыка	-10734
▁гектар	-10735
▁давиди	-10736
▁иашьҭа	-10737
▁иаҳзыр	-10738
▁леиӡом	-10739
▁хазына	-10740
▁хьиуит	-10741
▁агаразы	-10742
▁адунеии	-10743
▁акәшара	-10744
▁алаҟәра	-10745
▁апоезиа	-10746
▁ацәгара	-10747
▁еиқәҳар	-10748
▁зықәшәо	-10749
▁иаҭаауа	-10750
▁иԥшаара	-10751
▁рызцәыр	-10752
▁школқәа	-10753
▁ҳаиҭарц	-10754
▁ҳцәеижь	-10755
еиԥшымзеи	-10756
зыӡырҩуаз	-10757
▁акапантә	-10758
▁аныҟаҳҵо	-10759
▁афымцамч	-10760
▁бжьаратә	-10761
▁ибжьаӡыз	-10762
▁ииҭахызи	-10763
▁ишабалак	-10764
▁ишԥаулшо	-10765
▁раахәара	-10766
▁рымамызт	-10767
▁шԥамҩаԥи	-10768
▁ҳхәыҷқәа	-10769
▁адоуҳақәа	-10770
▁еибыҳәаны	-10771
▁иазырхоуп	-10772
▁игәҭакқәа	-10773
▁ирымоузеи	-10774
▁ицхырааҩу	-10775
▁ранашьара	-10776
ҭныԥсахлара	-10777
ҵахырхәареи	-10778
▁ажурналқәа	-10779
▁аҷыдарақәа	-10780
▁аԥҳәысеиба	-10781
▁гәахәарала	-10782
▁иабантәиаа	-10783
▁изаҭахузеи	-10784
▁маҵзурақәа	-10785
▁ргәабзиара	-10786
▁абиблиотека	-10787
▁аспециалист	-10788
▁аҽыҵәахырҭа	-10789
▁реихшьаалақәа	-10790
еим	-10791
иуа	-10792
усс	-10793
цыц	-10794
ҵбы	-10795
жәеи	-10796
инеи	-10797
мала	-10798
ныри	-10799
треҭ	-10800
тәыр	-10801
шьам	-10802
ӷьыр	-10803
▁110	-10804
▁дис	-10805
▁дка	-10806
▁ист	-10807
▁рез	-10808
▁рԥа	-10809
▁уца	-10810
▁ҳаҳ	-10811
▁ҳҭа	-10812
▁ӡыр	-10813
гылеи	-10814
капан	-10815
ҩылаа	-10816
ԥхьыт	-10817
▁1941	-10818
▁амех	-10819
▁дҵас	-10820
▁егры	-10821
▁игон	-10822
▁имам	-10823
▁иҭыр	-10824
▁лыла	-10825
▁млрд	-10826
▁рзыр	-10827
▁уҟаз	-10828
▁ҳаил	-10829
бараны	-10830
гәыбзы	-10831
зарыла	-10832
мамызт	-10833
ныруеи	-10834
озитор	-10835
хантәа	-10836
хурсҭа	-10837
ҭаларц	-10838
ҵаалар	-10839
ԥхьаны	-10840
ԥшратә	-10841
▁аконс	-10842
▁аҵатә	-10843
▁жәытә	-10844
▁зинтә	-10845
▁ишаны	-10846
▁унапы	-10847
▁ҳгоит	-10848
гылозар	-10849
дыркыло	-10850
ҟьашьра	-10851
ҭаххеит	-10852
ҳарԥшыр	-10853
▁алазыр	-10854
▁амҩаҿы	-10855
▁аҽыбӷа	-10856
▁аԥацәа	-10857
▁дашьҭа	-10858
▁жәлари	-10859
▁ииасыз	-10860
▁иракли	-10861
▁иҳамҭа	-10862
▁ринтер	-10863
▁ыҟазар	-10864
дырхәырц	-10865
шәашәара	-10866
қәыӡбоит	-10867
▁еиқәнар	-10868
▁исҭахуп	-10869
▁ишԥаныр	-10870
▁иҳаилир	-10871
▁шыҟаиҵо	-10872
▁ҳалагар	-10873
ныҟәаларц	-10874
▁аныхабаа	-10875
▁ахәбатәи	-10876
▁аԥарақәа	-10877
▁аԥхынтәи	-10878
▁дазхиоуп	-10879
▁здызкыло	-10880
▁зрыхәҭоу	-10881
▁ихаҭагьы	-10882
▁ицхраауа	-10883
▁иҽанӡааи	-10884
▁наигӡоит	-10885
▁хақәиҭра	-10886
▁хынҩажәа	-10887
зыҳәарақәа	-10888
▁абриаҟара	-10889
▁зеиԥшрахо	-10890
▁иаҳархәар	-10891
▁ихадоузеи	-10892
▁лҿырԥштәы	-10893
▁рнапхгара	-10894
▁русзуҩцәа	-10895
▁темурович	-10896
▁тәылақәак	-10897
▁ҵараиурҭа	-10898
▁абекәынреи	-10899
▁адырраҭара	-10900
▁азгәарҭеит	-10901
▁аиаҳәшьцәа	-10902
▁атехникатә	-10903
▁бжьаратәла	-10904
▁иаднакылаз	-10905
▁шьҭнахуеит	-10906
▁ҟазшьақәоу	-10907
▁ԥсхҭынҵара	-10908
▁аилазаараҿы	-10909
▁акомандақәа	-10910
▁зхыԥхьаӡара	-10911
▁ҿырԥштәқәак	-10912
▁ишьақәиргылаз	-10913
▁ауаажәларратәи	-10914
ыӷ	-10915
ные	-10916
ред	-10917
соу	-10918
сыс	-10919
▁98	-10920
▁ҷк	-10921
ание	-10922
арыц	-10923
вара	-10924
вари	-10925
евая	-10926
нгьы	-10927
хзар	-10928
шьҭу	-10929
шқәа	-10930
▁16.	-10931
▁аси	-10932
▁аҩӡ	-10933
▁реж	-10934
▁уша	-10935
▁ԥыз	-10936
бозеи	-10937
гӡарц	-10938
ныруа	-10939
ондон	-10940
тлара	-10941
ҟьоит	-10942
▁1994	-10943
▁2007	-10944
▁азыз	-10945
▁аимы	-10946
▁амод	-10947
▁аори	-10948
▁ареа	-10949
▁асиа	-10950
▁аҿыр	-10951
▁бзыԥ	-10952
▁зхьы	-10953
▁иаԥу	-10954
▁изын	-10955
▁ипро	-10956
▁леир	-10957
▁софа	-10958
▁умҩа	-10959
▁шшәы	-10960
бабара	-10961
вашиӡе	-10962
зыршәо	-10963
хазгьы	-10964
ҟарҵоз	-10965
ҳҳәоит	-10966
ҵаауан	-10967
ҵлақәа	-10968
▁акәац	-10969
▁аргәа	-10970
▁аршра	-10971
▁арҵәы	-10972
▁атәра	-10973
▁ахәда	-10974
▁ашана	-10975
▁аԥшьы	-10976
▁диана	-10977
▁дхәыц	-10978
▁ефрем	-10979
▁иазыз	-10980
▁илахь	-10981
▁ирина	-10982
▁лыхьӡ	-10983
▁пилат	-10984
▁рхьаа	-10985
▁саида	-10986
▁шыҟаз	-10987
▁ҳаҩны	-10988
▁ӡбара	-10989
▁ԥшьым	-10990
зышьҭыз	-10991
лкаауам	-10992
џьгәара	-10993
ҵазкуаз	-10994
▁арҭоит	-10995
▁арҽхәа	-10996
▁ахаара	-10997
▁ахаԥыц	-10998
▁журнал	-10999
▁иалоуп	-11000
▁иауриа	-11001
▁ирылеи	-11002
▁султан	-11003
▁фараон	-11004
▁хақәиҭ	-11005
▁шакәыз	-11006
▁ҳаԥхьа	-11007
цәажәарц	-11008
шәырԥшуа	-11009
ҭабзиара	-11010
ҭҵааратә	-11011
ԥырхагам	-11012
▁агәҭаны	-11013
▁адунеиа	-11014
▁адәахьы	-11015
▁аиҿырԥш	-11016
▁аҟәыҵра	-11017
▁аҵаратә	-11018
▁гәыԥқәа	-11019
▁иарбоуп	-11020
▁иаҳҭаху	-11021
▁имамызт	-11022
▁хыркәшо	-11023
▁шкәакәа	-11024
▁абиблиеи	-11025
▁аиааиреи	-11026
▁акәырбан	-11027
▁анашьара	-11028
▁аҳаскьын	-11029
▁иаҳауеит	-11030
▁иаҳзыԥшу	-11031
▁иҟаиҵоит	-11032
▁раԥхьаҟа	-11033
▁ашаҳаҭцәа	-11034
▁ақәыԥсара	-11035
▁аҷкәынцәа	-11036
▁аԥхашьара	-11037
▁венесуела	-11038
▁даныхынҳә	-11039
▁еибашьуаз	-11040
▁шервашиӡе	-11041
гәалашәозар	-11042
гәырӷьаларц	-11043
▁ихәаԥшышьа	-11044
▁миллионҩык	-11045
▁пицундатәи	-11046
▁рынагӡареи	-11047
▁ҳазылхратә	-11048
▁ажәытәӡатәи	-11049
▁шрыдгалатәу	-11050
▁иааҳарԥшуеит	-11051
▁ашәарҭадаратә	-11052
▁ставропольтәи	-11053
▁агәрыцҳашьареи	-11054
▁рҭаацәалазаара	-11055
ҩо	-11056
ҷҷ	-11057
▁04	-11058
▁9.	-11059
▁ыр	-11060
иров	-11061
рыжь	-11062
уоуп	-11063
ҭахо	-11064
ҭаша	-11065
ҿтәи	-11066
▁дҩа	-11067
▁иас	-11068
▁иау	-11069
▁иим	-11070
▁имы	-11071
▁лҽа	-11072
▁ҳҟа	-11073
бақәа	-11074
дуцәа	-11075
колог	-11076
хианы	-11077
▁агьы	-11078
▁атри	-11079
▁ацры	-11080
▁ашра	-11081
▁ашьҭ	-11082
▁злар	-11083
▁кака	-11084
▁ҟаза	-11085
▁ҩымш	-11086
рыжьыз	-11087
қәырха	-11088
ҵахьоу	-11089
▁аетно	-11090
▁аныры	-11091
▁ахьӡи	-11092
▁жәеин	-11093
▁зегьи	-11094
▁иаҳзы	-11095
▁идгал	-11096
▁иныҟә	-11097
▁олимп	-11098
▁опера	-11099
гахьеит	-11100
гәаҭара	-11101
дикылаз	-11102
▁аныҟоу	-11103
▁аорӷан	-11104
▁аргама	-11105
▁асемин	-11106
▁еизеит	-11107
▁ҳхатәы	-11108
блемақәа	-11109
цхраалар	-11110
цәажәала	-11111
▁алахәҩы	-11112
▁алфавит	-11113
▁атуризм	-11114
▁дыҟазар	-11115
▁дҭалоит	-11116
▁еилкаам	-11117
▁иаирхәо	-11118
▁иапониа	-11119
▁ионафан	-11120
▁иҭахӡам	-11121
▁машьына	-11122
▁моисеии	-11123
▁нагозеи	-11124
▁ниневиа	-11125
▁рҟазшьа	-11126
▁қьырала	-11127
▁ҟаҵазар	-11128
▁актуалра	-11129
▁амиссион	-11130
▁ареформа	-11131
▁асасцәеи	-11132
▁аҳәынҵәа	-11133
▁аҵарақәа	-11134
▁гәыҩбара	-11135
▁дыррақәа	-11136
▁дыҟамызт	-11137
▁инарыгӡо	-11138
▁интернат	-11139
▁медведев	-11140
▁нҵәаанӡа	-11141
▁ргәаҭара	-11142
▁рықәгара	-11143
▁центрқәа	-11144
▁ҿырҳәала	-11145
▁агәашәқәа	-11146
▁анормақәа	-11147
▁ахәымгара	-11148
▁аԥснынтәи	-11149
▁иубаратәы	-11150
▁рыҟазаара	-11151
▁рыӡбаразы	-11152
ординациатә	-11153
▁аибашьраан	-11154
▁атәылақәеи	-11155
▁зыԥсадгьыл	-11156
▁ԥшьышықәса	-11157
▁анапхгаҩцәа	-11158
▁архитектура	-11159
▁имҩаԥыслоит	-11160
▁ҭҟәарчалтәи	-11161
▁арепатриациа	-11162
▁ахеиқәырхара	-11163
▁дарбанызаалак	-11164
▁ҭагылазаашьак	-11165
▁агәазыҳәарақәа	-11166
ох	-11167
быж	-11168
ико	-11169
лог	-11170
наи	-11171
рет	-11172
рыр	-11173
фик	-11174
▁кв	-11175
▁ҳд	-11176
бгоу	-11177
бина	-11178
илеҭ	-11179
кака	-11180
кова	-11181
лдыр	-11182
мгьы	-11183
цәны	-11184
шьак	-11185
▁есф	-11186
▁имц	-11187
▁нис	-11188
▁ҳши	-11189
артра	-11190
гӡоуп	-11191
жәеит	-11192
ушкин	-11193
шәыжь	-11194
ҭыхра	-11195
ҵатәы	-11196
▁2001	-11197
▁агри	-11198
▁азҭо	-11199
▁аӡиа	-11200
▁брит	-11201
▁евра	-11202
▁еицы	-11203
▁имыр	-11204
▁роль	-11205
▁уаны	-11206
▁қьар	-11207
▁ӡыла	-11208
гахьан	-11209
куазар	-11210
тәхоит	-11211
харзза	-11212
чҳареи	-11213
ынхало	-11214
ҭынчым	-11215
ҳалоит	-11216
ԥшьоуп	-11217
▁ахьан	-11218
▁аӷәра	-11219
▁жәохә	-11220
▁иаман	-11221
▁ирзыр	-11222
▁лыԥсы	-11223
▁рбаҟа	-11224
▁рышҟа	-11225
▁сыҟан	-11226
▁умшәа	-11227
▁хацыр	-11228
▁ҟаҵан	-11229
гәаҟуаз	-11230
ҳәазаны	-11231
▁азхәыц	-11232
▁аиԥшым	-11233
▁асаара	-11234
▁ақәыԥш	-11235
▁аԥынҵа	-11236
▁деилыр	-11237
▁иалкаа	-11238
▁иргәаԥ	-11239
▁иуԥыло	-11240
▁иҟнытә	-11241
▁иҭахыз	-11242
▁иҭынчу	-11243
▁сҽазыс	-11244
грациатә	-11245
лаҳкаауа	-11246
▁агәҭакы	-11247
▁ахылҿиа	-11248
▁ахәаахә	-11249
▁ашәҭқәа	-11250
▁ақәлара	-11251
▁диҳәоит	-11252
▁знапаҿы	-11253
▁иаартыз	-11254
▁иаҳнаҭо	-11255
▁ибааԥсу	-11256
▁ирзеиҭа	-11257
▁ихарҭәа	-11258
▁маршьан	-11259
▁рхылаԥш	-11260
▁рыҟнытә	-11261
▁сашьцәа	-11262
гәалашәыр	-11263
ниципалтә	-11264
▁аикәарҳә	-11265
▁ачымазаҩ	-11266
▁ашәаразы	-11267
▁аԥҵаразы	-11268
▁зегьирха	-11269
▁иаҳдыруа	-11270
▁ирзеиҭар	-11271
▁ихынҳәыз	-11272
▁иҳамазар	-11273
▁рықәҵара	-11274
▁хаҭарнак	-11275
▁ҳанаԥхьо	-11276
коллегацәа	-11277
▁алагаанӡа	-11278
▁анагӡареи	-11279
▁архәашара	-11280
▁арҵаҩратә	-11281
▁ацәаакыра	-11282
▁аҩыџьагьы	-11283
▁дшырзыҟоу	-11284
▁еиликаарц	-11285
▁иааигәаны	-11286
▁иақәшаҳаҭ	-11287
▁иақәшәоит	-11288
▁иҭахрақәа	-11289
▁километра	-11290
▁мҩаԥысуан	-11291
▁нарцәытәи	-11292
▁ргәаҵанӡа	-11293
▁цхыраагӡа	-11294
цәыцәгьазар	-11295
▁анцәахәқәа	-11296
▁ашьҭазаара	-11297
▁аизырҳаразы	-11298
▁акоммуналтә	-11299
▁атехнологиа	-11300
▁хылаԥшыҩцәа	-11301
▁икандидатура	-11302
▁ажәабжьҳәареи	-11303
▁ацәыргақәҵатә	-11304
▁ргәаанагарала	-11305
▁рҽырцәыхьчара	-11306
▁азакәанԥҵаратә	-11307
иц	-11308
лт	-11309
его	-11310
лыс	-11311
пеи	-11312
тол	-11313
шом	-11314
▁бе	-11315
▁ҟә	-11316
арак	-11317
аӡаҩ	-11318
гени	-11319
гьын	-11320
етта	-11321
иҭоз	-11322
кәра	-11323
мҵуа	-11324
цало	-11325
чқәа	-11326
шрут	-11327
ҭәоу	-11328
▁102	-11329
▁109	-11330
▁139	-11331
▁400	-11332
▁быз	-11333
▁газ	-11334
▁гол	-11335
▁дел	-11336
▁кры	-11337
▁моа	-11338
▁сте	-11339
▁удм	-11340
▁џьы	-11341
зырхо	-11342
игоит	-11343
рҭеит	-11344
хәыра	-11345
▁арҵа	-11346
▁ахаа	-11347
▁дахы	-11348
▁згым	-11349
▁изыл	-11350
▁лоуп	-11351
▁лцәа	-11352
▁мала	-11353
▁рмоу	-11354
▁убыс	-11355
▁унар	-11356
▁шԥар	-11357
гахьоу	-11358
дырхәо	-11359
ентцәа	-11360
неиуаз	-11361
хҟьара	-11362
ҟрақәа	-11363
ҳәшьеи	-11364
▁анкьа	-11365
▁аԥсыҽ	-11366
▁аԥсыԥ	-11367
▁башня	-11368
▁гәҽан	-11369
▁даҟьа	-11370
▁ешԥҳа	-11371
▁иазеи	-11372
▁иахәо	-11373
▁мзызк	-11374
▁нисан	-11375
▁рпоет	-11376
▁уилиа	-11377
цәажәан	-11378
▁азыҳәа	-11379
▁аказак	-11380
▁амикро	-11381
▁аркьаҿ	-11382
▁ацаԥха	-11383
▁далхуп	-11384
▁дызмоу	-11385
▁иашоуп	-11386
▁изыҟоу	-11387
▁ипресс	-11388
▁ҭраԥшь	-11389
▁ҳзырбо	-11390
рацәажәо	-11391
қәҵахоит	-11392
▁авидеор	-11393
▁автоном	-11394
▁акаҭран	-11395
▁аманшәа	-11396
▁анаҭоит	-11397
▁еиқәшәа	-11398
▁еиԥшӡам	-11399
▁иазоужь	-11400
▁иахәҭам	-11401
▁иерихон	-11402
▁ирзыԥшу	-11403
▁иусқәеи	-11404
▁рзеиҭеи	-11405
▁агәыӷреи	-11406
▁аеҵәақәа	-11407
▁арҵаразы	-11408
▁ақәаршҩы	-11409
▁аҟәшақәа	-11410
▁аҭааҩцәа	-11411
▁ганрацәа	-11412
▁рыуацәеи	-11413
▁ҟазарыла	-11414
▁ҟаҳҵозар	-11415
▁ҳазыԥшуп	-11416
▁ҳтәылаҿы	-11417
гәалашәара	-11418
▁агәкаҳара	-11419
▁атрадициа	-11420
▁делегациа	-11421
▁игәаҳәара	-11422
▁иеговагьы	-11423
▁ирҿиаратә	-11424
▁итрадициа	-11425
▁иубарҭоуп	-11426
гәырӷьалоит	-11427
▁акәашаратә	-11428
▁амаҭәашьар	-11429
▁еиқәыршәоу	-11430
▁рышьҭаҵара	-11431
▁сторожевая	-11432
▁агәаҭарақәа	-11433
▁асахьаҭыхыҩ	-11434
▁ацәгьауразы	-11435
▁дахцәажәеит	-11436
▁иԥсҭазаареи	-11437
▁амҵақьақьара	-11438
▁апатуқәҵареи	-11439
▁изеиҭеиҳәеит	-11440
▁аиашахаҵаратә	-11441
▁ачымазарақәеи	-11442
▁рхаҭарнакцәеи	-11443
▁атәылауаҩшәҟәы	-11444
ве	-11445
ԥҽ	-11446
мос	-11447
уит	-11448
ҳаб	-11449
▁4.	-11450
втор	-11451
дмыр	-11452
ечен	-11453
иреи	-11454
кәуа	-11455
лҳар	-11456
онаа	-11457
шарц	-11458
ҟәац	-11459
▁118	-11460
▁аде	-11461
▁аҩи	-11462
▁аҳи	-11463
▁дба	-11464
▁инҭ	-11465
▁иҩу	-11466
▁сԥа	-11467
▁хаҿ	-11468
▁чыр	-11469
башьа	-11470
лазар	-11471
ность	-11472
чаара	-11473
ҭалар	-11474
▁1995	-11475
▁аида	-11476
▁асуб	-11477
▁аӷра	-11478
▁дуун	-11479
▁ирну	-11480
▁итәы	-11481
▁ишҟа	-11482
▁свет	-11483
▁хьча	-11484
▁цыра	-11485
▁чама	-11486
▁ҭбаа	-11487
ирԥшит	-11488
наӡала	-11489
хәхара	-11490
цыркра	-11491
шарала	-11492
ҵакыра	-11493
ҵараны	-11494
ԥшаала	-11495
▁ажәҩа	-11496
▁анбан	-11497
▁аради	-11498
▁ақәын	-11499
▁аҭаны	-11500
▁аҳәоу	-11501
▁аԥсеи	-11502
▁бзиан	-11503
▁даҿуп	-11504
▁жәаҩа	-11505
▁илшоз	-11506
▁ишдыр	-11507
▁иҭәуп	-11508
▁мшқәа	-11509
▁раҳәо	-11510
▁рзыҟа	-11511
▁рцәыӡ	-11512
▁сахьы	-11513
▁шәҽыр	-11514
хәаԥштә	-11515
ыԥхьаӡа	-11516
ҭарҵоит	-11517
▁абӷьыц	-11518
▁араунд	-11519
▁дахьыр	-11520
▁занааҭ	-11521
▁зыҩуаз	-11522
▁иахьым	-11523
▁иаԥҵан	-11524
▁инасыԥ	-11525
▁ирҳара	-11526
▁лаҟәуп	-11527
▁роберт	-11528
▁хәыхәы	-11529
▁цәаҳәа	-11530
▁шәнапы	-11531
▁џьумка	-11532
▁џьынџь	-11533
▁ҳаҟәыҵ	-11534
▁ԥачлиа	-11535
кәакәара	-11536
ҭоурыхтә	-11537
▁агәаара	-11538
▁аимдара	-11539
▁акылсра	-11540
▁амчхара	-11541
▁аниҳәоз	-11542
▁афырҭын	-11543
▁ациклон	-11544
▁ацәыӡра	-11545
▁ақыҭаҿы	-11546
▁дразҵаа	-11547
▁иашьҭан	-11548
▁иҟаиҵар	-11549
▁нагӡаны	-11550
бзиабареи	-11551
зыҟаҵареи	-11552
шықәсақәа	-11553
▁анҵәамҭа	-11554
▁арҭбаара	-11555
▁ахҵәацәа	-11556
▁дшазыҟоу	-11557
▁иаурхәар	-11558
▁рҳәаақәа	-11559
▁уҭахызар	-11560
▁хырхарҭа	-11561
▁хьшәашәа	-11562
▁шамҭақәа	-11563
▁шьақәҳар	-11564
▁џьынџьал	-11565
▁ҳахьчоит	-11566
▁адгьылахь	-11567
▁асинагога	-11568
▁ашьауӷатә	-11569
▁багаҭелиа	-11570
▁еидызкыло	-11571
▁иацәыхара	-11572
▁официалла	-11573
▁рыхәаԥшра	-11574
▁шааирԥшуа	-11575
▁ҳҭынхацәа	-11576
▁атәымтәыла	-11577
▁еилкаахеит	-11578
▁иваҟәылара	-11579
▁ирзааигәоу	-11580
▁ицәырҵуеит	-11581
▁рыбжьаҵара	-11582
▁шәеиҩызара	-11583
▁қырҭтәылеи	-11584
▁ҳақәиргәыӷ	-11585
▁ҳрыхәаԥшып	-11586
▁аманшәалара	-11587
▁ргәазҭеиҵон	-11588
▁рнапхгаҩцәа	-11589
▁аибашьрақәеи	-11590
▁аусеилыргара	-11591
▁сеигәырӷьоит	-11592
▁ҳхымҩаԥгашьа	-11593
▁иҭышәынтәалоу	-11594
шьақәыргыларазы	-11595
▁агәҭынчымрақәа	-11596
пат	-11597
сар	-11598
тип	-11599
цәу	-11600
чуа	-11601
шев	-11602
ӡор	-11603
▁8.	-11604
▁ты	-11605
гӡар	-11606
еиза	-11607
зиан	-11608
панс	-11609
рыԥс	-11610
троп	-11611
хуеи	-11612
цәан	-11613
цәик	-11614
шьас	-11615
шьыц	-11616
шьҩы	-11617
ҿкаа	-11618
▁арк	-11619
▁ҭоб	-11620
агара	-11621
ератә	-11622
цырра	-11623
цәызы	-11624
ҟьеит	-11625
▁1991	-11626
▁ареп	-11627
▁аҭан	-11628
▁гоов	-11629
▁длоу	-11630
▁злеи	-11631
▁зцыз	-11632
▁зҭак	-11633
▁икьа	-11634
▁ишра	-11635
▁иҟәа	-11636
▁стра	-11637
▁џьор	-11638
баларц	-11639
гәамҭа	-11640
мыжьын	-11641
ныҟәаз	-11642
строль	-11643
хиоума	-11644
қәаҳҵо	-11645
ҟараны	-11646
ҭалоит	-11647
ӡыӡара	-11648
ӷарыла	-11649
▁абаша	-11650
▁алаку	-11651
▁алсра	-11652
▁анӡор	-11653
▁аочер	-11654
▁ахбыџ	-11655
▁ақәны	-11656
▁аӡара	-11657
▁аӷьыч	-11658
▁гәыԥк	-11659
▁зегьз	-11660
▁иаԥну	-11661
▁игара	-11662
▁имаҷу	-11663
▁имҩах	-11664
▁ишьон	-11665
▁метод	-11666
▁мираб	-11667
▁ргара	-11668
▁рыбла	-11669
▁шәыма	-11670
адыруеи	-11671
зышәара	-11672
истимаа	-11673
лаҳәара	-11674
ыргареи	-11675
қәымшәа	-11676
▁абҵара	-11677
▁австра	-11678
▁алцара	-11679
▁ақьача	-11680
▁аҵаара	-11681
▁аҵысра	-11682
▁гәнаҳа	-11683
▁евгени	-11684
▁заамҭа	-11685
▁иажәеи	-11686
▁ианӡам	-11687
▁ибеиоу	-11688
▁лондон	-11689
▁руларц	-11690
▁рхәыҷы	-11691
▁қәԥара	-11692
▁ҟаҵаны	-11693
▁ҟаҵоуп	-11694
заанагаз	-11695
истикатә	-11696
менталтә	-11697
хырҭақәа	-11698
▁аарҩара	-11699
▁атәарҭа	-11700
▁даауеит	-11701
▁дарбану	-11702
▁дашьҭан	-11703
▁дырбара	-11704
▁зызҭана	-11705
▁иазхиоу	-11706
▁иҟалома	-11707
▁назарет	-11708
▁рнаҭоит	-11709
▁рҟазара	-11710
▁шахәҭоу	-11711
▁шымҩаԥи	-11712
▁шыҟалаз	-11713
▁қьиақәа	-11714
▁ҟасҵоит	-11715
▁ҳазҵаар	-11716
дыруазарц	-11717
лацәажәоз	-11718
нагӡаратә	-11719
хынҳәразы	-11720
қәшаҳаҭым	-11721
қәымшәара	-11722
▁агырхара	-11723
▁алауреат	-11724
▁ахьчацәа	-11725
▁аԥынгыла	-11726
▁иаирхәон	-11727
▁ианаамҭа	-11728
▁иасимвол	-11729
▁ииасуеит	-11730
▁ирыхәаԥш	-11731
▁ишԥаилшо	-11732
▁иҟазаара	-11733
▁иҳалшома	-11734
▁мырҵыкәа	-11735
▁рымамкәа	-11736
▁рҭаацәеи	-11737
▁уадаҩрак	-11738
▁хырԥашьа	-11739
▁ҳнаргоит	-11740
▁абазақәеи	-11741
▁азиашареи	-11742
▁аидкылара	-11743
▁акарахара	-11744
▁анышәаԥшь	-11745
▁аредакциа	-11746
▁ахлымӡаах	-11747
▁аҳәатәхам	-11748
▁донецктәи	-11749
▁дыԥсаанӡа	-11750
▁иаҿырԥшны	-11751
▁ишәҭахума	-11752
▁иҟаиҵозеи	-11753
▁рзыӡырҩра	-11754
▁рҿырԥштәы	-11755
▁ҟәыӷарыла	-11756
▁аадырԥшуан	-11757
▁абзиарақәа	-11758
▁ателехәаԥш	-11759
▁еилаҳкаауа	-11760
▁кьышьмариа	-11761
▁рыцҳашьара	-11762
▁филистимаа	-11763
▁шәеибабала	-11764
▁даҽазныкгьы	-11765
▁иазгәеиҭоит	-11766
▁ишеилаҳкааз	-11767
▁цәқәырԥақәа	-11768
▁акалҭбааԥсра	-11769
▁анеитралитет	-11770
▁ацәеилабаара	-11771
▁ҳалацәажәоит	-11772
▁ажәеинраалаҿы	-11773
▁ашьауӷақәҵара	-11774
▁урыстәылантәи	-11775
▁иажәеинраалақәа	-11776
ҵу	-11777
дил	-11778
сих	-11779
фат	-11780
чеи	-11781
ыло	-11782
▁бр	-11783
▁дә	-11784
▁пу	-11785
екка	-11786
укеи	-11787
ххьа	-11788
хәыс	-11789
ҟәны	-11790
ҳҭар	-11791
ӷьны	-11792
▁12.	-11793
▁130	-11794
▁гор	-11795
▁дол	-11796
▁кур	-11797
▁рыӡ	-11798
▁шаз	-11799
нагар	-11800
қәаби	-11801
ҭеира	-11802
ҿыҭра	-11803
▁2006	-11804
▁аетн	-11805
▁арит	-11806
▁афым	-11807
▁ачын	-11808
▁аԥшы	-11809
▁дшеи	-11810
▁иаах	-11811
▁иқәу	-11812
▁лықә	-11813
▁сыҟа	-11814
▁уада	-11815
▁уаҵә	-11816
▁ҟаим	-11817
▁ҳаса	-11818
▁ҳашы	-11819
ариант	-11820
зиашоу	-11821
сҭаара	-11822
ҳарыла	-11823
ҳәатәы	-11824
ҷаԥшьа	-11825
ҽҳәаша	-11826
ӷәӷәоз	-11827
▁амцтә	-11828
▁аштаб	-11829
▁ақьаф	-11830
▁аҳәба	-11831
▁днеит	-11832
▁дырзы	-11833
▁иаԥшь	-11834
▁илшом	-11835
▁кьаҿк	-11836
▁уаҩуп	-11837
▁шенка	-11838
▁шьҭра	-11839
▁ҳаҿуп	-11840
ҭыхақәа	-11841
ҵзуҩцәа	-11842
▁ааԥшра	-11843
▁абаара	-11844
▁ажьара	-11845
▁амцабз	-11846
▁ацлара	-11847
▁аӡахра	-11848
▁аԥареи	-11849
▁диеиԥш	-11850
▁иаазыр	-11851
▁идырым	-11852
▁ииасит	-11853
▁имҩаду	-11854
▁инхало	-11855
▁портал	-11856
▁рполит	-11857
▁уаҩԥсы	-11858
▁шәахьы	-11859
▁шәхатә	-11860
▁қьарим	-11861
▁ҟаҳҵар	-11862
▁ҳгәаҿы	-11863
▁ӷәӷәеи	-11864
▁ԥхасҭа	-11865
▁ааигеит	-11866
▁аилыхра	-11867
▁аиҭаҵра	-11868
▁анҵәара	-11869
▁арԥхара	-11870
▁ашьаҭар	-11871
▁даналга	-11872
▁еибакны	-11873
▁иеиԥшуп	-11874
▁имҩахыҵ	-11875
▁ишиҳәаз	-11876
▁иҟамызт	-11877
▁иҭижьыз	-11878
▁ӷәӷәоуп	-11879
▁ахәрақәа	-11880
▁британиа	-11881
▁ииашамыз	-11882
▁ицхырааҩ	-11883
▁иҳабжьоу	-11884
▁мацароуп	-11885
▁рыԥсахра	-11886
▁шьцылара	-11887
▁ааҳарԥшыр	-11888
▁дақәшаҳаҭ	-11889
▁еилыргоуп	-11890
▁ибзоурала	-11891
▁ранашьоуп	-11892
▁рартистка	-11893
зааигәахоит	-11894
▁аолимпиатә	-11895
▁ишԥаадырԥш	-11896
▁рыԥхьаӡоит	-11897
▁ҳаиҿыԥшлар	-11898
▁амемориалтә	-11899
▁ахәыҷқәагьы	-11900
▁ақәыргәыӷра	-11901
▁аорганизациа	-11902
▁аҵакырадгьыл	-11903
▁черқьессктәи	-11904
▁ҳрыцхраауеит	-11905
ух	-11906
ых	-11907
гур	-11908
зоу	-11909
иак	-11910
пол	-11911
чар	-11912
бауа	-11913
елод	-11914
жәга	-11915
ихит	-11916
кәас	-11917
лҵуа	-11918
онтә	-11919
цәаа	-11920
ырра	-11921
ԥаны	-11922
ԥсеи	-11923
▁700	-11924
▁агр	-11925
▁диц	-11926
▁лаз	-11927
▁лҿы	-11928
▁ныр	-11929
▁шын	-11930
аразы	-11931
ҵәыра	-11932
ԥшшәа	-11933
▁1990	-11934
▁2003	-11935
▁агро	-11936
▁аиҟә	-11937
▁алас	-11938
▁ареи	-11939
▁аусу	-11940
▁ашәи	-11941
▁еизи	-11942
▁ззин	-11943
▁илыр	-11944
▁ицыр	-11945
▁иҭна	-11946
▁мика	-11947
▁рныр	-11948
▁удыр	-11949
▁шала	-11950
▁ҭаны	-11951
▁ҳаиа	-11952
дуцәеи	-11953
енџьыр	-11954
тивқәа	-11955
хиазар	-11956
циклон	-11957
цәымӷу	-11958
ҩызоуп	-11959
ҳәаӡом	-11960
ҿырԥшы	-11961
ӷәӷәаз	-11962
▁акьаҿ	-11963
▁атран	-11964
▁ацәик	-11965
▁аҵәыр	-11966
▁есҽны	-11967
▁иацыр	-11968
▁идҳар	-11969
▁ицәыӡ	-11970
▁кьара	-11971
▁лыҩны	-11972
▁ольга	-11973
▁рбоит	-11974
▁хәарц	-11975
▁шәоуп	-11976
▁ԥшьын	-11977
гӡаларц	-11978
ныҟәеит	-11979
ныҳәало	-11980
ҟәымҭхо	-11981
ҳәаӡеит	-11982
ҵәҟьоуп	-11983
ҷаблара	-11984
▁абыржә	-11985
▁амульт	-11986
▁анаҳбо	-11987
▁арҳәра	-11988
▁астиль	-11989
▁ачарыц	-11990
▁биԥара	-11991
▁еилдыр	-11992
▁змаӡам	-11993
▁иаагаз	-11994
▁иаарты	-11995
▁иаатит	-11996
▁имшира	-11997
▁рықәра	-11998
▁удмурт	-11999
▁шынаӡо	-12000
▁шьыжьы	-12001
▁шәарах	-12002
▁ҳабжьа	-12003
▁ҷыҭана	-12004
қәгәыӷла	-12005
ҿагылеит	-12006
ԥхьаӡоуп	-12007
ԥырхагоу	-12008
▁амҵәышә	-12009
▁астолтә	-12010
▁аусурҭа	-12011
▁аформат	-12012
▁зымҽхак	-12013
▁иалагар	-12014
▁иалаӡыз	-12015
▁идирҵон	-12016
▁ишьҭоуп	-12017
▁иҟоузеи	-12018
▁рымазар	-12019
▁сылшоит	-12020
▁хәыхәыт	-12021
▁ҳагәқәа	-12022
▁абазақәа	-12023
▁авторцәа	-12024
▁агәышьҭы	-12025
▁алашареи	-12026
▁амчрақәа	-12027
▁анышәынҭ	-12028
▁ахәшәқәа	-12029
▁аҟазареи	-12030
▁аҵасқәеи	-12031
▁гәеиҭеит	-12032
▁еиҭамҵуа	-12033
▁игәазҭаз	-12034
▁ирыладыр	-12035
▁москваҟа	-12036
▁урызхәыц	-12037
республика	-12038
▁абаагәара	-12039
▁ажәахәқәа	-12040
▁анаукақәа	-12041
▁апионертә	-12042
▁зыбзоуроу	-12043
▁иаҳнарҵар	-12044
▁ишәылшоит	-12045
▁нанагӡоит	-12046
▁рзанааҭтә	-12047
▁структура	-12048
▁шәахьынхо	-12049
зааигәахара	-12050
▁агәыԥжәара	-12051
▁амаҵурауаҩ	-12052
▁амҩаԥгареи	-12053
▁анапаҵаҩра	-12054
▁аусумҭақәа	-12055
▁ақәҵарақәа	-12056
▁аҟәымшәышә	-12057
▁аԥшьгаратә	-12058
▁дҳацхраарц	-12059
▁арӷәӷәаразы	-12060
▁еицырзеиԥшу	-12061
▁еиԥыларақәа	-12062
▁зхаҭабзиара	-12063
▁ипринципқәа	-12064
▁ҳамазаауеит	-12065
▁аиқәыршәареи	-12066
▁ихыркәшахеит	-12067
▁категориақәа	-12068
▁ҳәынҭқарратә	-12069
▁мраҭашәарантәи	-12070
▁ԥааимбаражәақәа	-12071
де	-12072
ят	-12073
▁я	-12074
блы	-12075
гәи	-12076
ном	-12077
цид	-12078
шәк	-12079
ҩаҳ	-12080
ҳҭо	-12081
ҵҳа	-12082
ҿиҭ	-12083
▁82	-12084
▁88	-12085
▁де	-12086
▁мц	-12087
▁сҽ	-12088
берт	-12089
бург	-12090
гаха	-12091
ерна	-12092
згоз	-12093
ософ	-12094
хага	-12095
хауа	-12096
ҭбаа	-12097
ҳага	-12098
ҳхыр	-12099
ҵома	-12100
▁11.	-12101
▁202	-12102
▁аум	-12103
▁иқы	-12104
▁наз	-12105
▁наԥ	-12106
▁ума	-12107
▁умч	-12108
▁уԥс	-12109
▁что	-12110
▁ҵас	-12111
гааит	-12112
гашьа	-12113
гьама	-12114
зеира	-12115
зҳауа	-12116
итети	-12117
наара	-12118
цааны	-12119
циона	-12120
шәыла	-12121
ылшоз	-12122
қьоит	-12123
ҳҵеит	-12124
ҽхана	-12125
ӡахра	-12126
▁авар	-12127
▁алан	-12128
▁амах	-12129
▁амша	-12130
▁асол	-12131
▁жәба	-12132
▁идыз	-12133
▁иҩыз	-12134
▁мина	-12135
▁ныҳә	-12136
▁проб	-12137
▁уани	-12138
▁хымз	-12139
▁шәар	-12140
▁шәра	-12141
▁ҳнеи	-12142
▁ԥача	-12143
▁ԥыҭк	-12144
дҵақәа	-12145
ератор	-12146
зеиҭар	-12147
зымдыр	-12148
кьысра	-12149
мазгьы	-12150
остиум	-12151
терина	-12152
хнакиа	-12153
шәаӡом	-12154
ҳкуеит	-12155
ҿыԥшны	-12156
▁алоуп	-12157
▁арҟәы	-12158
▁афизи	-12159
▁аҩара	-12160
▁аҳаԥы	-12161
▁аҽала	-12162
▁аҿықә	-12163
▁дахыс	-12164
▁ерман	-12165
▁ианым	-12166
▁ирҭаз	-12167
▁иумбо	-12168
▁китаи	-12169
▁кәтол	-12170
▁муҳам	-12171
▁рыҭан	-12172
▁социа	-12173
паганда	-12174
шаҭареи	-12175
шәҟәаҿы	-12176
▁акаҳуа	-12177
▁алымҳа	-12178
▁асолда	-12179
▁афеида	-12180
▁аҽыкәа	-12181
▁даанӡа	-12182
▁данааи	-12183
▁дуқәеи	-12184
▁зыхьчо	-12185
▁иахьтә	-12186
▁ирҭынч	-12187
▁иформа	-12188
▁иҟалом	-12189
▁иҭыҵуа	-12190
▁рыҭаны	-12191
▁символ	-12192
▁уиҩыза	-12193
▁хаҭара	-12194
▁ҳагәра	-12195
галароуп	-12196
емоциатә	-12197
цәырызго	-12198
ҟаҵаҩцәа	-12199
▁аарҳәра	-12200
▁адиплом	-12201
▁адоуҳаи	-12202
▁адәныҟа	-12203
▁азыӡырҩ	-12204
▁алкаара	-12205
▁аскульп	-12206
▁ахшаара	-12207
▁ашықәса	-12208
▁аԥсаатә	-12209
▁бӷажәба	-12210
▁даҳбоит	-12211
▁иацәхьа	-12212
▁идирҵоз	-12213
▁исахьар	-12214
▁ицәгьаз	-12215
▁ицәымӷу	-12216
▁иҟоугьы	-12217
▁иҭынчра	-12218
▁иӷәӷәаз	-12219
▁рырҭоит	-12220
▁сҩызцәа	-12221
▁уҟазара	-12222
▁ҟаиҵарц	-12223
▁ҳҿаԥхьа	-12224
шәалароуп	-12225
▁алхыҩцәа	-12226
▁амҩаԥгаҩ	-12227
▁гәыҳалал	-12228
▁зусҭцәоу	-12229
▁иабантәи	-12230
▁иалагала	-12231
▁иарҳәоит	-12232
▁иаԥсоума	-12233
▁изызхәыц	-12234
▁ииубилеи	-12235
▁калмыков	-12236
▁наигӡеит	-12237
▁аарԥшышьа	-12238
▁австралиа	-12239
▁акәӡамызт	-12240
▁анырҵәара	-12241
▁аԥсышәала	-12242
▁иацҵахоит	-12243
▁абыжьбатәи	-12244
▁анаплакқәа	-12245
▁антициклон	-12246
▁дхынҳәуеит	-12247
▁еибашьраҿы	-12248
▁зегьирхаку	-12249
▁иажәамаана	-12250
▁изыӡырҩуаз	-12251
▁ҳазхәыцлар	-12252
▁амультфильм	-12253
▁анапылампыл	-12254
▁закәанԥҵара	-12255
▁иаакәыршаны	-12256
▁очамчыратәи	-12257
▁рыҿцәажәара	-12258
▁агәаԥхашәатә	-12259
▁археологиатә	-12260
▁дышҳацхраауа	-12261
▁ишԥеилкаатәу	-12262
▁ааҳарԥшлароуп	-12263
▁атерриториаҿы	-12264
▁иааҳакәыршаны	-12265
▁шәҽазышәшәала	-12266
▁ишьақәырӷәӷәоу	-12267
▁рџьынџьтәылатәи	-12268
еҩ	-12269
ош	-12270
ув	-12271
иуз	-12272
каи	-12273
лек	-12274
мбо	-12275
ҭуа	-12276
▁09	-12277
ания	-12278
ингв	-12279
итар	-12280
лнар	-12281
мҭра	-12282
ташь	-12283
фиеи	-12284
шәаа	-12285
ҵәах	-12286
ӷәыр	-12287
▁13.	-12288
▁186	-12289
▁ааҟ	-12290
▁алх	-12291
▁инт	-12292
▁кир	-12293
▁сиб	-12294
▁уҟа	-12295
▁шаи	-12296
▁шыс	-12297
анӡаа	-12298
сратә	-12299
хьуаз	-12300
шьыга	-12301
ҷабра	-12302
ӷьӷьа	-12303
▁1999	-12304
▁2009	-12305
▁абло	-12306
▁анеф	-12307
▁аным	-12308
▁астр	-12309
▁ачра	-12310
▁васи	-12311
▁вели	-12312
▁дшым	-12313
▁илир	-12314
▁иҭаҳ	-12315
▁рҵас	-12316
▁стал	-12317
▁сышә	-12318
▁уҽыр	-12319
▁қыҭа	-12320
▁қәра	-12321
▁ҿыци	-12322
арыхра	-12323
иааирц	-12324
лаҵара	-12325
нагало	-12326
талион	-12327
тәқәоу	-12328
ццакны	-12329
шьҭреи	-12330
ҟәыҵуа	-12331
ҭаҵара	-12332
▁аефир	-12333
▁алнар	-12334
▁арели	-12335
▁арԥха	-12336
▁ахьыӡ	-12337
▁ахәыр	-12338
▁аԥсым	-12339
▁аԥсын	-12340
▁баҳча	-12341
▁визит	-12342
▁дагьы	-12343
▁еилар	-12344
▁зурҵо	-12345
▁иашоу	-12346
▁иаԥыр	-12347
▁илаҟә	-12348
▁лакер	-12349
▁мшәан	-12350
▁рнаҩс	-12351
▁схатә	-12352
▁ҳхала	-12353
гәамԥхо	-12354
гәаҟуан	-12355
иршәеит	-12356
мазареи	-12357
цәгьаны	-12358
ҵалатәу	-12359
ҷаҳареи	-12360
ҿагылар	-12361
▁адәықә	-12362
▁азауад	-12363
▁алабҿа	-12364
▁аҭгара	-12365
▁библей	-12366
▁иазкын	-12367
▁излары	-12368
▁изҭаху	-12369
▁илыԥха	-12370
▁иордан	-12371
▁исылшо	-12372
▁иҳәарц	-12373
▁раиура	-12374
▁рыгәҭа	-12375
▁уилиам	-12376
▁умшәан	-12377
▁шаҟаҩы	-12378
▁шхадоу	-12379
▁џьорџь	-12380
▁ҭобыль	-12381
зҵаауеит	-12382
ҿагыланы	-12383
▁агәцара	-12384
▁азыҳәан	-12385
▁азыԥшра	-12386
▁арлахҿы	-12387
▁аусқәеи	-12388
▁аҳаиртә	-12389
▁аҵәаӷәа	-12390
▁евразиа	-12391
▁иазгәаҭ	-12392
▁иакәӡам	-12393
▁ианыҟаз	-12394
▁инымҵәа	-12395
▁иреиԥшу	-12396
▁ириҭеит	-12397
▁ирҿиара	-12398
▁ихыҵуан	-12399
▁ишхадоу	-12400
▁кәакәас	-12401
▁рышәҟәы	-12402
▁сыжәлар	-12403
▁шәоуеит	-12404
зааигәоуп	-12405
▁ааигәара	-12406
▁аиқәҵара	-12407
▁акафедра	-12408
▁ақәызҵаз	-12409
▁аҟаҵареи	-12410
▁аӡәӡәара	-12411
▁гәҭакыла	-12412
▁еизараҿы	-12413
▁ианашьан	-12414
▁инҭкааны	-12415
▁ирызхәыц	-12416
▁кристина	-12417
▁ныҟәызго	-12418
▁хәарҭара	-12419
▁ҳарӷәӷәа	-12420
хацыԥхьаӡа	-12421
қәгәыӷыртә	-12422
▁акредиттә	-12423
▁акәызҭгьы	-12424
▁анхыркәша	-12425
▁астандарт	-12426
▁гәаԥхашәа	-12427
▁имҩаԥырго	-12428
▁реиҷаҳара	-12429
▁ҵабыргқәа	-12430
▁абуклетқәа	-12431
▁амшхәаԥштә	-12432
▁далацәажәо	-12433
▁данқәыԥшыз	-12434
▁дрыцхраарц	-12435
▁сыуаажәлар	-12436
▁хацыркхеит	-12437
▁аброшиураҿы	-12438
▁автомашьына	-12439
▁анаскьагара	-12440
▁аоперативтә	-12441
▁иорданиатәи	-12442
▁иқәыргәыӷра	-12443
▁адгьылҵакыра	-12444
▁акоммерциатә	-12445
▁ауснагӡаратә	-12446
▁адипломатиатә	-12447
▁ажәалагалақәа	-12448
▁ашьақәгылареи	-12449
▁зқьышықәсатәи	-12450
▁иҭагылазаашьа	-12451
▁аҽазыҟаҵарақәа	-12452
▁иабантәаадыруеи	-12453
кба	-12454
лаҩ	-12455
пир	-12456
рес	-12457
таж	-12458
хум	-12459
шап	-12460
шыз	-12461
ҵәи	-12462
ҷаа	-12463
ӡит	-12464
▁6.	-12465
▁зз	-12466
гауа	-12467
грам	-12468
дыра	-12469
ецба	-12470
хема	-12471
ҭага	-12472
ҽара	-12473
ҿара	-12474
▁10.	-12475
▁108	-12476
▁дев	-12477
▁жәҩ	-12478
▁зку	-12479
▁зҭа	-12480
▁ижь	-12481
▁как	-12482
▁лом	-12483
▁рыс	-12484
▁тел	-12485
▁усы	-12486
▁уҭа	-12487
▁чры	-12488
аркра	-12489
зиаша	-12490
ников	-12491
ԥареи	-12492
▁ааим	-12493
▁авиа	-12494
▁адна	-12495
▁азна	-12496
▁аква	-12497
▁атит	-12498
▁инаи	-12499
▁иҩна	-12500
▁иҵхо	-12501
▁маӡа	-12502
▁нбан	-12503
▁раби	-12504
▁санд	-12505
▁шәҿы	-12506
▁ҭакс	-12507
▁ҳаши	-12508
▁ҳҽеи	-12509
▁ҵыԥх	-12510
муника	-12511
харатә	-12512
қәырҵо	-12513
ҭандил	-12514
▁абунт	-12515
▁азааи	-12516
▁аидыр	-12517
▁алшоз	-12518
▁апарт	-12519
▁аплен	-12520
▁афакт	-12521
▁аччиа	-12522
▁голиа	-12523
▁данаа	-12524
▁еицаҳ	-12525
▁зҿлым	-12526
▁игоит	-12527
▁иргәа	-12528
▁ишрыз	-12529
▁мирон	-12530
▁рзгьы	-12531
▁шәреи	-12532
▁шәсыр	-12533
▁ҳашыг	-12534
▁ҳбоит	-12535
▁ҳрықә	-12536
кылалар	-12537
лышьбеи	-12538
мыхәаԥш	-12539
рықәшәо	-12540
уадаҩра	-12541
хьчалар	-12542
ҳәароуп	-12543
▁абацәа	-12544
▁аидҳәа	-12545
▁акылыр	-12546
▁акәакь	-12547
▁апҟара	-12548
▁ахныҟә	-12549
▁аԥштәы	-12550
▁быҭәба	-12551
▁галаад	-12552
▁зырҿио	-12553
▁зыхҟьо	-12554
▁идшәыр	-12555
▁изцәыр	-12556
▁исалам	-12557
▁иӡбоит	-12558
▁нарцәи	-12559
▁шьыбжь	-12560
▁ықәдыр	-12561
▁ҳшынхо	-12562
кәыршара	-12563
организа	-12564
ԥхьаӡеит	-12565
▁аиҳарак	-12566
▁ашәареи	-12567
▁ақәнага	-12568
▁аԥышәеи	-12569
▁иааӡара	-12570
▁иганахь	-12571
▁изанааҭ	-12572
▁инагӡоу	-12573
▁малахиа	-12574
▁микаель	-12575
▁рыдгьыл	-12576
▁станциа	-12577
▁уаҵәтәи	-12578
▁урыԥхьа	-12579
▁шәыдышә	-12580
▁ҳаӷацәа	-12581
▁ҳусқәеи	-12582
гәырӷьала	-12583
шәарыцара	-12584
▁авҭандил	-12585
▁агәыԥқәа	-12586
▁акрыфара	-12587
▁анҭыҵгьы	-12588
▁апатриот	-12589
▁археолог	-12590
▁арӡынԥҳа	-12591
▁ашьҭыбжь	-12592
▁аҩналара	-12593
▁аҵәылхра	-12594
▁еиҭагоуп	-12595
▁еиҿкааны	-12596
▁иаалырԥш	-12597
▁имаҵзуҩы	-12598
▁иҵаҩцәеи	-12599
▁иԥхьаӡоу	-12600
▁шыҟаиҵаз	-12601
▁шәымазар	-12602
цәыргақәҵа	-12603
▁аимадареи	-12604
▁алахәылаҩ	-12605
▁гәаҭаратә	-12606
▁екатерина	-12607
▁иахәҭакны	-12608
▁иахәҭакуп	-12609
▁изыӡырҩуа	-12610
▁ишәылшома	-12611
▁ргәаладыр	-12612
▁шәылшозеи	-12613
билитациатә	-12614
▁аацҳарақәа	-12615
▁арегионқәа	-12616
▁асанитартә	-12617
▁ауахәамаҿы	-12618
▁иалахәхоит	-12619
▁гәырӷьарала	-12620
▁исыԥхьаӡоит	-12621
▁ҭаацәарақәа	-12622
▁ҭырқәтәылеи	-12623
▁адокументқәа	-12624
▁аршаҳаҭгақәа	-12625
▁астудентцәеи	-12626
▁ақәҿиарақәеи	-12627
▁ихыркәшахоит	-12628
▁игәалаиршәоит	-12629
▁шьақәыргылоуп	-12630
▁ҳааҟәымҵӡакәа	-12631
▁аԥааимбаражәаҿы	-12632
см	-12633
уы	-12634
юд	-12635
бап	-12636
бга	-12637
ень	-12638
ной	-12639
там	-12640
теа	-12641
убо	-12642
уро	-12643
цак	-12644
цоу	-12645
ять	-12646
џыр	-12647
ҟеи	-12648
ҩтә	-12649
▁87	-12650
▁лш	-12651
▁сш	-12652
гаҩы	-12653
гәыҭ	-12654
дтәа	-12655
оним	-12656
пқәа	-12657
уала	-12658
хьӡа	-12659
хҵәа	-12660
хәеи	-12661
қәыӡ	-12662
ҟәыл	-12663
ҭада	-12664
▁12-	-12665
▁але	-12666
▁амс	-12667
▁аоф	-12668
▁беи	-12669
▁воп	-12670
▁дны	-12671
▁еиԥ	-12672
▁кос	-12673
▁мол	-12674
▁нтә	-12675
▁сна	-12676
▁сод	-12677
▁сша	-12678
▁там	-12679
▁шил	-12680
бжазы	-12681
кестр	-12682
кылан	-12683
кьара	-12684
лшеит	-12685
рызеи	-12686
рышьҭ	-12687
серва	-12688
харым	-12689
хыртә	-12690
цалак	-12691
шьыра	-12692
ҳартә	-12693
ҳәатә	-12694
ԥхоит	-12695
ԥхьан	-12696
▁2005	-12697
▁атом	-12698
▁беиа	-12699
▁дгәа	-12700
▁иашә	-12701
▁иоса	-12702
▁иубо	-12703
▁ишыл	-12704
▁иӡыр	-12705
▁крыз	-12706
▁реиц	-12707
▁рзаа	-12708
▁ҳааи	-12709
▁ԥыза	-12710
дирҵоз	-12711
дырырц	-12712
ерадио	-12713
лагара	-12714
мыжьуа	-12715
мҩанга	-12716
оуразы	-12717
хәқәеи	-12718
цензиа	-12719
шәыгӡа	-12720
ырҭатә	-12721
ԥшымра	-12722
▁агеит	-12723
▁ажәар	-12724
▁акрал	-12725
▁апеда	-12726
▁ахьра	-12727
▁ацәар	-12728
▁ашхәа	-12729
▁ашьац	-12730
▁аҽада	-12731
▁аԥаҵа	-12732
▁вален	-12733
▁варна	-12734
▁даниа	-12735
▁излаи	-12736
▁имоҭа	-12737
▁инхаз	-12738
▁ирбон	-12739
▁иусуф	-12740
▁иқәир	-12741
▁иҳала	-12742
▁иԥшаа	-12743
▁лроль	-12744
▁муҳар	-12745
▁рааны	-12746
▁рааӡа	-12747
▁рымоу	-12748
▁рыԥҳа	-12749
▁уҳәан	-12750
▁хәҩык	-12751
▁шьоук	-12752
▁қьабз	-12753
▁ҳауит	-12754
▁ҳзаар	-12755
▁ҵабал	-12756
зыҳәара	-12757
зыԥшӡам	-12758
сменцәа	-12759
цәахара	-12760
шарбага	-12761
ҟәымшәы	-12762
ҵәҵәара	-12763
ԥхьакра	-12764
▁азҿлым	-12765
▁аиусти	-12766
▁арҩара	-12767
▁арҵага	-12768
▁аҭыԥтә	-12769
▁гәырам	-12770
▁зҭахыз	-12771
▁иашаны	-12772
▁иаԥҵаз	-12773
▁иеговы	-12774
▁иныҳәа	-12775
▁ишьҭоу	-12776
▁кәыдры	-12777
▁ныҟәыр	-12778
▁ршаҳаҭ	-12779
▁хьаҵра	-12780
▁чрыгба	-12781
▁ԥҟарак	-12782
мҩаԥаҳго	-12783
териалтә	-12784
хылаԥшуа	-12785
▁азнеира	-12786
▁анаукеи	-12787
▁аршшара	-12788
▁аџьанаҭ	-12789
▁дҭахеит	-12790
▁еизганы	-12791
▁зхылҵыз	-12792
▁зыхәҭоу	-12793
▁иуацәеи	-12794
▁иҭыжьыз	-12795
▁раҳәара	-12796
▁ргылара	-12797
▁рыхәԥса	-12798
▁уснагӡа	-12799
▁ҳаибоит	-12800
▁ҳарҭоит	-12801
шьҭахьтәи	-12802
▁аалыҵқәа	-12803
▁азааигәа	-12804
▁акаҭәара	-12805
▁акритика	-12806
▁аплошьад	-12807
▁арҵабырг	-12808
▁ацәымӷра	-12809
▁аҭаацәеи	-12810
▁дазыԥшуп	-12811
▁еиҳахеит	-12812
▁еиҿкаахо	-12813
▁иаҳшьоит	-12814
▁иуадаҩуп	-12815
▁ицәымӷуп	-12816
▁ицәырҵит	-12817
▁ишәыдышә	-12818
▁иԥхьаӡан	-12819
▁ҟашәҵала	-12820
зыӡырҩларц	-12821
▁адокумент	-12822
▁аҳәарақәа	-12823
▁аԥшаҳәаҿы	-12824
▁григориев	-12825
▁ицхраазеи	-12826
▁иҟаҵәҟьоу	-12827
▁иҩымҭақәа	-12828
▁напхгаҩыс	-12829
▁ростовтәи	-12830
▁хылаԥшҩыс	-12831
нҩажәижәаба	-12832
▁автобусқәа	-12833
▁агәнаҳақәа	-12834
▁аилаҩынтра	-12835
▁аилыркаара	-12836
▁анагӡараҿы	-12837
▁ашьҭахьтәи	-12838
▁дыруаӡәкын	-12839
▁ихшаазаҵәу	-12840
▁аиқәырхареи	-12841
▁зыҟаҵарақәа	-12842
▁ишәыцхраауа	-12843
▁аусдкылаҩцәа	-12844
▁иԥааимбарцәа	-12845
▁ҳорганизациа	-12846
▁апрограммақәа	-12847
▁ақьырсианцәеи	-12848
▁закәанеидкыла	-12849
▁ҳажәаԥҟарақәа	-12850
▁ҳзықәиргәыӷыз	-12851
▁шьақәырӷәӷәоуп	-12852
▁иазхаҵаҩцәаханы	-12853
уг	-12854
дуи	-12855
есь	-12856
жәо	-12857
орф	-12858
цаа	-12859
цон	-12860
қьи	-12861
ҽит	-12862
ҿам	-12863
ӷоу	-12864
▁5.	-12865
▁еп	-12866
арал	-12867
асҭа	-12868
бжак	-12869
гақә	-12870
дышш	-12871
лҵон	-12872
окси	-12873
шьаа	-12874
шҭыр	-12875
қәас	-12876
ҵәар	-12877
ҵәоз	-12878
▁11-	-12879
▁113	-12880
▁115	-12881
▁187	-12882
▁аер	-12883
▁гав	-12884
▁гам	-12885
▁гер	-12886
▁лых	-12887
▁оуп	-12888
▁реп	-12889
▁сал	-12890
▁сед	-12891
▁сир	-12892
▁усу	-12893
▁шан	-12894
▁ҭам	-12895
анхаз	-12896
артак	-12897
баала	-12898
бжьеи	-12899
газеи	-12900
диҵаз	-12901
иантә	-12902
пореи	-12903
ыхәба	-12904
ҟаара	-12905
▁азны	-12906
▁аиды	-12907
▁ацра	-12908
▁ацуп	-12909
▁даба	-12910
▁дгәы	-12911
▁иаҭа	-12912
▁иҽиз	-12913
▁маҷа	-12914
▁мери	-12915
▁мҩак	-12916
▁раав	-12917
▁рово	-12918
▁шәыҩ	-12919
▁ҳаиц	-12920
▁ҳакә	-12921
▁ԥара	-12922
балоит	-12923
гьареи	-12924
зылԥха	-12925
зымари	-12926
нымкәа	-12927
скьара	-12928
циклоп	-12929
қәиҭуп	-12930
қәыӡбо	-12931
▁абӷьы	-12932
▁адәыӷ	-12933
▁аиҿак	-12934
▁аиԥыр	-12935
▁акреи	-12936
▁алакә	-12937
▁амаҟа	-12938
▁анықә	-12939
▁апрак	-12940
▁ездра	-12941
▁зҳәоз	-12942
▁иалшо	-12943
▁ианаҳ	-12944
▁иезав	-12945
▁ирбар	-12946
▁ируаа	-12947
▁иунар	-12948
▁ишреи	-12949
▁иҟаҵа	-12950
▁лыԥҳа	-12951
▁мааҭи	-12952
▁метра	-12953
▁нанба	-12954
▁науру	-12955
▁раара	-12956
▁рзуны	-12957
▁схаҭа	-12958
▁текст	-12959
▁цқьоу	-12960
▁қапба	-12961
▁ҭелла	-12962
▁ҳәауа	-12963
зырҟәуа	-12964
ольклор	-12965
уссиатә	-12966
харақәа	-12967
хьоугьы	-12968
хәарҭоу	-12969
ҵаалара	-12970
▁агьырҭ	-12971
▁азҳара	-12972
▁аласра	-12973
▁афицар	-12974
▁ашҭаҿы	-12975
▁аԥслым	-12976
▁вопрос	-12977
▁гыцԥҳа	-12978
▁зҽазыз	-12979
▁иакәым	-12980
▁иаҳҭар	-12981
▁ишдыру	-12982
▁максим	-12983
▁мгакәа	-12984
▁медеиа	-12985
▁мҩаԥаа	-12986
▁пушкин	-12987
▁рыҳәса	-12988
▁угартә	-12989
▁хәҭала	-12990
▁цқьара	-12991
шьарақәа	-12992
ырхаҵара	-12993
ҭҵааҩцәа	-12994
▁адәқьан	-12995
▁акьакьа	-12996
▁амармал	-12997
▁амчратә	-12998
▁арҵареи	-12999
▁ахатәра	-13000
▁ахьхәра	-13001
▁ацәикит	-13002
▁ацәцара	-13003
▁аҭыӡшәа	-13004
▁аԥызҵаз	-13005
▁гәалсра	-13006
▁гәҭыхас	-13007
▁еиҳабыс	-13008
▁иалшоит	-13009
▁иаԥҵоуп	-13010
▁иосафат	-13011
▁ирҭахуп	-13012
▁ирҳәеит	-13013
▁ихархәа	-13014
▁иҟаҳҵаз	-13015
▁камкьиа	-13016
▁конкурс	-13017
▁кәырбан	-13018
мақаррала	-13019
▁ааԥынтәи	-13020
▁абаҟақәа	-13021
▁ажәакала	-13022
▁алкаақәа	-13023
▁аркьаҿра	-13024
▁ақәҭәара	-13025
▁аҽырбара	-13026
▁аԥенџьыр	-13027
▁даанхоит	-13028
▁данынхоз	-13029
▁дақәиҭуп	-13030
▁еиӷьтәла	-13031
▁иаарԥшуп	-13032
▁иакәхеит	-13033
▁иарҳәеит	-13034
▁иреиҳауп	-13035
▁иҟалозар	-13036
▁иҳаиҭеит	-13037
▁ранажьра	-13038
▁рыԥхьара	-13039
▁чамагәуа	-13040
▁шәашьҭаз	-13041
▁агастроль	-13042
▁аилахәара	-13043
▁аиуристтә	-13044
▁ацәахыхра	-13045
▁ашьхарахь	-13046
▁иазгәашәҭ	-13047
▁иаирхәеит	-13048
▁инапаҵаҟа	-13049
▁ирыцхраар	-13050
▁иҟарҵозеи	-13051
▁иусумҭақәа	-13052
▁иқьырсиану	-13053
▁шәазхәыцла	-13054
▁ҳалацәажәа	-13055
▁адгьылҵысра	-13056
▁еилыркаауан	-13057
▁усбарҭақәеи	-13058
▁амаалықьцәеи	-13059
▁аполитикатәи	-13060
▁ахьымҩаԥысуа	-13061
▁аԥырхагахара	-13062
▁изакәанымкәа	-13063
▁ргәазҭанаҵоит	-13064
▁изеиԥшразаалак	-13065
▁шәыԥсҭазаараҿы	-13066
жж	-13067
201	-13068
бин	-13069
вор	-13070
тыз	-13071
чик	-13072
ҩҩы	-13073
▁7.	-13074
▁81	-13075
анна	-13076
арта	-13077
гьоу	-13078
дора	-13079
жәоу	-13080
затә	-13081
кцәа	-13082
лаҳа	-13083
сҳәа	-13084
хаҵа	-13085
хшаз	-13086
шьма	-13087
шьҭи	-13088
ҟаҵа	-13089
▁13-	-13090
▁15.	-13091
▁250	-13092
▁дса	-13093
▁зол	-13094
▁мур	-13095
▁сақ	-13096
▁слу	-13097
▁хор	-13098
▁ԥым	-13099
аршеи	-13100
игеит	-13101
наӡам	-13102
одекс	-13103
реиба	-13104
сҭарц	-13105
театр	-13106
цызуа	-13107
шәыра	-13108
ҩаԥыр	-13109
ҩцәас	-13110
ҭахьы	-13111
ҭашәа	-13112
ҭыԥҳа	-13113
ҳгеит	-13114
ҵартә	-13115
▁1978	-13116
▁абык	-13117
▁аефф	-13118
▁аины	-13119
▁ампы	-13120
▁аҵыс	-13121
▁аҽад	-13122
▁зызу	-13123
▁игәи	-13124
▁иеиз	-13125
▁иҳам	-13126
▁сҭам	-13127
▁унеи	-13128
гаӡеит	-13129
дантәи	-13130
лиациа	-13131
лымкаа	-13132
мамкәа	-13133
хамышҭ	-13134
хыҵхыр	-13135
ццакра	-13136
ырҭынч	-13137
ҟароуп	-13138
ҿсахьа	-13139
әмацәа	-13140
ԥаҩцәа	-13141
▁агаӡа	-13142
▁амаҵа	-13143
▁аполк	-13144
▁асара	-13145
▁аԥшқа	-13146
▁дибон	-13147
▁згоит	-13148
▁иацыл	-13149
▁иишаз	-13150
▁илҳәо	-13151
▁иналы	-13152
▁ирфан	-13153
▁иуана	-13154
▁иуҳәо	-13155
▁иҭбаа	-13156
▁рылеи	-13157
▁рҭиит	-13158
▁фырха	-13159
артуеит	-13160
баӷәаза	-13161
гәакьоу	-13162
хәмарра	-13163
ҳәахоит	-13164
ҳәомызт	-13165
▁абжьар	-13166
▁аиашам	-13167
▁амиран	-13168
▁анализ	-13169
▁аҩнаҭа	-13170
▁аԥсшьа	-13171
▁гызмал	-13172
▁дыԥсыр	-13173
▁дҳарак	-13174
▁иазнар	-13175
▁ииашаз	-13176
▁иуацәа	-13177
▁иқьиоу	-13178
▁иӡааху	-13179
▁кьараз	-13180
▁лашара	-13181
▁шԥалшо	-13182
▁ҳаҭара	-13183
гәалалыр	-13184
еризациа	-13185
харҭақәа	-13186
ҷкәынцәа	-13187
▁абанктә	-13188
▁абырлаш	-13189
▁аидгыла	-13190
▁аизакра	-13191
▁аиудеиа	-13192
▁акәӡами	-13193
▁анапыла	-13194
▁анхацәа	-13195
▁анымҩаԥ	-13196
▁арххара	-13197
▁аусзуҩы	-13198
▁аҵарҩит	-13199
▁аҽазкра	-13200
▁аҿаҵара	-13201
▁аԥсҳара	-13202
▁аԥшыхәы	-13203
▁бџьарла	-13204
▁жәҩантә	-13205
▁иааганы	-13206
▁иааҳгар	-13207
▁иаҳаҭыр	-13208
▁ирылшоз	-13209
▁ихаҵара	-13210
▁ишаҳбаз	-13211
▁ишәхьоу	-13212
▁ишԥашәы	-13213
▁какалиа	-13214
▁лҿырԥшы	-13215
▁муҳарби	-13216
▁насыԥла	-13217
▁ревекка	-13218
▁рнапаҿы	-13219
▁рџьабаа	-13220
▁рҭыжьра	-13221
▁рҵаҩцәа	-13222
▁рҿыԥшра	-13223
▁сҭамԥыл	-13224
▁уиҳәала	-13225
▁хыхьтәи	-13226
▁царгәыш	-13227
▁шыбжьаз	-13228
▁шәгәышә	-13229
▁ӡаԥшьба	-13230
ганахьала	-13231
▁алашәцәа	-13232
▁аҿиаразы	-13233
▁дашьҭоуп	-13234
▁диқәгәыӷ	-13235
▁иаанханы	-13236
▁изышьҭаз	-13237
▁иҟалаӡом	-13238
▁минадора	-13239
▁мысратәи	-13240
▁рдыруеит	-13241
▁хҭысқәоу	-13242
▁шымҩаԥыс	-13243
▁қәыԥшцәа	-13244
▁абжьагара	-13245
▁аиустициа	-13246
▁арбагақәа	-13247
▁архәҭақәа	-13248
▁ауасақәеи	-13249
▁ахәшәтәра	-13250
▁ақәыршәра	-13251
▁аԥҳәысгьы	-13252
▁иааигәара	-13253
▁илабжьара	-13254
▁иҟазаргьы	-13255
▁ленинград	-13256
▁мҩаԥыргон	-13257
▁рыздыруам	-13258
▁станислав	-13259
▁аеволиуциа	-13260
▁аиԥшәмацәа	-13261
▁аоппозициа	-13262
▁апрезидиум	-13263
▁ахарҭәаара	-13264
▁аҩысҭаацәа	-13265
▁аҭҵаарақәа	-13266
▁аҽазышәара	-13267
▁еилышәкаар	-13268
▁аекологиатә	-13269
▁акомпозитор	-13270
▁аргыларақәа	-13271
▁иугәаларшәа	-13272
▁рырӷәӷәареи	-13273
▁шаарԥшлатәу	-13274
▁адискуссиатә	-13275
▁итрадициатәу	-13276
▁петербургтәи	-13277
▁иааҟәымҵӡакәа	-13278
▁ареспубликақәа	-13279
▁игәымбылџьбара	-13280
▁имҵахырхәаразы	-13281
▁апубликациақәеи	-13282
цт	-13283
бер	-13284
инц	-13285
пар	-13286
руж	-13287
тим	-13288
фҩы	-13289
цәо	-13290
ӡуа	-13291
▁ет	-13292
гәар	-13293
жьуп	-13294
зшәа	-13295
инаи	-13296
лхны	-13297
мида	-13298
стан	-13299
џьан	-13300
ҩыра	-13301
ӡырц	-13302
▁аки	-13303
▁аск	-13304
▁ван	-13305
▁иҵы	-13306
▁мзы	-13307
▁ном	-13308
▁сек	-13309
▁том	-13310
▁ҵәа	-13311
аанӡа	-13312
дәықә	-13313
карра	-13314
кқәоу	-13315
мгара	-13316
нахуа	-13317
нымхо	-13318
тәеит	-13319
цҳәаҩ	-13320
ҭакыз	-13321
ҵаала	-13322
▁1945	-13323
▁авер	-13324
▁апан	-13325
▁арда	-13326
▁арек	-13327
▁арҭә	-13328
▁аԥра	-13329
▁дшәа	-13330
▁заҵә	-13331
▁зыгә	-13332
▁ирна	-13333
▁исыр	-13334
▁наго	-13335
▁ныҟә	-13336
▁оҭар	-13337
▁ҳаиз	-13338
▁ҳаир	-13339
▁ԥсоу	-13340
ариера	-13341
гылахо	-13342
зыжьыз	-13343
кьыԥхь	-13344
тикқәа	-13345
хьуеит	-13346
қәынхо	-13347
ҿагыло	-13348
ҿыцтәи	-13349
ӡырҩыз	-13350
▁аџьеи	-13351
▁аҳала	-13352
▁даныл	-13353
▁дышиа	-13354
▁еилеи	-13355
▁зхара	-13356
▁илԥха	-13357
▁имцны	-13358
▁инеиз	-13359
▁инҭыр	-13360
▁ирҭоу	-13361
▁ихашҭ	-13362
▁иҭаку	-13363
▁иҭаны	-13364
▁наӡоу	-13365
▁рыӡба	-13366
▁сарра	-13367
▁сашьа	-13368
▁содом	-13369
▁сухум	-13370
▁уҩыза	-13371
▁шриҭо	-13372
иааитәу	-13373
ланыҟәа	-13374
лукаауа	-13375
қәиҵеит	-13376
ҭеиҵеит	-13377
ҳәарыла	-13378
ԥшьхара	-13379
▁аиҭоит	-13380
▁актқәа	-13381
▁амчреи	-13382
▁аочерк	-13383
▁аркара	-13384
▁арҭеит	-13385
▁ацәыҵа	-13386
▁ачгара	-13387
▁аҟәаҟа	-13388
▁аԥшыхә	-13389
▁аԥҵаҩы	-13390
▁еибашь	-13391
▁еиԥшны	-13392
▁злымшо	-13393
▁иазкәу	-13394
▁ииасуа	-13395
▁иорден	-13396
▁исыдыс	-13397
▁ишәгәа	-13398
▁ишԥақә	-13399
▁иҩнаҭа	-13400
▁минуҭк	-13401
▁нагоит	-13402
▁пионер	-13403
▁риҭарц	-13404
▁ровоам	-13405
▁рыплан	-13406
▁хәылбы	-13407
▁џьарак	-13408
▁ҭалоит	-13409
зылԥхеит	-13410
зыркаауа	-13411
зыԥшымыз	-13412
ҭалҳәеит	-13413
▁агәхьаа	-13414
▁алагеит	-13415
▁аметоди	-13416
▁аусумҭа	-13417
▁афбатәи	-13418
▁ашьақар	-13419
▁ақәратә	-13420
▁гәҭакыс	-13421
▁иаҭахым	-13422
▁имацара	-13423
▁иқьиара	-13424
▁иҭаххар	-13425
▁раагара	-13426
▁рыхкқәа	-13427
▁рҭаххар	-13428
▁цәгьоуп	-13429
▁шәымоуп	-13430
▁ҳзаазго	-13431
▁ҳҳәозар	-13432
▁ҵабыргу	-13433
зааҭгылап	-13434
урԥшуазар	-13435
▁аицҵалыҵ	-13436
▁амсылман	-13437
▁амхурсҭа	-13438
▁арыӷьара	-13439
▁аусуҩцәа	-13440
▁ахаҭыԥан	-13441
▁ақалақьи	-13442
▁ақырҭқәа	-13443
▁ақьалаҿы	-13444
▁ақәшәара	-13445
▁дақәгәыӷ	-13446
▁еилкааны	-13447
▁зырӷәӷәо	-13448
▁иазхаҵаҩ	-13449
▁иашарыла	-13450
▁иаҳзеиҭа	-13451
▁излаарыц	-13452
▁ихәышәтә	-13453
▁ичмазаҩу	-13454
▁иҭаххеит	-13455
▁иԥхьаӡон	-13456
▁иԥырхага	-13457
▁ракәхоит	-13458
▁ҳазхысыз	-13459
▁аанызкыло	-13460
▁адгылареи	-13461
▁аизгақәеи	-13462
▁алаларазы	-13463
▁амеханизм	-13464
▁валентина	-13465
▁еилыркаар	-13466
▁економика	-13467
▁зырҵабырг	-13468
▁иазааигәа	-13469
▁изааигәоу	-13470
▁иқәгәыӷра	-13471
▁иҽанӡааих	-13472
▁лакербаиа	-13473
▁рныҟәгара	-13474
▁рхылаԥшра	-13475
▁рышьақәыр	-13476
▁церемониа	-13477
▁шьцыларас	-13478
▁шьҭарҵеит	-13479
▁ҭагылазаа	-13480
▁ахылҵшьҭра	-13481
▁ақәшаҳаҭра	-13482
▁аҵабыргқәа	-13483
▁еизааигәоу	-13484
▁изусҭцәада	-13485
▁рыҳәарақәа	-13486
▁авидеоролик	-13487
▁аекономикеи	-13488
▁принципқәоу	-13489
▁рхархәарала	-13490
▁рымҩаԥгареи	-13491
▁телехәаԥшра	-13492
▁ҭагылазаара	-13493
▁агәнаҳаҟаҵаҩ	-13494
▁адгьылбжьаха	-13495
▁амуниципалтә	-13496
▁афарисеицәеи	-13497
▁информациатә	-13498
▁иԥсабаратәым	-13499
▁ареспубликаҿы	-13500
▁дырзааҭгылеит	-13501
▁рышьақәгылара	-13502
▁сгәаанагарала	-13503
▁аҭагылазаашьеи	-13504
аир	-13505
итр	-13506
лис	-13507
нов	-13508
ско	-13509
тов	-13510
уна	-13511
хыџ	-13512
цыл	-13513
чыр	-13514
ҽуа	-13515
ԥаҩ	-13516
ԥҽы	-13517
арым	-13518
езен	-13519
лашь	-13520
мкуа	-13521
онна	-13522
отуа	-13523
раил	-13524
хтәу	-13525
част	-13526
шәыц	-13527
қәан	-13528
ҟьаҩ	-13529
ҩоуп	-13530
ҩуан	-13531
ҭааз	-13532
ҳажь	-13533
ӡҳәы	-13534
▁104	-13535
▁106	-13536
▁133	-13537
▁ант	-13538
▁раԥ	-13539
▁руб	-13540
▁сев	-13541
▁сҟа	-13542
▁уаҳ	-13543
▁ҟәа	-13544
▁ҭаҭ	-13545
гәлиа	-13546
дырбо	-13547
ошьҭа	-13548
хьгьы	-13549
хәреи	-13550
шарба	-13551
шозар	-13552
ҭартә	-13553
ҳҭоит	-13554
ҵаарц	-13555
ҵысуа	-13556
▁1980	-13557
▁алит	-13558
▁жәаа	-13559
▁здыр	-13560
▁иаԥы	-13561
▁имцу	-13562
▁инам	-13563
▁ирыр	-13564
▁исеи	-13565
▁ишар	-13566
▁лаба	-13567
▁рхеи	-13568
▁рыиа	-13569
▁саби	-13570
▁тати	-13571
▁шшәа	-13572
▁ҷлоу	-13573
заарго	-13574
заарын	-13575
напқәа	-13576
цаҩцәа	-13577
циҵеит	-13578
ынхара	-13579
ҳархәо	-13580
ҳәалак	-13581
▁автот	-13582
▁агмыг	-13583
▁акаҭа	-13584
▁акьан	-13585
▁амҵра	-13586
▁арати	-13587
▁арԥсы	-13588
▁афран	-13589
▁ашҳам	-13590
▁аҩхаа	-13591
▁аӡӡаа	-13592
▁данил	-13593
▁ибеиа	-13594
▁излоу	-13595
▁ирбаз	-13596
▁ириҭо	-13597
▁ихаҿы	-13598
▁иқыҭа	-13599
▁нодар	-13600
▁рзааи	-13601
▁рфонд	-13602
▁рҵоит	-13603
▁шроуа	-13604
▁шулшо	-13605
▁шәрыз	-13606
▁ҳаиԥш	-13607
▁ҳашьа	-13608
▁ԥсыла	-13609
ективра	-13610
лагатәу	-13611
ларҟәра	-13612
спекциа	-13613
храқәеи	-13614
шәалоит	-13615
▁аарони	-13616
▁абиуџь	-13617
▁авесса	-13618
▁акиноф	-13619
▁ауаҭах	-13620
▁ахахьы	-13621
▁голиаф	-13622
▁дгьыли	-13623
▁илшара	-13624
▁инеиҵы	-13625
▁ирмари	-13626
▁коринф	-13627
▁наплак	-13628
▁усумҭа	-13629
▁шакәым	-13630
▁ҿырԥшы	-13631
балароуп	-13632
гылараны	-13633
леижьҭеи	-13634
шьақәнар	-13635
ҭәеишьаз	-13636
ҵанакуаз	-13637
▁алеишәа	-13638
▁альберт	-13639
▁амцнцәа	-13640
▁арабтәи	-13641
▁ахамаԥа	-13642
▁аҩыраҿы	-13643
▁аҳрақәа	-13644
▁баҟақәа	-13645
▁дҟаларц	-13646
▁еилазго	-13647
▁изеиҭеи	-13648
▁ироуеит	-13649
▁иԥылара	-13650
▁миссион	-13651
▁раҳҭоит	-13652
▁рыхәҭан	-13653
▁сахьаҭы	-13654
▁шьахәла	-13655
▁шәыҽӡаа	-13656
▁ҭеиҵеит	-13657
▁ҵаҵӷәыс	-13658
▁ҷыҭанаа	-13659
▁ԥачалиа	-13660
▁акраамҭа	-13661
▁акәымзар	-13662
▁аныҳәамш	-13663
▁арепатри	-13664
▁асабшазы	-13665
▁ауалԥшьа	-13666
▁ацентртә	-13667
▁иаҳгәала	-13668
▁игәамԥхо	-13669
▁ирзеиҭеи	-13670
▁ирхылаԥш	-13671
▁ирыхәҭоу	-13672
▁иқәгылаз	-13673
▁иҟалааит	-13674
▁реизҳазы	-13675
▁ркоманда	-13676
▁рыдулара	-13677
▁светлана	-13678
▁фышықәса	-13679
▁цәгьаура	-13680
▁шәаабеит	-13681
▁ҳиқәгәыӷ	-13682
▁аилаԥсара	-13683
▁акомплекс	-13684
▁аметодқәа	-13685
▁анеиликаа	-13686
▁атрагедиа	-13687
▁ахыхьчара	-13688
▁ашьхарыуа	-13689
▁еиҿшәырԥш	-13690
▁иалҵшәаны	-13691
▁ишаҳнарбо	-13692
▁иҳаракӡоу	-13693
▁мҩаԥигоит	-13694
▁ркандидат	-13695
▁рполитика	-13696
▁черқьесиа	-13697
ҿлымҳарақәа	-13698
▁апаспорттә	-13699
▁апроцедура	-13700
▁ахылаԥшреи	-13701
▁зҵаарақәак	-13702
▁ишԥаанарԥш	-13703
▁иҟазаауеит	-13704
▁қьалышьбеи	-13705
▁ҳгәабзиара	-13706
пансеризациа	-13707
▁ахылаԥшратә	-13708
▁ацәгьарақәа	-13709
▁аԥсҭазаашьа	-13710
▁аԥшыхәыҩцәа	-13711
▁гәаҳәарақәа	-13712
▁иаашәырԥшуа	-13713
▁иашьашәалоу	-13714
▁ирыдҳәалоуп	-13715
▁ирҿиамҭақәа	-13716
▁ринтересқәа	-13717
▁шәрыцхраала	-13718
▁ҳреспублика	-13719
▁адышшыларатә	-13720
▁акрызҵазкуаз	-13721
▁иерусалимтәи	-13722
▁иџьашьатәӡам	-13723
▁патуқәҵарала	-13724
▁дааҟәымҵӡакәа	-13725
▁аҩынҩажәижәаба	-13726
▁илахьеиқәҵагоу	-13727
▁ргәаанагарақәа	-13728
сс	-13729
џы	-13730
ҵи	-13731
▁ю	-13732
лим	-13733
уго	-13734
▁рс	-13735
▁ск	-13736
знеи	-13737
киан	-13738
кӡом	-13739
маҳа	-13740
мшьа	-13741
нары	-13742
ныла	-13743
цәам	-13744
шәҭа	-13745
ҩрра	-13746
ҳәуа	-13747
ҵырц	-13748
ԥагь	-13749
▁08-	-13750
▁135	-13751
▁14.	-13752
▁800	-13753
▁ааз	-13754
▁акт	-13755
▁аӷы	-13756
▁дам	-13757
▁зар	-13758
▁зау	-13759
▁сид	-13760
▁уҿы	-13761
▁шеб	-13762
▁шәз	-13763
амҭеи	-13764
андеи	-13765
емпли	-13766
енциа	-13767
кылоу	-13768
ликәа	-13769
лыхра	-13770
лҭоит	-13771
орцәа	-13772
ратәи	-13773
храҿа	-13774
ыцқьа	-13775
қәҵаҩ	-13776
ҩакра	-13777
ҩрала	-13778
ҿақәа	-13779
ԥшлар	-13780
▁агар	-13781
▁аоке	-13782
▁асад	-13783
▁ауас	-13784
▁гарц	-13785
▁иуаз	-13786
▁ицны	-13787
▁иҵон	-13788
▁нарҭ	-13789
▁узым	-13790
▁улшо	-13791
▁усла	-13792
▁шәим	-13793
бзоура	-13794
гӡакәа	-13795
гӡалар	-13796
едициа	-13797
каанҵа	-13798
уҩцәеи	-13799
хырхәа	-13800
шьҭуан	-13801
▁18.11	-13802
▁абааш	-13803
▁адина	-13804
▁акаба	-13805
▁анроу	-13806
▁ацәыб	-13807
▁аҽыхә	-13808
▁аԥҵан	-13809
▁динам	-13810
▁диуан	-13811
▁зызку	-13812
▁ианҭа	-13813
▁иеиба	-13814
▁изкыз	-13815
▁лхатә	-13816
▁маҷны	-13817
▁хадеи	-13818
▁шәрыц	-13819
▁ҳахьа	-13820
▁ҳәаак	-13821
заашьеи	-13822
истцәеи	-13823
ликаауа	-13824
мариара	-13825
ныҳәала	-13826
рҭынчуа	-13827
шәарала	-13828
қьынгьы	-13829
ҳдыруеи	-13830
▁адәаҿы	-13831
▁алкого	-13832
▁амчқәа	-13833
▁аниаҳа	-13834
▁аулоит	-13835
▁афатәи	-13836
▁ахьчаҩ	-13837
▁ацәымӷ	-13838
▁ашәага	-13839
▁аҩганк	-13840
▁аӷарра	-13841
▁дирҵон	-13842
▁иазкыу	-13843
▁имҩала	-13844
▁ирхылҵ	-13845
▁ихадам	-13846
▁иҟынӡа	-13847
▁лакәын	-13848
▁рызгьы	-13849
▁шәышԥа	-13850
▁ҭахеит	-13851
▁ҳаманы	-13852
хәаԥхьыӡ	-13853
▁абыржәы	-13854
▁акорнет	-13855
▁акәтаӷь	-13856
▁алзыршо	-13857
▁анҳамоу	-13858
▁ахирург	-13859
▁ашәҭшьы	-13860
▁аҭырқәа	-13861
▁аӷбақәа	-13862
▁далихит	-13863
▁даниель	-13864
▁дынхоит	-13865
▁дышԥары	-13866
▁еизарак	-13867
▁еиликаа	-13868
▁иарбану	-13869
▁иеиҳәаз	-13870
▁имаҵуҩы	-13871
▁рашьцәа	-13872
▁рлагала	-13873
▁рцәеижь	-13874
▁рымаӡам	-13875
▁рыуацәа	-13876
▁рыхәҭоу	-13877
▁рыҭареи	-13878
▁рыҽрыла	-13879
▁шенкауа	-13880
▁ҳамчқәа	-13881
▁ҳҽазыҟа	-13882
структура	-13883
▁агәреиба	-13884
▁анцәагьы	-13885
▁аныҳәара	-13886
▁астадион	-13887
▁ахыбраҿы	-13888
▁аҭаԥҟара	-13889
▁бзиаӡаны	-13890
▁зеиԥшраз	-13891
▁иазыԥшуп	-13892
▁иалҵшәоу	-13893
▁инанагӡо	-13894
▁иҟашәҵаз	-13895
▁иҟәымшәы	-13896
▁иҭахызар	-13897
▁ранашьан	-13898
▁ргәырҽан	-13899
▁русуратә	-13900
▁ҳаԥхьоит	-13901
▁арааԥсара	-13902
▁аусԥҟақәа	-13903
▁ахеидкыла	-13904
▁ашьшьыҳәа	-13905
▁дааныжьны	-13906
▁дшәырҵала	-13907
▁есқьынгьы	-13908
▁имҩаԥигаз	-13909
▁инаԥхгара	-13910
▁инымҵәаӡо	-13911
▁иҳахәҭоуп	-13912
▁рааныжьра	-13913
▁ҳгәаҳҽаны	-13914
▁абзазаратә	-13915
▁ажәларқәеи	-13916
▁аиҿкааратә	-13917
▁алабҿабатә	-13918
▁анаԥхгаҩыс	-13919
▁ахьаҳдыруа	-13920
▁аҵарашықәс	-13921
▁библейские	-13922
▁иалагаанӡа	-13923
▁иаҭәашьара	-13924
▁интересқәа	-13925
▁ишьҭанеира	-13926
▁ишԥаҳнарбо	-13927
▁иҭаацәареи	-13928
▁рызныҟәара	-13929
▁рылҵшәақәа	-13930
▁рыҟаҵаразы	-13931
▁ҳазҭагылоу	-13932
▁агәынкылара	-13933
▁апаспортқәа	-13934
▁гәырӷьарыла	-13935
▁зҿлымҳарыла	-13936
▁қәмақаррала	-13937
▁аманшәалареи	-13938
▁дрыцхраауеит	-13939
▁наԥхгараҭара	-13940
▁реилазаараҿы	-13941
▁ҳазхәыцуазар	-13942
▁ҳаԥсҭазаареи	-13943
▁аицәажәарақәа	-13944
▁ҳҳәынҭқаррақәа	-13945
▁иабантәиҳдыруеи	-13946
ии	-13947
баи	-13948
еть	-13949
иам	-13950
кий	-13951
мил	-13952
тны	-13953
унк	-13954
хов	-13955
хыш	-13956
шид	-13957
шин	-13958
қыҭ	-13959
▁05	-13960
▁ем	-13961
анхо	-13962
бӷьы	-13963
иҵон	-13964
кылт	-13965
мика	-13966
мчра	-13967
нтин	-13968
хьит	-13969
шреи	-13970
ылоу	-13971
ӡәӡә	-13972
▁116	-13973
▁138	-13974
▁14-	-13975
▁баҩ	-13976
▁бюд	-13977
▁гаг	-13978
▁иав	-13979
▁ипо	-13980
▁лин	-13981
▁мыс	-13982
▁сиа	-13983
▁сҭа	-13984
▁хыб	-13985
▁шлы	-13986
гаҩыс	-13987
дыраа	-13988
жәжәа	-13989
инқәа	-13990
тәыҩс	-13991
уаҩык	-13992
уроуп	-13993
ченко	-13994
шыбаҩ	-13995
шьқәа	-13996
шәауа	-13997
шәҵар	-13998
ыроуп	-13999
қәреи	-14000
ҩақәа	-14001
ҭалаз	-14002
ҭатәи	-14003
ҳаҵҳа	-14004
ԥагьа	-14005
▁1988	-14006
▁абеи	-14007
▁аира	-14008
▁асср	-14009
▁ахаш	-14010
▁ашша	-14011
▁аҷыр	-14012
▁бзан	-14013
▁бога	-14014
▁дхын	-14015
▁зҵаз	-14016
▁илан	-14017
▁иҵар	-14018
▁реиҩ	-14019
▁шауа	-14020
▁ҳера	-14021
▁ҳрыц	-14022
алырԥш	-14023
галаны	-14024
ижьырц	-14025
ласҭан	-14026
цныҟәа	-14027
цқьала	-14028
шьаҩуп	-14029
ыхәҭоу	-14030
ҩеилас	-14031
ԥсақәа	-14032
▁абдул	-14033
▁амҷба	-14034
▁анзор	-14035
▁апсих	-14036
▁гогиа	-14037
▁дицны	-14038
▁еизир	-14039
▁еилых	-14040
▁иацыз	-14041
▁ирылҵ	-14042
▁ихҭыс	-14043
▁иҭәыз	-14044
▁лхаҭа	-14045
▁репос	-14046
▁росси	-14047
▁сажәа	-14048
▁сцоит	-14049
▁убжьы	-14050
▁фильм	-14051
▁цәырҵ	-14052
▁чкала	-14053
▁шәыԥс	-14054
▁ҭбаау	-14055
▁ҭыԥны	-14056
▁ҳаиқә	-14057
даҳкыло	-14058
дгыланы	-14059
тәалара	-14060
фымцамч	-14061
шәаларц	-14062
шәомызт	-14063
ӡәӡәара	-14064
▁аилкаа	-14065
▁алеира	-14066
▁аныхам	-14067
▁ашәыра	-14068
▁ақәкра	-14069
▁аҳазал	-14070
▁аԥырак	-14071
▁аԥырра	-14072
▁бгаԥса	-14073
▁васили	-14074
▁даҽаӡә	-14075
▁дрыцны	-14076
▁зҭахым	-14077
▁иагьеи	-14078
▁иазхиа	-14079
▁иаҳзаа	-14080
▁иргәаҟ	-14081
▁ирыцҳа	-14082
▁ирҭоит	-14083
▁ирҳәоз	-14084
▁исраил	-14085
▁ихьшәа	-14086
▁ицәшәо	-14087
▁кьылба	-14088
▁мҩаԥыл	-14089
▁ралага	-14090
▁стефан	-14091
▁хьрыԥс	-14092
▁шәагаа	-14093
▁џьансы	-14094
▁ҽҳәара	-14095
ҿцәажәоз	-14096
▁агәамса	-14097
▁адыԥхьа	-14098
▁амацәаз	-14099
▁ахьӡқәа	-14100
▁аҭҟьара	-14101
▁аҳаԥшьа	-14102
▁аҷаԥшьа	-14103
▁аԥслымӡ	-14104
▁итәарҭа	-14105
▁ихацырк	-14106
▁ихьчоит	-14107
▁маҭәарк	-14108
▁раӷацәа	-14109
▁рцәыӡит	-14110
▁рынагӡа	-14111
▁рыҩнқәа	-14112
▁сазхәыц	-14113
▁шьҭибах	-14114
▁шәыҟоуп	-14115
▁ҳалшома	-14116
варгыланы	-14117
хылҵшьҭра	-14118
хьазаргьы	-14119
▁адгьылтә	-14120
▁адраматә	-14121
▁азныказы	-14122
▁азымхара	-14123
▁амаршрут	-14124
▁анашьҭра	-14125
▁апедагог	-14126
▁аркарара	-14127
▁ахимиатә	-14128
▁ацхраара	-14129
▁ацәшәара	-14130
▁ақәылара	-14131
▁аҽхарзза	-14132
▁бзиахоит	-14133
▁иааиуеит	-14134
▁ианиҵеит	-14135
▁иахьанӡа	-14136
▁ижәытәӡа	-14137
▁имарианы	-14138
▁ирыӡбеит	-14139
▁ицәгьоуп	-14140
▁наԥхгаҩы	-14141
▁рыԥсыбаҩ	-14142
▁хархәага	-14143
▁хынраала	-14144
▁шәарҭара	-14145
▁ҟазшьоуп	-14146
▁ҭоурыхтә	-14147
▁ҳалагеит	-14148
▁ҳахьынхо	-14149
гәырӷьаҵәа	-14150
лаҳаршәоит	-14151
қәиргәыӷуа	-14152
қәымгәыӷуа	-14153
▁аконструк	-14154
▁алахьынҵа	-14155
▁армариара	-14156
▁ацклаԥшра	-14157
▁аԥсшьареи	-14158
▁аԥхьараҿы	-14159
▁диазҵааит	-14160
▁еиҩызареи	-14161
▁иажәақәеи	-14162
▁иазгәаҭан	-14163
▁ижәытәӡоу	-14164
▁ирҳаракра	-14165
▁ицхраауан	-14166
▁иқәыӡбара	-14167
▁обиектқәа	-14168
▁рыдгалара	-14169
▁шәыҽӡаашә	-14170
▁ҭаҭласҭан	-14171
▁ҳанхаларц	-14172
▁ҳхаҳмыршҭ	-14173
▁ӷәӷәахоит	-14174
▁адемонцәеи	-14175
▁аизарақәеи	-14176
▁ахьынӡаҭаз	-14177
▁еилукаартә	-14178
▁згәабзиара	-14179
▁иааҳарԥшыр	-14180
▁иаҳнарҵоит	-14181
▁ицхраауеит	-14182
▁џьынџьолиа	-14183
▁афырхаҵареи	-14184
▁удмуртиатәи	-14185
▁ҳҭаацәараҿы	-14186
▁анаркотикқәа	-14187
▁аратификациа	-14188
▁дрыхцәажәеит	-14189
▁изакәанԥҟара	-14190
▁илгәалашәоит	-14191
▁иҳаилиркааит	-14192
▁ҳҽацәаҳахьча	-14193
▁афотосахьақәа	-14194
▁ирзеиҭеиҳәеит	-14195
▁ҭышәынтәалоуп	-14196
▁аинвестициақәа	-14197
▁алахьеиқәҵаратә	-14198
3-	-14199
ҟо	-14200
ӷу	-14201
ине	-14202
иут	-14203
ота	-14204
раж	-14205
ԥшқ	-14206
▁рт	-14207
ирҭа	-14208
наӡа	-14209
сгьы	-14210
ский	-14211
сттә	-14212
суан	-14213
удит	-14214
форд	-14215
хәоу	-14216
хәык	-14217
ҷбеи	-14218
ӡыӡа	-14219
▁111	-14220
▁126	-14221
▁189	-14222
▁абж	-14223
▁аӡб	-14224
▁мел	-14225
▁наи	-14226
▁тәы	-14227
▁хна	-14228
▁ҭыҵ	-14229
▁ҳаҩ	-14230
арина	-14231
вести	-14232
гәаӷь	-14233
елиеи	-14234
есурс	-14235
лозар	-14236
пылра	-14237
цәала	-14238
шәома	-14239
ҳәома	-14240
ҳәҳәо	-14241
▁абот	-14242
▁адеп	-14243
▁аицә	-14244
▁аныз	-14245
▁арца	-14246
▁аҳар	-14247
▁аҿкы	-14248
▁гәыб	-14249
▁дазы	-14250
▁етап	-14251
▁ззеи	-14252
▁иалу	-14253
▁иаӡә	-14254
▁ишын	-14255
▁луан	-14256
▁пара	-14257
▁савл	-14258
▁уреи	-14259
▁шәца	-14260
▁шәша	-14261
▁ыҟоу	-14262
▁ҭаха	-14263
▁ҳшьа	-14264
▁ӡӷаб	-14265
гәарҭа	-14266
еканал	-14267
еллект	-14268
раалак	-14269
хәозар	-14270
ҳалара	-14271
ҳәааит	-14272
ӡацызт	-14273
▁абаҩр	-14274
▁аилан	-14275
▁аиҵар	-14276
▁алҳар	-14277
▁амона	-14278
▁аннеи	-14279
▁апаль	-14280
▁аршан	-14281
▁ацита	-14282
▁аҩнеи	-14283
▁газеҭ	-14284
▁дазха	-14285
▁зҽала	-14286
▁иаага	-14287
▁ианиз	-14288
▁ирлас	-14289
▁лабжь	-14290
▁лашьа	-14291
▁рзаҳа	-14292
▁рутер	-14293
▁силеи	-14294
▁хырҩа	-14295
▁цырак	-14296
▁чечен	-14297
▁шебзы	-14298
▁шимаз	-14299
▁ҭыжьы	-14300
▁ҳариа	-14301
▁ҳашба	-14302
▁ҳнаӡа	-14303
анӡатәи	-14304
гылазар	-14305
лхрақәа	-14306
онатқәа	-14307
ссаџьыр	-14308
хынҳәны	-14309
цәақәак	-14310
шәымҵан	-14311
ырҭақәа	-14312
ҵанаҳәо	-14313
ҵаӡакәа	-14314
ҷаҳауаз	-14315
▁азоужь	-14316
▁аколле	-14317
▁аниуаз	-14318
▁аниҳәа	-14319
▁ахсара	-14320
▁ашоура	-14321
▁бзанҵы	-14322
▁гәцара	-14323
▁дибоит	-14324
▁динамо	-14325
▁жәҩани	-14326
▁зыбжьы	-14327
▁зылшоз	-14328
▁иаанам	-14329
▁ианааи	-14330
▁ириааи	-14331
▁ирылоу	-14332
▁ирҳәон	-14333
▁ирҵара	-14334
▁ихраҿа	-14335
▁ишьҭит	-14336
▁иқәӡаа	-14337
▁иҭадыр	-14338
▁иԥсыҽу	-14339
▁ргьама	-14340
▁рублей	-14341
▁узҳәом	-14342
▁усуреи	-14343
▁учения	-14344
▁ханаан	-14345
▁шәҩыла	-14346
▁ҳҭахын	-14347
▁ԥарала	-14348
артамент	-14349
гылахьоу	-14350
натәуеит	-14351
ныҟәозар	-14352
шәҟәқәеи	-14353
қәшәазар	-14354
▁азинқәа	-14355
▁азхаӡом	-14356
▁аизгатә	-14357
▁аномина	-14358
▁апрезен	-14359
▁ахдырра	-14360
▁ашәарҭа	-14361
▁аҭыԥаҿы	-14362
▁аӡбаҩыс	-14363
▁аӡынтәи	-14364
▁бибилов	-14365
▁еизшәыр	-14366
▁иршьоит	-14367
▁иуаххьа	-14368
▁иулшома	-14369
▁иҟаҵара	-14370
▁рнапқәа	-14371
▁рымшала	-14372
▁рышьҭра	-14373
▁шыҟамло	-14374
▁шьапыла	-14375
▁шьҭыхны	-14376
▁ԥшӡақәа	-14377
цәажәалар	-14378
ӷьеишьеит	-14379
▁аилаҳара	-14380
▁аиҵахара	-14381
▁алашьҭра	-14382
▁анааилак	-14383
▁арӡынбеи	-14384
▁ауҭраҭых	-14385
▁афранцыз	-14386
▁ахаҳәқәа	-14387
▁аԥҟаԥҵәа	-14388
▁еиӷьхоит	-14389
▁зҽацәызы	-14390
▁иаҟәыҵит	-14391
▁изымӡырҩ	-14392
▁икьыԥхьу	-14393
▁иуԥылоит	-14394
▁кырӡагьы	-14395
▁маҵзуреи	-14396
▁налаҵаны	-14397
▁рбагақәа	-14398
▁хархәара	-14399
▁цахнакиа	-14400
▁џьансыхә	-14401
▁ҭакԥхықә	-14402
▁ҳалагоит	-14403
лкаауамызт	-14404
▁аангылара	-14405
▁акьыԥхьра	-14406
▁алагалоуп	-14407
▁аргьежьра	-14408
▁афильмқәа	-14409
▁ацәаӷәара	-14410
▁гәакьақәа	-14411
▁дааишьҭит	-14412
▁еилышәкаа	-14413
▁иазырханы	-14414
▁иазыԥҵәоу	-14415
▁иаҳирбеит	-14416
▁ханаантәи	-14417
▁шықәсатәи	-14418
зыманшәалоу	-14419
▁абиуџьеттә	-14420
▁акиносахьа	-14421
▁арзаҳалқәа	-14422
▁астратегиа	-14423
▁ахаҭарақәа	-14424
▁ацәҳәыраҿы	-14425
▁даныхәыҷыз	-14426
▁игәырӷьара	-14427
▁имҩақәҵара	-14428
▁ишԥаныруеи	-14429
▁крызҵазкуа	-14430
▁публикациа	-14431
▁реилыргара	-14432
▁рҽаладырхә	-14433
▁хамеигӡара	-14434
▁аланарҵәеит	-14435
▁амармалташь	-14436
▁дыззымдыруа	-14437
▁иашәырхәала	-14438
▁игәырӷьаҵәа	-14439
▁иҭаацәараҿы	-14440
▁шәҽазышәшәа	-14441
▁шԥамҩаԥигеи	-14442
▁аиҿкаарақәеи	-14443
▁атрадициақәа	-14444
▁дызлацәажәоз	-14445
▁аҳәынҭқарраҿы	-14446
▁дақәшаҳаҭхеит	-14447
▁интеллигенциа	-14448
▁ашәҭшьыҵәрақәа	-14449
лху	-14450
рга	-14451
сак	-14452
сҩы	-14453
тех	-14454
хаҩ	-14455
ҭит	-14456
▁79	-14457
▁шв	-14458
бжьо	-14459
бора	-14460
есар	-14461
есиа	-14462
кәын	-14463
лица	-14464
лҵны	-14465
нова	-14466
опиа	-14467
отор	-14468
риеи	-14469
усин	-14470
фани	-14471
цион	-14472
шага	-14473
ыргы	-14474
ҟәаԥ	-14475
ҳҵар	-14476
ҵыра	-14477
▁аге	-14478
▁был	-14479
▁дзи	-14480
▁заб	-14481
▁мих	-14482
▁оон	-14483
▁рҽы	-14484
▁ура	-14485
▁фба	-14486
▁ҳәы	-14487
дагьы	-14488
дырам	-14489
ионал	-14490
кылом	-14491
лозеи	-14492
мырха	-14493
сырҭа	-14494
уларц	-14495
хларц	-14496
хыҵуа	-14497
шанхо	-14498
шәхла	-14499
ҟаҵар	-14500
ҵашьа	-14501
ҿыхра	-14502
ԥымло	-14503
▁ааба	-14504
▁абом	-14505
▁акос	-14506
▁архь	-14507
▁афин	-14508
▁ахьу	-14509
▁аҩын	-14510
▁аҭра	-14511
▁еиха	-14512
▁еиҿи	-14513
▁емма	-14514
▁зона	-14515
▁иалх	-14516
▁изҳа	-14517
▁онла	-14518
▁перс	-14519
▁расс	-14520
▁роур	-14521
▁рхьы	-14522
▁сери	-14523
▁сыгә	-14524
▁сыԥс	-14525
▁хьыр	-14526
▁шыры	-14527
▁шәоу	-14528
▁џьыр	-14529
гәдууп	-14530
даратә	-14531
ирхеит	-14532
ирхәоз	-14533
ларшәо	-14534
тәразы	-14535
ццакуа	-14536
шьаӡом	-14537
шәырҵо	-14538
ыргарц	-14539
ҭқарра	-14540
ҵәахуа	-14541
ԥалара	-14542
▁аадыр	-14543
▁аазго	-14544
▁абхаз	-14545
▁азқьы	-14546
▁аилым	-14547
▁актри	-14548
▁амара	-14549
▁ауреи	-14550
▁ашьам	-14551
▁аҽеиҩ	-14552
▁аӡыхь	-14553
▁даниз	-14554
▁даҿын	-14555
▁дыԥха	-14556
▁еиҿаҳ	-14557
▁зхымҵ	-14558
▁иалаҳ	-14559
▁иеила	-14560
▁иоума	-14561
▁ирыма	-14562
▁иқәыз	-14563
▁иҭага	-14564
▁иҽала	-14565
▁иԥхас	-14566
▁канди	-14567
▁мураҭ	-14568
▁рашид	-14569
▁сҳәан	-14570
▁шәыҟа	-14571
▁ҭалаз	-14572
▁ҳагба	-14573
▁ҳазну	-14574
аирԥшыз	-14575
графиеи	-14576
дициатә	-14577
енгелиа	-14578
каароуп	-14579
мзароуп	-14580
ҿлымҳау	-14581
ԥхьаӡоу	-14582
▁аиуреи	-14583
▁анаара	-14584
▁асезон	-14585
▁атитул	-14586
▁ашәқәа	-14587
▁ақәкны	-14588
▁аҭаҩра	-14589
▁аҳәыҳә	-14590
▁аҷаԥшь	-14591
▁велико	-14592
▁дахьын	-14593
▁доллар	-14594
▁дыбзиа	-14595
▁еиздыр	-14596
▁зхатәы	-14597
▁иалхны	-14598
▁иаҩыза	-14599
▁имҩаҿы	-14600
▁иҟазҵо	-14601
▁иҭакыз	-14602
▁лҵшәас	-14603
▁музыка	-14604
▁нхарҭа	-14605
▁рыцура	-14606
▁рыԥсра	-14607
▁уадаҩу	-14608
▁шәымаз	-14609
▁шәҟәуп	-14610
▁қьиара	-14611
▁ҟарҵар	-14612
▁ҿҳәара	-14613
▁ӡбаҩыс	-14614
[...]
