<unk>	0
<s>	0
</s>	0
▁п	-0
▁с	-1
▁в	-2
▁,	-3
▁и	-4
▁н	-5
ст	-6
▁.	-7
ни	-8
▁о	-9
то	-10
ра	-11
но	-12
го	-13
ре	-14
ро	-15
▁к	-16
ли	-17
▁по	-18
ть	-19
▁м	-20
▁б	-21
▁д	-22
▁на	-23
ва	-24
те	-25
ри	-26
ны	-27
ко	-28
во	-29
ле	-30
ла	-31
ве	-32
▁ч	-33
▁а	-34
за	-35
та	-36
ль	-37
на	-38
ло	-39
▁не	-40
да	-41
де	-42
ся	-43
▁у	-44
ка	-45
ем	-46
▁1	-47
ет	-48
▁ко	-49
▁ра	-50
ен	-51
▁:	-52
▁со	-53
его	-54
ки	-55
ми	-56
ти	-57
ви	-58
▁за	-59
ени	-60
▁что	-61
ди	-62
ру	-63
▁про	-64
▁ка	-65
▁при	-66
ер	-67
▁э	-68
▁во	-69
▁от	-70
▁«	-71
▁»	-72
мо	-73
ля	-74
сти	-75
▁об	-76
жи	-77
ес	-78
▁)	-79
▁го	-80
▁то	-81
по	-82
ха	-83
ча	-84
▁бо	-85
чи	-86
же	-87
▁2	-88
зи	-89
до	-90
хо	-91
▁мо	-92
га	-93
▁(	-94
▁пре	-95
лу	-96
▁?	-97
сть	-98
▁до	-99
ный	-100
▁из	-101
ци	-102
ма	-103
бо	-104
ры	-105
▁бы	-106
▁т	-107
ние	-108
ду	-109
▁аб	-110
▁г	-111
лю	-112
не	-113
ста	-114
ис	-115
▁вы	-116
ться	-117
▁это	-118
ния	-119
▁ре	-120
ши	-121
си	-122
▁как	-123
тель	-124
вы	-125
▁та	-126
ме	-127
се	-128
сто	-129
▁те	-130
ско	-131
ну	-132
▁мы	-133
▁з	-134
▁абха	-135
сь	-136
▁де	-137
му	-138
▁@	-139
-@	-140
▁@-@	-141
ня	-142
▁сво	-143
▁е	-144
ги	-145
ере	-146
▁иего	-147
ного	-148
▁—	-149
щи	-150
▁кото	-151
ной	-152
▁он	-153
▁лю	-154
▁раз	-155
са	-156
ше	-157
▁ва	-158
▁но	-159
ба	-160
▁ми	-161
ют	-162
ку	-163
жно	-164
▁под	-165
▁ве	-166
▁да	-167
сп	-168
бли	-169
ря	-170
ест	-171
▁я	-172
ных	-173
бы	-174
ение	-175
▁его	-176
со	-177
ту	-178
▁ста	-179
▁ма	-180
▁3	-181
ему	-182
▁ф	-183
▁бу	-184
▁ни	-185
▁ли	-186
▁абхази	-187
ша	-188
ные	-189
▁са	-190
ей	-191
су	-192
каза	-193
жа	-194
вать	-195
гда	-196
ца	-197
▁все	-198
ву	-199
вен	-200
▁–	-201
▁ро	-202
▁жи	-203
гу	-204
ения	-205
ство	-206
па	-207
▁слу	-208
▁су	-209
▁х	-210
зо	-211
▁ме	-212
спо	-213
ски	-214
▁которы	-215
▁дру	-216
ты	-217
мен	-218
зы	-219
би	-220
вер	-221
▁па	-222
ды	-223
▁иис	-224
▁так	-225
▁пере	-226
▁иису	-227
▁пос	-228
сс	-229
бе	-230
вле	-231
чес	-232
▁пред	-233
▁они	-234
▁воз	-235
ность	-236
▁;	-237
ется	-238
▁же	-239
▁хо	-240
▁би	-241
▁для	-242
▁пра	-243
мы	-244
ща	-245
тся	-246
▁4	-247
▁чтобы	-248
ным	-249
лей	-250
▁или	-251
▁се	-252
▁си	-253
це	-254
ции	-255
▁нас	-256
▁помо	-257
▁ст	-258
мя	-259
▁ви	-260
зна	-261
ное	-262
если	-263
ства	-264
▁абхазии	-265
про	-266
▁если	-267
вля	-268
▁когда	-269
ствен	-270
▁ле	-271
▁их	-272
▁5	-273
лы	-274
бра	-275
мер	-276
вя	-277
дет	-278
▁зна	-279
▁сло	-280
▁иегова	-281
пре	-282
▁ду	-283
▁вре	-284
ень	-285
сту	-286
убли	-287
▁му	-288
че	-289
▁че	-290
▁ру	-291
▁од	-292
пи	-293
▁нам	-294
▁бе	-295
ще	-296
нии	-297
ан	-298
лся	-299
лове	-300
ден	-301
▁кон	-302
ходи	-303
▁библи	-304
▁наро	-305
кой	-306
▁бога	-307
▁ин	-308
ном	-309
ющи	-310
вори	-311
нима	-312
▁жиз	-313
▁сто	-314
▁бла	-315
▁хри	-316
▁кто	-317
▁20	-318
▁респ	-319
▁республи	-320
ков	-321
ху	-322
ности	-323
▁свои	-324
пе	-325
▁6	-326
▁вс	-327
▁сказа	-328
ке	-329
пра	-330
▁19	-331
об	-332
чест	-333
▁поч	-334
дя	-335
▁10	-336
▁!	-337
тя	-338
▁челове	-339
лись	-340
▁иисус	-341
гра	-342
жда	-343
▁рабо	-344
дь	-345
жен	-346
▁бра	-347
дар	-348
вание	-349
▁мож	-350
▁ты	-351
жде	-352
ского	-353
ная	-354
стра	-355
▁ку	-356
йте	-357
▁им	-358
лько	-359
ской	-360
▁благо	-361
дей	-362
▁ну	-363
▁которые	-364
▁7	-365
▁дол	-366
▁пер	-367
▁после	-368
▁боль	-369
▁ио	-370
нь	-371
бу	-372
бя	-373
вь	-374
▁обра	-375
▁будет	-376
гла	-377
▁было	-378
чески	-379
▁стра	-380
▁ос	-381
▁ца	-382
вет	-383
▁гла	-384
▁был	-385
мот	-386
сси	-387
пу	-388
▁говори	-389
▁также	-390
▁8	-391
ети	-392
▁расс	-393
▁15	-394
▁суху	-395
зыва	-396
рия	-397
ск	-398
▁ча	-399
▁12	-400
вой	-401
▁11	-402
▁9	-403
▁други	-404
▁почему	-405
▁абхаз	-406
шь	-407
стви	-408
▁республики	-409
стоя	-410
ком	-411
он	-412
зу	-413
▁того	-414
тов	-415
стре	-416
ска	-417
▁иеговы	-418
чита	-419
дни	-420
ром	-421
ную	-422
иса	-423
дер	-424
▁абхазия	-425
▁бог	-426
▁ш	-427
▁уча	-428
▁том	-429
ными	-430
▁время	-431
тели	-432
▁пу	-433
теля	-434
▁буду	-435
▁ор	-436
рен	-437
▁библии	-438
▁собра	-439
▁отно	-440
ении	-441
▁ц	-442
▁госу	-443
щест	-444
▁испо	-445
▁свя	-446
▁14	-447
ются	-448
она	-449
чь	-450
ция	-451
рова	-452
▁13	-453
▁государ	-454
▁зем	-455
▁сем	-456
нов	-457
ор	-458
▁ему	-459
тому	-460
телей	-461
▁вер	-462
▁сер	-463
▁вопро	-464
чно	-465
▁прези	-466
ский	-467
▁ба	-468
▁предста	-469
ству	-470
лось	-471
вый	-472
▁эти	-473
▁президен	-474
тив	-475
жду	-476
▁дела	-477
ров	-478
лен	-479
▁сле	-480
▁этом	-481
▁встре	-482
▁может	-483
▁ап	-484
▁лу	-485
▁нужно	-486
▁цар	-487
▁сухум	-488
▁слова	-489
ге	-490
▁христи	-491
фи	-492
ник	-493
▁ар	-494
▁спо	-495
ний	-496
лия	-497
▁ту	-498
▁оста	-499
▁орга	-500
▁чем	-501
▁служ	-502
▁сказал	-503
▁ха	-504
▁16	-505
▁быть	-506
аль	-507
▁17	-508
▁людей	-509
дно	-510
сы	-511
▁оч	-512
▁мини	-513
кие	-514
▁га	-515
▁иегове	-516
▁были	-517
▁возмо	-518
▁роди	-519
▁тем	-520
▁она	-521
▁отк	-522
▁года	-523
нам	-524
▁18	-525
води	-526
дин	-527
сны	-528
рой	-529
чение	-530
фе	-531
▁служи	-532
том	-533
хов	-534
▁ал	-535
▁росси	-536
▁&	-537
▁есть	-538
виде	-539
▁можно	-540
▁ан	-541
▁лет	-542
▁наши	-543
▁который	-544
▁них	-545
▁только	-546
▁одна	-547
ника	-548
рии	-549
▁зако	-550
ев	-551
вали	-552
▁проя	-553
▁чу	-554
▁мно	-555
▁само	-556
кого	-557
▁апсны	-558
▁жизни	-559
▁дея	-560
вания	-561
дела	-562
▁нача	-563
▁возможно	-564
рь	-565
тельно	-566
▁иисуса	-567
▁ав	-568
блей	-569
▁между	-570
▁вла	-571
▁наш	-572
▁бес	-573
▁тре	-574
вал	-575
▁любо	-576
▁поэ	-577
▁фи	-578
▁ю	-579
▁ее	-580
▁исти	-581
нный	-582
▁совер	-583
кое	-584
▁без	-585
нуть	-586
ваться	-587
▁органи	-588
▁поз	-589
казыва	-590
▁люди	-591
▁учи	-592
тия	-593
лась	-594
пресс	-595
▁жизнь	-596
шения	-597
вить	-598
▁мен	-599
лом	-600
жь	-601
▁много	-602
▁апсныпресс	-603
гут	-604
пове	-605
▁полу	-606
сте	-607
▁кро	-608
▁ла	-609
нию	-610
▁тру	-611
▁себя	-612
хи	-613
▁боле	-614
▁тех	-615
▁изу	-616
нять	-617
▁стать	-618
▁сре	-619
рес	-620
род	-621
▁вас	-622
тра	-623
▁объ	-624
ских	-625
▁государствен	-626
▁сове	-627
▁народ	-628
▁над	-629
▁минист	-630
▁мин	-631
▁день	-632
▁каж	-633
при	-634
▁ис	-635
чени	-636
▁ж	-637
▁семь	-638
▁алла	-639
шен	-640
▁будут	-641
▁этого	-642
▁язы	-643
▁испол	-644
пле	-645
▁тво	-646
зин	-647
зда	-648
лан	-649
▁очень	-650
торы	-651
ек	-652
▁сы	-653
▁еще	-654
▁обсу	-655
▁ди	-656
тор	-657
чный	-658
хра	-659
мотри	-660
▁доб	-661
▁исто	-662
дня	-663
шение	-664
▁вой	-665
нить	-666
▁пар	-667
▁прои	-668
▁рай	-669
▁уже	-670
▁руко	-671
мени	-672
▁брать	-673
кло	-674
нием	-675
ней	-676
▁-	-677
▁иоан	-678
▁многи	-679
▁ад	-680
льту	-681
▁кре	-682
▁даже	-683
▁пи	-684
▁согла	-685
▁всем	-686
▁сего	-687
▁прави	-688
▁вз	-689
▁гра	-690
кра	-691
кре	-692
▁201	-693
▁сдела	-694
вно	-695
льно	-696
▁культу	-697
бря	-698
▁чи	-699
▁аба	-700
вши	-701
▁сегодня	-702
▁це	-703
▁вам	-704
▁любовь	-705
▁мат	-706
ез	-707
▁пло	-708
▁меня	-709
▁сооб	-710
▁больше	-711
▁духов	-712
вод	-713
▁&#	-714
▁неко	-715
▁богу	-716
▁уве	-717
чения	-718
▁гу	-719
▁пропове	-720
▁узна	-721
▁моли	-722
▁абз	-723
вил	-724
▁пе	-725
ям	-726
▁поэтому	-727
чу	-728
веде	-729
мба	-730
▁более	-731
пы	-732
▁посту	-733
пол	-734
▁своих	-735
соб	-736
мети	-737
▁всех	-738
▁серд	-739
▁человек	-740
▁инте	-741
▁долж	-742
дов	-743
▁ло	-744
дом	-745
писа	-746
▁была	-747
жение	-748
▁следу	-749
ерт	-750
тно	-751
▁помога	-752
сно	-753
▁име	-754
▁созда	-755
▁исп	-756
▁ша	-757
▁рас	-758
▁моло	-759
▁могут	-760
▁21	-761
вает	-762
▁году	-763
льный	-764
сты	-765
ские	-766
▁фе	-767
▁&#9	-768
фор	-769
▁разви	-770
шей	-771
▁необ	-772
вых	-773
▁поддер	-774
седа	-775
▁некоторы	-776
▁гру	-777
лек	-778
▁свою	-779
▁́	-780
▁вели	-781
жать	-782
▁сот	-783
рт	-784
вел	-785
▁виде	-786
▁пол	-787
▁которо	-788
▁нау	-789
дра	-790
▁этот	-791
ников	-792
тие	-793
слу	-794
▁пла	-795
▁ско	-796
▁него	-797
▁тер	-798
шо	-799
▁пример	-800
▁подо	-801
▁люби	-802
сло	-803
▁мне	-804
▁обо	-805
▁хоро	-806
ван	-807
вед	-808
▁своей	-809
▁22	-810
▁ак	-811
▁сторо	-812
▁организа	-813
цы	-814
щен	-815
рта	-816
дить	-817
нес	-818
▁народа	-819
ак	-820
▁образо	-821
вые	-822
рок	-823
вление	-824
▁приня	-825
▁важно	-826
▁однако	-827
▁госпо	-828
рей	-829
джи	-830
ким	-831
▁необходи	-832
нее	-833
▁проявля	-834
▁можем	-835
▁ти	-836
▁божь	-837
чить	-838
▁собрания	-839
▁отмети	-840
▁жен	-841
зан	-842
ском	-843
ющ	-844
тей	-845
▁цен	-846
▁других	-847
▁нет	-848
▁ри	-849
▁гре	-850
гово	-851
▁бли	-852
▁отве	-853
▁24	-854
шени	-855
▁луч	-856
▁чув	-857
три	-858
жет	-859
ете	-860
▁помощ	-861
▁библей	-862
▁наде	-863
вления	-864
▁христиа	-865
тить	-866
▁тра	-867
пис	-868
▁свиде	-869
бле	-870
▁писа	-871
▁эк	-872
ходя	-873
ких	-874
кую	-875
▁президент	-876
▁всего	-877
сла	-878
стро	-879
▁сата	-880
▁25	-881
▁кни	-882
чества	-883
чен	-884
ники	-885
▁смер	-886
▁сест	-887
вая	-888
▁23	-889
ющий	-890
▁ком	-891
нение	-892
▁представи	-893
мина	-894
ерк	-895
ках	-896
чать	-897
зе	-898
мента	-899
йти	-900
▁рау	-901
▁жела	-902
▁мог	-903
▁участи	-904
вича	-905
▁оте	-906
тельный	-907
▁пет	-908
цию	-909
стано	-910
▁этой	-911
▁должны	-912
нен	-913
▁горо	-914
раи	-915
рая	-916
▁христиан	-917
прия	-918
▁шко	-919
▁ев	-920
▁вме	-921
лов	-922
вого	-923
▁добро	-924
▁земле	-925
▁поли	-926
▁своего	-927
▁откры	-928
▁перед	-929
циаль	-930
▁один	-931
ровать	-932
дол	-933
цион	-934
▁пока	-935
▁случа	-936
▁ним	-937
▁где	-938
стве	-939
стя	-940
▁друго	-941
▁ок	-942
ложи	-943
▁израи	-944
пас	-945
тать	-946
▁кор	-947
▁радо	-948
▁хотя	-949
ствовать	-950
кий	-951
ман	-952
▁хаджи	-953
▁расп	-954
▁детей	-955
▁учени	-956
▁буде	-957
ческий	-958
вом	-959
лага	-960
▁хаджимба	-961
▁иегову	-962
стью	-963
яс	-964
щение	-965
рату	-966
▁сов	-967
ному	-968
▁коми	-969
▁стал	-970
кая	-971
▁потому	-972
шел	-973
▁смо	-974
ющие	-975
▁прочита	-976
тельства	-977
▁пес	-978
▁какие	-979
ющих	-980
▁тогда	-981
▁дей	-982
▁общест	-983
▁тот	-984
▁30	-985
нения	-986
▁..	-987
▁россий	-988
пер	-989
тери	-990
▁помощь	-991
▁кра	-992
▁обла	-993
▁прит	-994
▁человека	-995
ливо	-996
от	-997
ждения	-998
бира	-999
▁кроме	-1000
цу	-1001
▁междуна	-1002
нем	-1003
ональ	-1004
▁праз	-1005
▁своим	-1006
▁многие	-1007
мыш	-1008
▁обе	-1009
ностью	-1010
▁зада	-1011
▁призна	-1012
▁осно	-1013
вка	-1014
▁сохра	-1015
ждение	-1016
▁вопросы	-1017
цо	-1018
рудни	-1019
лем	-1020
▁абазин	-1021
▁благода	-1022
нет	-1023
дера	-1024
▁людя	-1025
▁говорится	-1026
▁международ	-1027
▁свобо	-1028
дро	-1029
▁внима	-1030
▁тур	-1031
сить	-1032
ую	-1033
▁мир	-1034
▁спе	-1035
▁апо	-1036
ствия	-1037
▁неза	-1038
чество	-1039
тер	-1040
▁мира	-1041
▁/	-1042
спе	-1043
тем	-1044
▁род	-1045
▁побе	-1046
тельство	-1047
▁парла	-1048
▁счита	-1049
▁понима	-1050
▁молит	-1051
ление	-1052
▁прош	-1053
рить	-1054
▁некоторые	-1055
дова	-1056
▁всегда	-1057
кла	-1058
лить	-1059
▁сотрудни	-1060
чет	-1061
▁глав	-1062
▁апосто	-1063
▁сра	-1064
клю	-1065
▁вот	-1066
▁сти	-1067
▁деле	-1068
▁относи	-1069
емо	-1070
кто	-1071
логи	-1072
льзо	-1073
▁необходимо	-1074
00	-1075
▁тыся	-1076
▁участие	-1077
▁продол	-1078
▁слуша	-1079
ит	-1080
▁муж	-1081
ская	-1082
ят	-1083
▁побу	-1084
▁павел	-1085
▁обя	-1086
▁...	-1087
▁тебе	-1088
▁коне	-1089
▁смотри	-1090
вра	-1091
вест	-1092
▁неб	-1093
▁отметил	-1094
▁президента	-1095
преде	-1096
▁сча	-1097
▁фа	-1098
▁мар	-1099
▁себе	-1100
▁веру	-1101
фа	-1102
сколько	-1103
жения	-1104
▁какой	-1105
▁говорит	-1106
▁год	-1107
▁состоя	-1108
▁воск	-1109
▁испы	-1110
▁которых	-1111
шего	-1112
▁тебя	-1113
▁выра	-1114
▁ки	-1115
▁28	-1116
казал	-1117
ходит	-1118
ческой	-1119
чает	-1120
менно	-1121
▁полити	-1122
▁ию	-1123
▁спра	-1124
▁чере	-1125
ья	-1126
▁меро	-1127
▁нико	-1128
нных	-1129
зя	-1130
▁мест	-1131
▁дву	-1132
▁мероприя	-1133
вич	-1134
ению	-1135
▁подоб	-1136
▁председа	-1137
▁р	-1138
▁должно	-1139
▁26	-1140
▁стро	-1141
▁кажды	-1142
тре	-1143
▁забо	-1144
▁важ	-1145
▁ска	-1146
▁заме	-1147
щее	-1148
▁работа	-1149
пример	-1150
▁подра	-1151
▁аллах	-1152
вести	-1153
ших	-1154
пла	-1155
▁людям	-1156
▁россии	-1157
▁проро	-1158
довать	-1159
▁например	-1160
мини	-1161
▁чис	-1162
▁ведь	-1163
▁христа	-1164
▁опреде	-1165
▁соб	-1166
чествен	-1167
▁ге	-1168
▁защи	-1169
▁самы	-1170
▁деятель	-1171
тро	-1172
ять	-1173
нно	-1174
фея	-1175
дать	-1176
▁израиль	-1177
ческих	-1178
▁покло	-1179
▁совершен	-1180
▁эко	-1181
▁укре	-1182
сов	-1183
▁мыс	-1184
рий	-1185
▁чему	-1186
есси	-1187
▁рауль	-1188
▁вместе	-1189
▁уни	-1190
телем	-1191
▁голо	-1192
бой	-1193
▁фо	-1194
вое	-1195
▁дет	-1196
туа	-1197
▁иоанна	-1198
емы	-1199
▁настоя	-1200
вым	-1201
▁матери	-1202
▁пробле	-1203
▁око	-1204
▁слово	-1205
министра	-1206
▁бро	-1207
▁вои	-1208
▁вто	-1209
▁гражда	-1210
▁через	-1211
щий	-1212
▁сте	-1213
▁тому	-1214
ступле	-1215
▁прекра	-1216
▁дума	-1217
льзу	-1218
ешь	-1219
ход	-1220
▁вос	-1221
шать	-1222
▁занима	-1223
форма	-1224
▁другие	-1225
▁среди	-1226
нами	-1227
тый	-1228
▁памя	-1229
шить	-1230
▁которая	-1231
▁ожи	-1232
▁произ	-1233
▁администра	-1234
▁ответ	-1235
▁федера	-1236
нд	-1237
емся	-1238
▁обу	-1239
вайте	-1240
▁старей	-1241
▁благодаря	-1242
▁сла	-1243
▁неу	-1244
▁посвя	-1245
▁причи	-1246
▁27	-1247
▁иск	-1248
▁доро	-1249
▁сердце	-1250
ческого	-1251
смот	-1252
▁199	-1253
▁свое	-1254
▁старейши	-1255
▁либо	-1256
▁женщи	-1257
▁ог	-1258
▁сам	-1259
ления	-1260
▁наци	-1261
кры	-1262
▁матфея	-1263
▁тя	-1264
▁руководи	-1265
▁соста	-1266
▁рим	-1267
ись	-1268
▁гово	-1269
▁пов	-1270
▁лучше	-1271
▁каждый	-1272
▁послед	-1273
▁явля	-1274
▁небес	-1275
▁бого	-1276
жу	-1277
мни	-1278
▁истори	-1279
ением	-1280
вид	-1281
▁ува	-1282
▁конг	-1283
▁обществен	-1284
▁находи	-1285
▁принима	-1286
тября	-1287
▁вра	-1288
▁осо	-1289
▁жить	-1290
▁кого	-1291
▁влади	-1292
▁напра	-1293
воз	-1294
▁приме	-1295
▁высо	-1296
▁веч	-1297
лый	-1298
▁убе	-1299
▁луки	-1300
▁работы	-1301
▁ней	-1302
▁глава	-1303
▁обеща	-1304
▁поло	-1305
▁упра	-1306
той	-1307
тный	-1308
грам	-1309
▁сред	-1310
▁позво	-1311
▁ху	-1312
▁там	-1313
▁делать	-1314
нци	-1315
▁нем	-1316
▁эта	-1317
▁проек	-1318
▁библия	-1319
▁кол	-1320
▁вопрос	-1321
номи	-1322
али	-1323
влен	-1324
телям	-1325
▁друг	-1326
▁подго	-1327
▁абхазо	-1328
нул	-1329
телями	-1330
▁мень	-1331
▁рели	-1332
▁участ	-1333
▁посе	-1334
▁дня	-1335
рение	-1336
▁министр	-1337
▁пса	-1338
▁место	-1339
▁смотрите	-1340
▁29	-1341
▁ино	-1342
▁алек	-1343
▁назна	-1344
▁праздни	-1345
стей	-1346
▁несо	-1347
▁свой	-1348
бор	-1349
ств	-1350
▁сей	-1351
▁люб	-1352
ствие	-1353
тий	-1354
вают	-1355
ур	-1356
лик	-1357
▁имени	-1358
гля	-1359
лять	-1360
пать	-1361
▁дома	-1362
▁друз	-1363
нуться	-1364
▁нашей	-1365
мся	-1366
▁рублей	-1367
▁проводи	-1368
3;	-1369
▁пода	-1370
▁&#93;	-1371
1;	-1372
▁подч	-1373
▁&#91;	-1374
▁абхазского	-1375
оне	-1376
▁недо	-1377
дума	-1378
▁значи	-1379
щего	-1380
нут	-1381
▁войны	-1382
▁глу	-1383
▁информа	-1384
рито	-1385
▁уче	-1386
сле	-1387
▁право	-1388
тета	-1389
лли	-1390
▁которое	-1391
▁иса	-1392
шие	-1393
▁пове	-1394
пло	-1395
виться	-1396
▁просто	-1397
▁поможет	-1398
ряд	-1399
обра	-1400
щения	-1401
▁образом	-1402
щей	-1403
ём	-1404
цен	-1405
▁рам	-1406
виси	-1407
▁восп	-1408
▁жерт	-1409
▁стали	-1410
▁кру	-1411
▁парламента	-1412
▁меньше	-1413
▁религи	-1414
▁руковод	-1415
▁террито	-1416
▁предо	-1417
▁вся	-1418
▁братья	-1419
проси	-1420
▁успе	-1421
▁экономи	-1422
▁наших	-1423
▁весть	-1424
ёт	-1425
собен	-1426
▁затем	-1427
▁прочитайте	-1428
мент	-1429
доро	-1430
▁близ	-1431
пить	-1432
▁тоже	-1433
▁отношения	-1434
вляет	-1435
▁матф	-1436
▁ситуа	-1437
▁встреча	-1438
ница	-1439
▁времени	-1440
▁умер	-1441
чил	-1442
дан	-1443
▁пс	-1444
▁зло	-1445
▁совет	-1446
ответ	-1447
вар	-1448
▁груп	-1449
шли	-1450
▁имя	-1451
твер	-1452
▁закон	-1453
▁преду	-1454
▁объяс	-1455
казывает	-1456
час	-1457
▁стара	-1458
▁любви	-1459
▁района	-1460
▁соответ	-1461
▁нео	-1462
шении	-1463
▁будем	-1464
▁моис	-1465
▁гор	-1466
▁ними	-1467
▁израильтя	-1468
фо	-1469
дит	-1470
▁чет	-1471
▁лите	-1472
▁тысяч	-1473
▁говоря	-1474
▁культур	-1475
▁сми	-1476
▁встречи	-1477
▁никогда	-1478
носи	-1479
▁уго	-1480
дели	-1481
▁изучение	-1482
no	-1483
▁no	-1484
сер	-1485
▁мире	-1486
казать	-1487
▁другим	-1488
▁сатана	-1489
▁авто	-1490
▁поздра	-1491
▁гото	-1492
стой	-1493
▁чего	-1494
▁помочь	-1495
ква	-1496
▁осу	-1497
▁сделать	-1498
▁диа	-1499
▁три	-1500
▁проис	-1501
вается	-1502
▁против	-1503
жды	-1504
ством	-1505
▁которой	-1506
▁абхазской	-1507
▁отме	-1508
▁реши	-1509
рин	-1510
▁каждо	-1511
▁сообщи	-1512
ар	-1513
реть	-1514
ший	-1515
▁тор	-1516
▁ген	-1517
▁конечно	-1518
▁совета	-1519
хва	-1520
▁31	-1521
▁двух	-1522
▁два	-1523
▁хра	-1524
▁смерти	-1525
▁дети	-1526
▁ожида	-1527
▁сейчас	-1528
ним	-1529
пру	-1530
тесь	-1531
▁обсуди	-1532
кан	-1533
▁дости	-1534
▁служить	-1535
▁литерату	-1536
▁непо	-1537
что	-1538
▁увиде	-1539
▁аллаха	-1540
▁извест	-1541
▁министер	-1542
▁реб	-1543
шим	-1544
▁особен	-1545
▁собрании	-1546
▁обре	-1547
▁пригла	-1548
▁ие	-1549
▁дни	-1550
▁написа	-1551
▁произо	-1552
ню	-1553
сколь	-1554
▁влия	-1555
▁принци	-1556
титься	-1557
▁упо	-1558
▁програм	-1559
▁наша	-1560
▁государства	-1561
рев	-1562
▁брат	-1563
вую	-1564
кова	-1565
▁поста	-1566
чина	-1567
▁анге	-1568
веща	-1569
▁христиане	-1570
мь	-1571
лет	-1572
▁дух	-1573
▁ваак	-1574
▁такое	-1575
▁города	-1576
▁поддержи	-1577
ками	-1578
гов	-1579
лё	-1580
▁безо	-1581
▁словам	-1582
▁исполни	-1583
▁заня	-1584
▁лишь	-1585
держа	-1586
▁иску	-1587
▁строи	-1588
гли	-1589
▁зачита	-1590
▁несколько	-1591
раз	-1592
▁ше	-1593
▁подчерк	-1594
▁сказать	-1595
лез	-1596
▁даль	-1597
▁собы	-1598
▁администрации	-1599
лич	-1600
▁удо	-1601
▁фор	-1602
кро	-1603
▁братьев	-1604
нах	-1605
▁одно	-1606
▁воскрес	-1607
▁стре	-1608
▁супру	-1609
▁царства	-1610
▁вес	-1611
▁озна	-1612
▁вспо	-1613
над	-1614
▁видео	-1615
▁такой	-1616
▁служении	-1617
ций	-1618
▁чле	-1619
▁уда	-1620
▁культуры	-1621
рую	-1622
бить	-1623
льта	-1624
жной	-1625
▁200	-1626
▁такие	-1627
▁именно	-1628
рения	-1629
▁конгрес	-1630
сам	-1631
▁внимание	-1632
▁использо	-1633
нова	-1634
▁стороны	-1635
▁националь	-1636
дут	-1637
лиа	-1638
▁этих	-1639
▁помогает	-1640
▁народного	-1641
воль	-1642
вится	-1643
▁премь	-1644
▁ги	-1645
▁наз	-1646
▁откро	-1647
тиво	-1648
чность	-1649
ремен	-1650
ститу	-1651
▁устано	-1652
▁иу	-1653
ческие	-1654
▁места	-1655
ран	-1656
▁иа	-1657
▁труд	-1658
▁награ	-1659
▁отец	-1660
▁испыта	-1661
мой	-1662
▁мудро	-1663
щает	-1664
▁спа	-1665
ях	-1666
вари	-1667
▁стано	-1668
▁потом	-1669
▁должен	-1670
него	-1671
▁уте	-1672
▁хочет	-1673
▁родители	-1674
кам	-1675
кими	-1676
дель	-1677
▁ребен	-1678
▁расска	-1679
ут	-1680
жба	-1681
▁российской	-1682
заи	-1683
сут	-1684
▁могли	-1685
лка	-1686
▁заклю	-1687
▁способ	-1688
стли	-1689
▁выпол	-1690
▁размыш	-1691
▁отечествен	-1692
▁хоте	-1693
жо	-1694
▁трудно	-1695
▁послу	-1696
▁христо	-1697
▁прекрас	-1698
рба	-1699
▁поддерж	-1700
жден	-1701
графи	-1702
▁мило	-1703
щие	-1704
▁ада	-1705
▁землю	-1706
▁хорошо	-1707
▁един	-1708
▁отца	-1709
нк	-1710
жить	-1711
▁деяния	-1712
читься	-1713
▁библию	-1714
▁сущест	-1715
▁коман	-1716
▁организации	-1717
▁обязан	-1718
чия	-1719
стину	-1720
вит	-1721
▁00	-1722
фере	-1723
▁срок	-1724
▁здоро	-1725
▁оказа	-1726
ений	-1727
▁дело	-1728
рный	-1729
▁кар	-1730
▁воистину	-1731
▁граждан	-1732
▁благодар	-1733
жит	-1734
▁сен	-1735
▁этим	-1736
▁продолжа	-1737
▁поко	-1738
▁чита	-1739
▁служение	-1740
гать	-1741
вших	-1742
пута	-1743
▁поя	-1744
рот	-1745
▁жа	-1746
льного	-1747
▁пусть	-1748
▁алекса	-1749
▁чувства	-1750
шба	-1751
▁возможность	-1752
них	-1753
чего	-1754
▁нашего	-1755
▁какое	-1756
▁большо	-1757
▁зачитай	-1758
гре	-1759
ским	-1760
▁исс	-1761
▁сом	-1762
ское	-1763
йтесь	-1764
▁иссле	-1765
▁истин	-1766
щих	-1767
▁своими	-1768
дой	-1769
▁корин	-1770
▁дал	-1771
ин	-1772
нил	-1773
▁ей	-1774
дания	-1775
▁семей	-1776
▁*	-1777
▁страны	-1778
▁распо	-1779
▁ск	-1780
▁взаи	-1781
шая	-1782
щем	-1783
стива	-1784
▁нему	-1785
▁рамках	-1786
▁распро	-1787
▁федерации	-1788
шу	-1789
рно	-1790
шин	-1791
вили	-1792
ступ	-1793
▁обес	-1794
▁которого	-1795
▁отечественной	-1796
▁турни	-1797
▁годы	-1798
шее	-1799
щая	-1800
водя	-1801
▁чте	-1802
▁спорт	-1803
▁уверен	-1804
льной	-1805
▁иска	-1806
▁путь	-1807
рами	-1808
▁осво	-1809
тет	-1810
▁вне	-1811
▁авгу	-1812
рон	-1813
▁проявлять	-1814
цев	-1815
▁доку	-1816
▁работу	-1817
так	-1818
▁противо	-1819
▁священ	-1820
▁счастли	-1821
дный	-1822
▁иоси	-1823
висимо	-1824
▁семьи	-1825
ступи	-1826
▁всей	-1827
нали	-1828
▁распростра	-1829
▁молоде	-1830
йся	-1831
▁дове	-1832
▁наше	-1833
▁проф	-1834
▁разгово	-1835
тил	-1836
тим	-1837
▁возвеща	-1838
▁замести	-1839
▁уси	-1840
▁пути	-1841
▁согласи	-1842
слы	-1843
ёр	-1844
нача	-1845
▁псалом	-1846
▁владими	-1847
зия	-1848
честве	-1849
▁возра	-1850
▁коринф	-1851
▁решение	-1852
▁фестива	-1853
▁сту	-1854
▁интере	-1855
▁рассмотри	-1856
▁сме	-1857
▁прав	-1858
▁усло	-1859
▁делега	-1860
стру	-1861
▁преступле	-1862
дия	-1863
кти	-1864
перь	-1865
ведливо	-1866
▁теперь	-1867
▁воен	-1868
▁завер	-1869
▁понять	-1870
▁побужда	-1871
▁помощью	-1872
шю	-1873
▁зо	-1874
▁песня	-1875
шением	-1876
▁окру	-1877
скую	-1878
тельные	-1879
хом	-1880
▁меся	-1881
▁богом	-1882
▁интерес	-1883
зм	-1884
рил	-1885
▁всеми	-1886
▁коринфя	-1887
▁которую	-1888
▁премьер	-1889
тии	-1890
стить	-1891
▁подчеркнул	-1892
вш	-1893
вала	-1894
жествен	-1895
зульта	-1896
▁первый	-1897
▁лег	-1898
▁оно	-1899
▁вале	-1900
▁ноя	-1901
▁брошю	-1902
▁этому	-1903
мест	-1904
▁следует	-1905
▁определен	-1906
▁л	-1907
▁часто	-1908
▁получи	-1909
рабо	-1910
тельность	-1911
▁результа	-1912
▁освобо	-1913
▁напо	-1914
▁коринфянам	-1915
▁пору	-1916
ствует	-1917
▁согласно	-1918
ющим	-1919
▁пого	-1920
▁правед	-1921
▁видеоро	-1922
▁царство	-1923
вла	-1924
чка	-1925
▁серь	-1926
▁основ	-1927
▁библейские	-1928
рио	-1929
▁сами	-1930
▁друга	-1931
▁обы	-1932
вение	-1933
▁дел	-1934
мет	-1935
рах	-1936
ктор	-1937
ющего	-1938
▁своему	-1939
▁смерть	-1940
▁дан	-1941
▁выста	-1942
▁сист	-1943
▁милли	-1944
▁сердца	-1945
сса	-1946
▁проведе	-1947
нок	-1948
▁заве	-1949
▁сухуме	-1950
▁сын	-1951
держи	-1952
▁авра	-1953
▁вести	-1954
▁дека	-1955
▁днем	-1956
▁беспо	-1957
рование	-1958
▁статьи	-1959
▁оп	-1960
▁дми	-1961
▁чер	-1962
▁моск	-1963
▁каким	-1964
▁пы	-1965
▁ры	-1966
▁мало	-1967
тин	-1968
ствии	-1969
▁посо	-1970
жество	-1971
▁заслу	-1972
еха	-1973
тво	-1974
▁неве	-1975
▁сою	-1976
дание	-1977
▁взгля	-1978
▁главы	-1979
▁многих	-1980
йдет	-1981
▁отда	-1982
▁стоит	-1983
▁поступа	-1984
▁еди	-1985
▁узнать	-1986
▁сына	-1987
▁рассмотрим	-1988
▁33	-1989
▁является	-1990
▁ито	-1991
▁речь	-1992
▁служения	-1993
▁жур	-1994
▁кри	-1995
▁отли	-1996
нди	-1997
▁32	-1998
▁спу	-1999
▁разме	-2000
▁часть	-2001
▁заседа	-2002
▁исаи	-2003
▁воспи	-2004
▁твор	-2005
сом	-2006
▁лич	-2007
зинба	-2008
▁креп	-2009
▁ард	-2010
▁началь	-2011
тию	-2012
▁борь	-2013
▁теле	-2014
▁насле	-2015
▁пользу	-2016
▁примен	-2017
сме	-2018
▁нра	-2019
▁случае	-2020
▁35	-2021
цией	-2022
ющей	-2023
▁независимо	-2024
▁эту	-2025
▁зде	-2026
▁оби	-2027
▁спор	-2028
слан	-2029
▁называ	-2030
▁оде	-2031
▁теа	-2032
ровал	-2033
чат	-2034
▁нор	-2035
▁котором	-2036
▁социаль	-2037
▁конгресса	-2038
▁председатель	-2039
стов	-2040
▁связи	-2041
щать	-2042
▁зая	-2043
▁измен	-2044
тельной	-2045
▁одного	-2046
пасности	-2047
▁уг	-2048
▁посколь	-2049
▁особенно	-2050
ходят	-2051
жела	-2052
▁здесь	-2053
▁древ	-2054
▁апостол	-2055
▁решения	-2056
▁ответствен	-2057
▁приве	-2058
▁ардзинба	-2059
▁абаза	-2060
▁петра	-2061
▁публи	-2062
чай	-2063
▁здоровь	-2064
▁поскольку	-2065
▁34	-2066
сали	-2067
▁мои	-2068
▁апре	-2069
▁оча	-2070
вли	-2071
нан	-2072
дьми	-2073
клад	-2074
▁рассказал	-2075
▁+	-2076
мущест	-2077
▁искрен	-2078
грани	-2079
ровали	-2080
▁давайте	-2081
ган	-2082
циа	-2083
▁мая	-2084
▁глубо	-2085
стан	-2086
▁фон	-2087
жении	-2088
▁людьми	-2089
▁государственной	-2090
еди	-2091
прави	-2092
▁обсужда	-2093
щик	-2094
▁черк	-2095
▁переда	-2096
▁действи	-2097
▁пома	-2098
▁огром	-2099
▁подума	-2100
▁приходи	-2101
▁вырази	-2102
▁депута	-2103
▁иеговой	-2104
▁истории	-2105
из	-2106
мон	-2107
▁уби	-2108
▁законо	-2109
▁территории	-2110
рак	-2111
▁кому	-2112
▁небо	-2113
▁цель	-2114
▁молоды	-2115
▁све	-2116
▁ночь	-2117
▁отношении	-2118
▁июля	-2119
▁измени	-2120
▁иисусу	-2121
▁аг	-2122
▁поги	-2123
▁серьез	-2124
▁пле	-2125
▁препо	-2126
рам	-2127
▁своем	-2128
▁тради	-2129
▁царстве	-2130
мый	-2131
цам	-2132
▁ци	-2133
номо	-2134
ятно	-2135
▁бед	-2136
▁качества	-2137
влять	-2138
▁найти	-2139
▁статье	-2140
▁говорить	-2141
▁наста	-2142
▁числе	-2143
▁диаспо	-2144
▁исполня	-2145
кур	-2146
там	-2147
▁слы	-2148
▁уро	-2149
диться	-2150
▁комисси	-2151
▁вол	-2152
▁пом	-2153
▁пись	-2154
вершен	-2155
▁перио	-2156
▁бю	-2157
▁смы	-2158
▁саму	-2159
▁работе	-2160
нин	-2161
▁наб	-2162
▁притчи	-2163
шает	-2164
▁деся	-2165
▁ничего	-2166
кому	-2167
мати	-2168
▁потре	-2169
▁радость	-2170
▁мероприятия	-2171
оз	-2172
ваются	-2173
▁обеспе	-2174
▁ред	-2175
▁сил	-2176
▁любит	-2177
▁очере	-2178
рез	-2179
▁будь	-2180
▁выбо	-2181
▁около	-2182
▁черкес	-2183
▁августа	-2184
ляет	-2185
▁выс	-2186
▁любя	-2187
▁учит	-2188
▁город	-2189
▁другой	-2190
▁услови	-2191
▁родителей	-2192
скому	-2193
▁тимо	-2194
▁знает	-2195
тельных	-2196
щим	-2197
мена	-2198
▁таким	-2199
▁утвер	-2200
▁царь	-2201
▁семье	-2202
шений	-2203
▁взаимо	-2204
▁друзья	-2205
▁организо	-2206
езд	-2207
▁ибо	-2208
▁спи	-2209
▁мой	-2210
▁иеру	-2211
▁права	-2212
▁иерусали	-2213
шло	-2214
▁ребенка	-2215
▁иов	-2216
▁поте	-2217
▁актив	-2218
▁христос	-2219
▁собствен	-2220
▁може	-2221
литься	-2222
▁марта	-2223
▁абазинского	-2224
▁пря	-2225
▁ради	-2226
▁срав	-2227
▁прежде	-2228
кон	-2229
▁коло	-2230
▁видно	-2231
▁свободы	-2232
▁александ	-2233
▁й	-2234
▁приоб	-2235
▁сентября	-2236
мом	-2237
▁пя	-2238
жем	-2239
цем	-2240
▁начина	-2241
ил	-2242
▁абза	-2243
влении	-2244
▁спортсме	-2245
щу	-2246
▁две	-2247
▁ина	-2248
строй	-2249
▁воспо	-2250
▁говорят	-2251
▁приноси	-2252
▁тяже	-2253
▁готов	-2254
▁какую	-2255
▁подро	-2256
▁возвра	-2257
▁предан	-2258
▁последова	-2259
бно	-2260
▁эф	-2261
▁кла	-2262
вались	-2263
▁глаза	-2264
▁укреп	-2265
жный	-2266
▁евре	-2267
▁работ	-2268
▁живо	-2269
▁материа	-2270
рю	-2271
стый	-2272
▁божи	-2273
▁обяза	-2274
▁помощи	-2275
▁учеников	-2276
▁господа	-2277
▁несовершен	-2278
▁проповедовать	-2279
▁уме	-2280
ником	-2281
▁части	-2282
гло	-2283
▁опы	-2284
▁мысли	-2285
▁министра	-2286
зывать	-2287
▁авраа	-2288
▁нужда	-2289
▁обраща	-2290
▁современ	-2291
хе	-2292
▁вера	-2293
▁доста	-2294
▁0	-2295
ера	-2296
▁ря	-2297
▁подписа	-2298
ссо	-2299
чал	-2300
дите	-2301
чается	-2302
▁давид	-2303
▁земли	-2304
▁иностра	-2305
▁нару	-2306
▁показа	-2307
▁сообщил	-2308
дви	-2309
нка	-2310
цом	-2311
вался	-2312
писан	-2313
▁худо	-2314
никами	-2315
ить	-2316
стями	-2317
▁кара	-2318
дры	-2319
▁уничто	-2320
▁совмест	-2321
чая	-2322
ницы	-2323
нести	-2324
▁деятельности	-2325
▁ваш	-2326
▁отде	-2327
▁моисе	-2328
▁одной	-2329
▁крести	-2330
▁ника	-2331
▁очам	-2332
вшие	-2333
диви	-2334
▁меди	-2335
▁сила	-2336
▁времен	-2337
▁значит	-2338
▁дра	-2339
▁прове	-2340
▁присут	-2341
смотря	-2342
ум	-2343
дил	-2344
дина	-2345
▁сим	-2346
нению	-2347
▁несмотря	-2348
ыр	-2349
лий	-2350
▁которым	-2351
лых	-2352
выми	-2353
▁офи	-2354
▁никто	-2355
▁позна	-2356
еры	-2357
лег	-2358
▁ян	-2359
зяй	-2360
▁силь	-2361
▁стол	-2362
шка	-2363
слове	-2364
▁разве	-2365
▁указа	-2366
▁декабря	-2367
▁народов	-2368
▁видеоролик	-2369
▁представители	-2370
▁“	-2371
▁40	-2372
форми	-2373
▁фото	-2374
▁хотим	-2375
▁истину	-2376
ступа	-2377
▁урок	-2378
▁район	-2379
▁собой	-2380
▁опе	-2381
▁покажи	-2382
▁октября	-2383
▁наказа	-2384
▁станет	-2385
▁абхазский	-2386
▁язык	-2387
онов	-2388
▁нами	-2389
▁отра	-2390
▁бюд	-2391
▁дис	-2392
вай	-2393
▁мя	-2394
▁ана	-2395
пуска	-2396
▁практи	-2397
▁благослове	-2398
▁нового	-2399
▁испра	-2400
▁очамч	-2401
▁бере	-2402
▁стар	-2403
▁трех	-2404
пш	-2405
вствен	-2406
▁хотел	-2407
▁апреля	-2408
▁родствен	-2409
дает	-2410
▁вере	-2411
▁абхазию	-2412
дне	-2413
▁июня	-2414
▁поня	-2415
▁реали	-2416
гам	-2417
рять	-2418
▁развития	-2419
тан	-2420
▁непре	-2421
▁обсуждение	-2422
чают	-2423
верси	-2424
сянам	-2425
▁дней	-2426
ниться	-2427
▁пожела	-2428
▁„	-2429
тился	-2430
▁проц	-2431
▁приняли	-2432
лн	-2433
▁дви	-2434
▁конц	-2435
▁человеком	-2436
▁дает	-2437
▁квар	-2438
▁могу	-2439
▁професси	-2440
▁хи	-2441
▁мужчи	-2442
▁комитета	-2443
ниру	-2444
▁дави	-2445
▁дире	-2446
▁музы	-2447
▁тури	-2448
▁част	-2449
▁уч	-2450
никам	-2451
▁реги	-2452
▁цени	-2453
▁связа	-2454
▁ум	-2455
кать	-2456
▁наи	-2457
▁фак	-2458
льных	-2459
▁уста	-2460
няться	-2461
▁власти	-2462
▁возду	-2463
▁перво	-2464
▁пережи	-2465
▁посвящен	-2466
▁специаль	-2467
лаго	-2468
▁нена	-2469
▁избра	-2470
▁посети	-2471
лой	-2472
ферен	-2473
▁соверши	-2474
▁бытие	-2475
▁образ	-2476
гую	-2477
▁гуда	-2478
▁требо	-2479
▁второй	-2480
▁постоя	-2481
▁собира	-2482
▁ах	-2483
▁иль	-2484
евича	-2485
▁языке	-2486
▁избира	-2487
▁сделал	-2488
▁книги	-2489
мии	-2490
нча	-2491
шению	-2492
▁языка	-2493
▁дмитри	-2494
▁центра	-2495
новь	-2496
▁небе	-2497
▁самом	-2498
▁ши	-2499
▁таких	-2500
▁финан	-2501
▁основа	-2502
▁осущест	-2503
▁безопасности	-2504
ток	-2505
▁нес	-2506
▁пор	-2507
▁петр	-2508
▁означает	-2509
▁предоста	-2510
▁служителей	-2511
▁добры	-2512
▁стран	-2513
▁спроси	-2514
кру	-2515
ыре	-2516
▁услы	-2517
▁столи	-2518
лые	-2519
тар	-2520
▁кам	-2521
▁янва	-2522
▁детям	-2523
▁подражать	-2524
шно	-2525
будь	-2526
▁брак	-2527
▁прим	-2528
▁дом	-2529
▁информации	-2530
▁республике	-2531
тами	-2532
▁суб	-2533
▁интер	-2534
▁объек	-2535
▁господь	-2536
▁помазан	-2537
сят	-2538
▁37	-2539
▁фев	-2540
▁деян	-2541
▁избе	-2542
▁народу	-2543
вило	-2544
▁всю	-2545
▁прибли	-2546
няет	-2547
рены	-2548
льные	-2549
▁имеет	-2550
▁состо	-2551
▁нашу	-2552
▁пыта	-2553
риться	-2554
▁принес	-2555
▁охра	-2556
▁фили	-2557
▁находя	-2558
▁приобре	-2559
дят	-2560
спек	-2561
▁веро	-2562
▁долго	-2563
нец	-2564
▁проси	-2565
▁равно	-2566
▁попроси	-2567
▁откровение	-2568
▁осети	-2569
▁римля	-2570
▁положи	-2571
▁правительства	-2572
крови	-2573
скоре	-2574
▁памят	-2575
▁валерий	-2576
их	-2577
▁друж	-2578
▁нибудь	-2579
▁обстоя	-2580
▁встрече	-2581
▁изучения	-2582
тера	-2583
▁посла	-2584
рем	-2585
ясь	-2586
спра	-2587
▁безу	-2588
▁физи	-2589
▁нее	-2590
▁визи	-2591
▁духа	-2592
ментов	-2593
▁события	-2594
▁стала	-2595
▁другом	-2596
тельного	-2597
▁управления	-2598
коми	-2599
ждать	-2600
зации	-2601
▁александр	-2602
лее	-2603
нове	-2604
ратура	-2605
▁разде	-2606
▁чтение	-2607
▁говорил	-2608
▁различ	-2609
▁насколько	-2610
▁сатаны	-2611
▁поступи	-2612
▁соверша	-2613
▁спас	-2614
▁февра	-2615
▁другими	-2616
▁относиться	-2617
чести	-2618
▁стихи	-2619
▁честь	-2620
▁имущест	-2621
▁проповеду	-2622
▁ат	-2623
того	-2624
▁бар	-2625
▁погиб	-2626
▁темпе	-2627
▁полага	-2628
▁абхазских	-2629
▁второ	-2630
▁кур	-2631
нность	-2632
ствовал	-2633
▁турции	-2634
▁течение	-2635
гип	-2636
дим	-2637
▁выда	-2638
▁сель	-2639
▁исклю	-2640
▁стало	-2641
▁ил	-2642
▁рф	-2643
▁дмитрий	-2644
▁сообщает	-2645
чей	-2646
▁оши	-2647
▁впер	-2648
ствуют	-2649
▁дании	-2650
▁молитва	-2651
лил	-2652
вный	-2653
▁вечно	-2654
▁одним	-2655
▁написал	-2656
▁проблемы	-2657
▁рождения	-2658
▁старейшины	-2659
верг	-2660
▁000	-2661
▁егип	-2662
▁жена	-2663
▁городе	-2664
▁студен	-2665
▁счасть	-2666
▁обод	-2667
▁похо	-2668
▁сказали	-2669
▁образования	-2670
нер	-2671
цин	-2672
▁отпра	-2673
тельным	-2674
▁дер	-2675
▁ваши	-2676
▁песни	-2677
▁помни	-2678
▁конкур	-2679
оте	-2680
▁гал	-2681
▁вами	-2682
▁неспра	-2683
▁заб	-2684
▁лица	-2685
▁канди	-2686
▁секре	-2687
▁сказано	-2688
▁лишением	-2689
дох	-2690
▁сама	-2691
▁большин	-2692
▁официаль	-2693
▁служители	-2694
тили	-2695
▁запове	-2696
▁истины	-2697
един	-2698
влены	-2699
▁кавка	-2700
чие	-2701
▁снова	-2702
▁требу	-2703
ваем	-2704
▁поб	-2705
▁наза	-2706
▁предпри	-2707
▁некоторых	-2708
▁правильно	-2709
чной	-2710
мость	-2711
▁неде	-2712
▁вклад	-2713
▁конце	-2714
▁наме	-2715
▁свет	-2716
ческое	-2717
▁самое	-2718
▁иногда	-2719
▁восстано	-2720
▁поздравил	-2721
вшись	-2722
▁знал	-2723
▁регу	-2724
▁испыты	-2725
▁божьего	-2726
▁римлянам	-2727
ью	-2728
▁вклю	-2729
▁иллю	-2730
▁миро	-2731
▁взя	-2732
кость	-2733
▁прожи	-2734
▁сомне	-2735
▁разных	-2736
▁однажды	-2737
пере	-2738
▁полез	-2739
▁показыва	-2740
кле	-2741
пря	-2742
тельное	-2743
▁четыре	-2744
.0	-2745
тр	-2746
нику	-2747
▁хва	-2748
▁запа	-2749
▁наси	-2750
жением	-2751
▁школы	-2752
▁вспомина	-2753
▁иг	-2754
▁цели	-2755
▁прошло	-2756
▁духовно	-2757
жал	-2758
надле	-2759
рного	-2760
▁войне	-2761
▁запре	-2762
▁новый	-2763
▁генера	-2764
▁период	-2765
▁принял	-2766
▁кандида	-2767
▁свидетель	-2768
▁соответству	-2769
▁али	-2770
▁точ	-2771
ниями	-2772
▁золо	-2773
▁нель	-2774
▁пяти	-2775
▁институ	-2776
зии	-2777
▁ще	-2778
▁баш	-2779
▁1992	-2780
▁учре	-2781
▁непри	-2782
▁послан	-2783
щё	-2784
▁каби	-2785
▁усилия	-2786
▁ам	-2787
▁пора	-2788
▁судь	-2789
▁каждого	-2790
▁представля	-2791
▁температура	-2792
чик	-2793
жели	-2794
тных	-2795
щении	-2796
▁вече	-2797
▁вице	-2798
▁впервые	-2799
▁благосло	-2800
▁проповеди	-2801
вший	-2802
▁сбор	-2803
▁пресс	-2804
▁евреям	-2805
▁нельзя	-2806
▁сестры	-2807
▁сколько	-2808
зма	-2809
ред	-2810
рее	-2811
▁36	-2812
▁использу	-2813
▁принадле	-2814
▁собрание	-2815
▁универси	-2816
дея	-2817
док	-2818
рец	-2819
▁евр	-2820
▁тро	-2821
▁тимофе	-2822
▁очередь	-2823
▁подготов	-2824
цов	-2825
▁фору	-2826
▁стране	-2827
▁области	-2828
гуа	-2829
▁сек	-2830
▁забы	-2831
▁протя	-2832
▁коллек	-2833
▁ноября	-2834
▁принять	-2835
нда	-2836
▁рус	-2837
▁будущем	-2838
били	-2839
▁воды	-2840
▁содей	-2841
▁большой	-2842
▁находится	-2843
бре	-2844
▁дья	-2845
рован	-2846
▁закона	-2847
▁спорта	-2848
▁министров	-2849
▁министерства	-2850
кту	-2851
чем	-2852
▁предлага	-2853
сад	-2854
▁одо	-2855
▁мере	-2856
▁силу	-2857
▁возможности	-2858
им	-2859
▁38	-2860
▁болез	-2861
▁разре	-2862
ведение	-2863
▁привле	-2864
дук	-2865
днее	-2866
▁ала	-2867
▁быт	-2868
▁жили	-2869
ческом	-2870
▁соблю	-2871
▁нечести	-2872
▁первого	-2873
▁подгото	-2874
▁проходи	-2875
▁предусмот	-2876
лях	-2877
▁сразу	-2878
▁хозяй	-2879
▁дальше	-2880
▁тимофею	-2881
казывается	-2882
ненно	-2883
▁выпу	-2884
▁дьяво	-2885
▁вскоре	-2886
▁связан	-2887
▁содержа	-2888
▁̊	-2889
лел	-2890
▁воо	-2891
▁тим	-2892
▁приз	-2893
▁роль	-2894
▁площа	-2895
чис	-2896
прав	-2897
▁ака	-2898
▁игра	-2899
▁мене	-2900
ведения	-2901
▁первой	-2902
▁получить	-2903
▁христианам	-2904
▁обязанности	-2905
шки	-2906
▁исаия	-2907
▁января	-2908
▁времена	-2909
рит	-2910
▁юно	-2911
▁вста	-2912
▁раду	-2913
▁конца	-2914
▁сестер	-2915
▁театра	-2916
▁подобно	-2917
▁последние	-2918
мур	-2919
▁яр	-2920
женный	-2921
▁иосиф	-2922
▁первое	-2923
ствовали	-2924
▁кварчия	-2925
▁публика	-2926
жных	-2927
зать	-2928
▁ука	-2929
ливый	-2930
▁восто	-2931
▁павла	-2932
▁моисей	-2933
▁руководство	-2934
чба	-2935
емый	-2936
ревно	-2937
▁деву	-2938
▁победы	-2939
▁вопроса	-2940
▁республикан	-2941
мия	-2942
▁знать	-2943
▁особо	-2944
▁семья	-2945
▁москве	-2946
▁смирен	-2947
▁будущее	-2948
▁израильтяне	-2949
дали	-2950
▁вну	-2951
возмо	-2952
▁школе	-2953
▁молитвы	-2954
▁приносит	-2955
деть	-2956
стях	-2957
▁мор	-2958
▁непро	-2959
▁пользо	-2960
▁послуша	-2961
▁ново	-2962
▁изуча	-2963
▁самого	-2964
▁царя	-2965
▁оборо	-2966
они	-2967
гото	-2968
▁ока	-2969
чении	-2970
▁симво	-2971
▁друзей	-2972
▁советы	-2973
▁дальней	-2974
▁иллюстра	-2975
кса	-2976
нра	-2977
тка	-2978
▁дере	-2979
▁здра	-2980
▁миха	-2981
▁вавило	-2982
▁предпо	-2983
▁сказала	-2984
ема	-2985
стно	-2986
стере	-2987
▁будете	-2988
▁произошло	-2989
▁нало	-2990
▁всему	-2991
мотреть	-2992
▁первых	-2993
▁сталки	-2994
▁полностью	-2995
нета	-2996
▁нач	-2997
матри	-2998
чению	-2999
▁ночью	-3000
▁сильно	-3001
ене	-3002
юсь	-3003
▁уми	-3004
▁весь	-3005
▁живу	-3006
▁каза	-3007
▁коли	-3008
▁надо	-3009
▁чемпи	-3010
▁просла	-3011
чных	-3012
скими	-3013
▁земля	-3014
▁плохо	-3015
▁начале	-3016
▁желание	-3017
▁средств	-3018
▁председателя	-3019
▁стой	-3020
▁вечер	-3021
▁менее	-3022
▁помнить	-3023
▁страдания	-3024
▁происходит	-3025
▁представителей	-3026
▁тан	-3027
▁анква	-3028
▁поряд	-3029
▁самым	-3030
▁харак	-3031
▁переста	-3032
бия	-3033
ружи	-3034
чные	-3035
▁горе	-3036
▁захо	-3037
ческая	-3038
▁воскре	-3039
▁начала	-3040
▁конец	-3041
▁скажи	-3042
▁истине	-3043
▁любить	-3044
▁постано	-3045
▁соревно	-3046
▁поступать	-3047
▁иностранных	-3048
▁ке	-3049
▁демо	-3050
▁суда	-3051
▁треть	-3052
▁иакова	-3053
▁милосер	-3054
▁религиоз	-3055
▁человеку	-3056
▁культурного	-3057
шую	-3058
вало	-3059
сков	-3060
▁бан	-3061
точно	-3062
▁насе	-3063
▁объя	-3064
▁приш	-3065
▁призыва	-3066
▁размере	-3067
▁показать	-3068
▁предложи	-3069
кси	-3070
ится	-3071
▁кем	-3072
полни	-3073
▁твер	-3074
▁подчи	-3075
▁владисла	-3076
раб	-3077
сный	-3078
▁сум	-3079
▁диаспоры	-3080
жат	-3081
писы	-3082
▁какая	-3083
▁свидетели	-3084
чий	-3085
цати	-3086
▁внеш	-3087
▁силы	-3088
▁стоя	-3089
▁экзе	-3090
▁наблю	-3091
▁неужели	-3092
▁февраля	-3093
тал	-3094
горь	-3095
тость	-3096
циали	-3097
▁гулиа	-3098
▁знаем	-3099
▁гер	-3100
▁выку	-3101
▁позднее	-3102
▁владимир	-3103
▁частности	-3104
сф	-3105
зить	-3106
леть	-3107
ющими	-3108
▁север	-3109
▁обсудим	-3110
шед	-3111
▁джо	-3112
▁внут	-3113
▁тран	-3114
▁заста	-3115
бро	-3116
пуа	-3117
▁дать	-3118
▁круп	-3119
тывать	-3120
▁жесто	-3121
▁скоро	-3122
▁прошел	-3123
▁последни	-3124
▁существу	-3125
▁сотрудничества	-3126
чо	-3127
▁сос	-3128
▁цви	-3129
тится	-3130
▁повы	-3131
▁чисто	-3132
▁праздно	-3133
▁множество	-3134
▁уверовали	-3135
▁кг	-3136
▁изба	-3137
▁главе	-3138
▁книге	-3139
▁настро	-3140
▁подели	-3141
▁братьям	-3142
▁журнали	-3143
ницу	-3144
полу	-3145
▁сли	-3146
▁грех	-3147
▁миру	-3148
влению	-3149
▁памяти	-3150
▁скорее	-3151
▁воздуха	-3152
▁недоста	-3153
▁молиться	-3154
▁рассказа	-3155
▁справедливо	-3156
▁ини	-3157
▁геор	-3158
▁паспо	-3159
▁регуля	-3160
▁словами	-3161
▁ситуации	-3162
стри	-3163
▁дво	-3164
▁ого	-3165
▁благую	-3166
▁высоко	-3167
▁потеря	-3168
▁временем	-3169
▁оставаться	-3170
вной	-3171
▁цве	-3172
▁раст	-3173
▁брата	-3174
▁искус	-3175
▁догово	-3176
▁должна	-3177
▁медицин	-3178
рие	-3179
тах	-3180
жные	-3181
▁георги	-3182
▁организация	-3183
▁зу	-3184
▁нис	-3185
твори	-3186
▁появи	-3187
ционный	-3188
▁разговор	-3189
▁согласии	-3190
нему	-3191
телю	-3192
▁семью	-3193
▁филип	-3194
▁стреми	-3195
тельными	-3196
▁развитие	-3197
фек	-3198
▁свер	-3199
▁месси	-3200
▁ограни	-3201
▁невозмо	-3202
▁ученики	-3203
зба	-3204
зор	-3205
▁ходе	-3206
▁книга	-3207
▁районе	-3208
▁распоря	-3209
ян	-3210
▁гро	-3211
▁оче	-3212
▁волю	-3213
▁рассказывает	-3214
әа	-3215
дии	-3216
▁ль	-3217
▁мерт	-3218
▁селе	-3219
▁несом	-3220
▁представь	-3221
▁трудности	-3222
▁заместитель	-3223
▁обстоятельства	-3224
▁%	-3225
вин	-3226
мей	-3227
куар	-3228
охра	-3229
▁степ	-3230
▁божье	-3231
▁назад	-3232
▁внутрен	-3233
жали	-3234
тные	-3235
▁порой	-3236
▁анкваб	-3237
▁предупре	-3238
▁побуждает	-3239
ваны	-3240
▁иез	-3241
пусти	-3242
▁2017	-3243
▁обща	-3244
жаться	-3245
▁прибы	-3246
▁ткуар	-3247
▁ответы	-3248
▁пришел	-3249
▁сокрови	-3250
▁стороже	-3251
▁назначен	-3252
лень	-3253
степ	-3254
ющее	-3255
менты	-3256
нется	-3257
тание	-3258
▁замы	-3259
▁нашим	-3260
▁суббо	-3261
▁устра	-3262
▁развле	-3263
▁службы	-3264
▁секрета	-3265
няя	-3266
▁бое	-3267
▁уви	-3268
мышлен	-3269
▁борьбе	-3270
▁сестра	-3271
▁служит	-3272
▁подтвер	-3273
▁программы	-3274
пий	-3275
▁ид	-3276
жего	-3277
чены	-3278
лению	-3279
▁контро	-3280
▁помогать	-3281
▁несправедливо	-3282
ила	-3283
▁всё	-3284
▁изо	-3285
кнуть	-3286
хнуть	-3287
чного	-3288
▁терп	-3289
▁ясно	-3290
▁расши	-3291
▁инициа	-3292
▁напомина	-3293
дал	-3294
▁гг	-3295
▁мари	-3296
▁верну	-3297
дования	-3298
▁беслан	-3299
▁инстру	-3300
▁принято	-3301
▁показывает	-3302
дие	-3303
лог	-3304
цба	-3305
▁198	-3306
▁раск	-3307
▁самых	-3308
▁знания	-3309
▁работать	-3310
▁несомненно	-3311
гур	-3312
▁дем	-3313
▁пож	-3314
▁боге	-3315
▁вино	-3316
ждении	-3317
▁оконча	-3318
▁перево	-3319
▁средства	-3320
▁проповедни	-3321
вец	-3322
кер	-3323
▁боя	-3324
нении	-3325
▁разо	-3326
▁досто	-3327
▁легко	-3328
▁готовы	-3329
▁отношений	-3330
▁постоянно	-3331
мым	-3332
сем	-3333
дают	-3334
▁поза	-3335
▁проект	-3336
▁исследова	-3337
▁джа	-3338
▁нако	-3339
▁филь	-3340
▁элек	-3341
ческую	-3342
▁рассказ	-3343
▁размышля	-3344
▁специали	-3345
▁руководитель	-3346
шем	-3347
ковый	-3348
▁2016	-3349
▁доме	-3350
▁связ	-3351
▁твой	-3352
▁рядом	-3353
▁подража	-3354
▁вопросам	-3355
ot	-3356
qu	-3357
мов	-3358
мые	-3359
тен	-3360
▁50	-3361
quot	-3362
щему	-3363
▁юби	-3364
ждает	-3365
▁чрез	-3366
▁мудры	-3367
▁разру	-3368
▁делает	-3369
▁первом	-3370
▁услыша	-3371
▁вероятно	-3372
▁материаль	-3373
▁деятельность	-3374
зира	-3375
люби	-3376
▁атмо	-3377
▁идет	-3378
▁поме	-3379
▁шамба	-3380
▁цвижба	-3381
▁планиру	-3382
▁уверены	-3383
▁посмотри	-3384
▁преступления	-3385
▁веры	-3386
▁преж	-3387
▁москов	-3388
▁странах	-3389
▁родителям	-3390
▁международного	-3391
тым	-3392
▁пожи	-3393
▁пионе	-3394
влением	-3395
лам	-3396
▁съ	-3397
▁геро	-3398
▁каса	-3399
▁нашем	-3400
▁слыша	-3401
▁полномо	-3402
бри	-3403
гами	-3404
▁горя	-3405
▁месте	-3406
▁прино	-3407
▁законода	-3408
▁помогают	-3409
жеб	-3410
▁39	-3411
▁лиц	-3412
▁сро	-3413
вшего	-3414
▁пара	-3415
▁план	-3416
▁худож	-3417
▁очамчыр	-3418
▁сохранять	-3419
жная	-3420
жного	-3421
▁псал	-3422
▁выбра	-3423
▁иметь	-3424
▁десяти	-3425
▁осозна	-3426
▁процес	-3427
▁служеб	-3428
▁писания	-3429
▁заниматься	-3430
▁пой	-3431
▁уде	-3432
▁зале	-3433
▁знам	-3434
▁другу	-3435
▁компле	-3436
▁примеру	-3437
▁благодарность	-3438
кия	-3439
луч	-3440
▁нуж	-3441
▁втор	-3442
▁фонда	-3443
▁первую	-3444
▁констан	-3445
тки	-3446
коба	-3447
цени	-3448
▁соло	-3449
▁эксп	-3450
▁годов	-3451
▁духом	-3452
▁неверу	-3453
▁встречу	-3454
▁дож	-3455
▁мед	-3456
▁бага	-3457
▁дели	-3458
▁пала	-3459
▁союза	-3460
▁кавказ	-3461
▁конститу	-3462
▁проблема	-3463
еми	-3464
лах	-3465
ньше	-3466
▁вид	-3467
ённый	-3468
▁душе	-3469
▁режи	-3470
▁акаде	-3471
▁писал	-3472
▁большинство	-3473
▁участвовать	-3474
▁арти	-3475
▁иуде	-3476
▁чест	-3477
▁ежего	-3478
▁отвер	-3479
▁надежду	-3480
▁спортив	-3481
чали	-3482
▁дар	-3483
▁кав	-3484
▁норма	-3485
▁проку	-3486
▁можете	-3487
▁пройдет	-3488
нье	-3489
▁тяж	-3490
▁напа	-3491
▁спек	-3492
▁генна	-3493
▁проин	-3494
▁власть	-3495
▁предло	-3496
▁принимать	-3497
разу	-3498
▁агу	-3499
▁млн	-3500
▁отку	-3501
таться	-3502
▁давида	-3503
▁принципы	-3504
gt	-3505
ниц	-3506
чиво	-3507
зация	-3508
▁тему	-3509
▁навер	-3510
▁разно	-3511
▁серге	-3512
тельная	-3513
▁учения	-3514
▁прочитай	-3515
▁благополу	-3516
чным	-3517
▁сай	-3518
навли	-3519
▁теку	-3520
▁этно	-3521
▁греха	-3522
▁вместо	-3523
▁становится	-3524
▁благословения	-3525
бур	-3526
дий	-3527
▁меж	-3528
▁столк	-3529
▁удиви	-3530
▁члены	-3531
▁достой	-3532
▁следовать	-3533
▁свидетелей	-3534
бар	-3535
▁иор	-3536
▁2019	-3537
▁поми	-3538
▁попа	-3539
▁ненави	-3540
▁совеща	-3541
▁духовные	-3542
▁взаимодей	-3543
ями	-3544
▁45	-3545
▁адам	-3546
▁теми	-3547
▁лично	-3548
▁терпе	-3549
▁точно	-3550
▁выстав	-3551
▁раньше	-3552
▁заседании	-3553
▁фестиваль	-3554
фика	-3555
▁тек	-3556
▁2018	-3557
▁души	-3558
▁кате	-3559
▁божий	-3560
▁каких	-3561
▁новые	-3562
▁кавказа	-3563
▁мудрость	-3564
▁ситуация	-3565
▁действительно	-3566
▁41	-3567
▁зве	-3568
▁опас	-3569
▁почет	-3570
▁путем	-3571
▁женщина	-3572
▁системы	-3573
▁считает	-3574
лым	-3575
▁хле	-3576
▁едино	-3577
▁повтор	-3578
▁продук	-3579
▁неправи	-3580
▁комиссии	-3581
▁проходит	-3582
тите	-3583
чено	-3584
▁хочу	-3585
▁здраво	-3586
▁спустя	-3587
жай	-3588
лье	-3589
▁42	-3590
▁ау	-3591
шком	-3592
▁ули	-3593
▁обма	-3594
▁отцу	-3595
сторон	-3596
▁мария	-3597
▁слове	-3598
▁брошюры	-3599
тельством	-3600
▁праздник	-3601
▁состоится	-3602
гру	-3603
лин	-3604
▁фу	-3605
жает	-3606
▁зави	-3607
▁руки	-3608
ждений	-3609
▁абзац	-3610
▁удалось	-3611
▁абхазские	-3612
▁экономики	-3613
чили	-3614
▁грузин	-3615
▁катего	-3616
▁чемпиона	-3617
▁воспомина	-3618
▁мероприятий	-3619
одо	-3620
▁194	-3621
▁ото	-3622
▁1993	-3623
ческим	-3624
▁преда	-3625
▁малень	-3626
▁святой	-3627
▁качестве	-3628
▁наследия	-3629
▁рассказыва	-3630
▁предусмотрен	-3631
▁государственный	-3632
бля	-3633
▁эс	-3634
дение	-3635
печат	-3636
▁гости	-3637
фесянам	-3638
▁придет	-3639
▁надзира	-3640
▁директор	-3641
дино	-3642
▁нар	-3643
▁2015	-3644
▁начал	-3645
▁хотят	-3646
▁память	-3647
▁молитве	-3648
▁сохранить	-3649
▁невозможно	-3650
▁191	-3651
▁коде	-3652
▁пово	-3653
▁форми	-3654
рования	-3655
▁момент	-3656
▁неболь	-3657
▁победи	-3658
▁поклоня	-3659
▁молодежи	-3660
ева	-3661
тит	-3662
вила	-3663
▁увели	-3664
▁помогут	-3665
▁здоровья	-3666
тых	-3667
▁тю	-3668
▁века	-3669
▁иере	-3670
▁вашей	-3671
▁вновь	-3672
▁значение	-3673
▁конферен	-3674
сли	-3675
рует	-3676
тали	-3677
щают	-3678
▁ады	-3679
▁поо	-3680
▁мужа	-3681
биться	-3682
ванием	-3683
▁любовью	-3684
▁обрести	-3685
▁показал	-3686
▁единствен	-3687
▁изменения	-3688
▁старейшин	-3689
▁независимости	-3690
знен	-3691
▁джи	-3692
ологи	-3693
▁пожа	-3694
▁попу	-3695
▁пояс	-3696
▁каком	-3697
▁состра	-3698
▁возника	-3699
▁укрепле	-3700
▁ложь	-3701
▁неиз	-3702
▁поле	-3703
▁иоанн	-3704
▁выразил	-3705
лит	-3706
рию	-3707
▁44	-3708
▁шо	-3709
зако	-3710
нице	-3711
ганба	-3712
етесь	-3713
▁архи	-3714
начала	-3715
▁ранее	-3716
▁бганба	-3717
▁доказа	-3718
▁объеди	-3719
▁пришли	-3720
▁создал	-3721
▁иисусом	-3722
▁вопросов	-3723
▁использовать	-3724
гей	-3725
нюю	-3726
▁60	-3727
▁очи	-3728
▁шта	-3729
▁суде	-3730
▁агрба	-3731
▁возна	-3732
▁будьте	-3733
▁прошла	-3734
▁увидеть	-3735
▁развитию	-3736
жка	-3737
фом	-3738
▁доба	-3739
▁зака	-3740
▁разъ	-3741
чением	-3742
▁почти	-3743
▁привет	-3744
▁радости	-3745
▁сначала	-3746
▁совесть	-3747
▁степени	-3748
▁отношение	-3749
▁участников	-3750
дзия	-3751
▁гаг	-3752
льное	-3753
▁учеб	-3754
▁барци	-3755
▁заблу	-3756
▁изучать	-3757
▁прошлом	-3758
▁литературы	-3759
▁протяжении	-3760
▁соответствии	-3761
нос	-3762
стер	-3763
▁мать	-3764
▁утра	-3765
ворить	-3766
ствуем	-3767
▁журна	-3768
▁предс	-3769
▁музыка	-3770
▁относится	-3771
▁развивать	-3772
▁зи	-3773
▁суд	-3774
ктора	-3775
лость	-3776
▁неда	-3777
довали	-3778
▁барциц	-3779
▁видеть	-3780
▁откуда	-3781
▁поступ	-3782
▁должности	-3783
▁израильтян	-3784
▁результате	-3785
тур	-3786
ниям	-3787
▁мол	-3788
▁усы	-3789
ванию	-3790
влена	-3791
влено	-3792
▁угро	-3793
говари	-3794
▁пресле	-3795
▁сухума	-3796
▁известно	-3797
▁рассказать	-3798
▁международный	-3799
венно	-3800
▁вдох	-3801
▁куро	-3802
▁скло	-3803
▁записа	-3804
▁совсем	-3805
▁главное	-3806
пой	-3807
▁100	-3808
ждены	-3809
▁евро	-3810
▁насто	-3811
▁опера	-3812
▁перевод	-3813
▁столице	-3814
▁существо	-3815
▁проинформи	-3816
▁вд	-3817
ресс	-3818
▁ошиб	-3819
▁слов	-3820
▁штра	-3821
▁умира	-3822
▁частью	-3823
▁великой	-3824
▁концерт	-3825
▁друзьями	-3826
▁поддержку	-3827
▁70	-3828
▁клу	-3829
▁кры	-3830
▁най	-3831
▁пять	-3832
▁бюдже	-3833
▁карача	-3834
▁случай	-3835
▁рассмот	-3836
▁спектак	-3837
▁которыми	-3838
дем	-3839
▁зре	-3840
чений	-3841
▁пунк	-3842
▁алексе	-3843
▁турнир	-3844
▁вознагра	-3845
▁уважение	-3846
▁спортсменов	-3847
обла	-3848
пара	-3849
▁воро	-3850
▁ребе	-3851
▁ремон	-3852
▁неделю	-3853
сил	-3854
ыла	-3855
▁моя	-3856
▁тай	-3857
▁боро	-3858
▁маль	-3859
▁выслу	-3860
▁сайте	-3861
▁вспомни	-3862
▁электро	-3863
▁смирение	-3864
▁начальник	-3865
▁регулярно	-3866
нта	-3867
зный	-3868
▁нав	-3869
▁прис	-3870
▁новых	-3871
▁уважа	-3872
▁взгляд	-3873
▁местах	-3874
▁небеса	-3875
▁охраны	-3876
▁сможем	-3877
▁спокой	-3878
▁проявил	-3879
▁говорили	-3880
▁исполнять	-3881
ево	-3882
хода	-3883
▁гри	-3884
▁веке	-3885
▁итак	-3886
▁широ	-3887
▁эшба	-3888
лагода	-3889
▁рассу	-3890
▁такая	-3891
▁тепло	-3892
▁ветера	-3893
▁пересе	-3894
▁повлия	-3895
▁преодо	-3896
▁читать	-3897
шла	-3898
терпе	-3899
▁нема	-3900
▁скор	-3901
▁крови	-3902
▁пропа	-3903
▁ребенок	-3904
▁слишком	-3905
▁историко	-3906
▁научиться	-3907
▁предпринима	-3908
еремо	-3909
▁бесе	-3910
▁изда	-3911
▁случи	-3912
▁женщины	-3913
▁иерусалим	-3914
▁настоящей	-3915
▁следующей	-3916
мых	-3917
▁меч	-3918
▁рез	-3919
ертво	-3920
▁союз	-3921
▁ансам	-3922
▁знали	-3923
▁возник	-3924
▁смогут	-3925
роваться	-3926
▁религии	-3927
▁сторожевой	-3928
тру	-3929
цами	-3930
▁фес	-3931
вятся	-3932
льным	-3933
▁зара	-3934
▁мето	-3935
▁отре	-3936
▁достиг	-3937
▁родился	-3938
▁конгресс	-3939
▁являются	-3940
▁пророчество	-3941
кии	-3942
▁43	-3943
нные	-3944
иться	-3945
▁види	-3946
▁край	-3947
▁корот	-3948
▁талан	-3949
вляется	-3950
▁спраши	-3951
▁беспокой	-3952
▁гне	-3953
проек	-3954
суаль	-3955
▁привы	-3956
▁сооте	-3957
▁первые	-3958
▁счастье	-3959
▁чувство	-3960
▁культуре	-3961
▁здравоохра	-3962
▁обязательно	-3963
▁соотечествен	-3964
гом	-3965
▁навы	-3966
▁твои	-3967
▁видел	-3968
▁служба	-3969
вок	-3970
жным	-3971
лена	-3972
нили	-3973
ните	-3974
▁исце	-3975
▁разу	-3976
▁сожа	-3977
ционного	-3978
▁записан	-3979
чув	-3980
ваний	-3981
▁стру	-3982
жности	-3983
щается	-3984
▁узнали	-3985
▁получили	-3986
жены	-3987
ссий	-3988
шный	-3989
▁вку	-3990
▁пси	-3991
стный	-3992
▁нака	-3993
▁чуде	-3994
▁джопуа	-3995
▁такого	-3996
▁абхазская	-3997
пли	-3998
▁75	-3999
чная	-4000
шний	-4001
▁гар	-4002
довал	-4003
сторо	-4004
▁водо	-4005
▁обви	-4006
▁пози	-4007
▁усер	-4008
ничать	-4009
▁дождь	-4010
▁постро	-4011
▁пожертво	-4012
тые	-4013
▁опыт	-4014
▁усыно	-4015
чивание	-4016
▁ангелы	-4017
сландзия	-4018
▁другого	-4019
▁молодых	-4020
▁подписал	-4021
▁доброволь	-4022
▁проявляет	-4023
бер	-4024
▁ны	-4025
нное	-4026
▁реа	-4027
▁скры	-4028
новича	-4029
▁источ	-4030
▁марка	-4031
▁новом	-4032
▁эффек	-4033
▁аллаху	-4034
▁основан	-4035
▁ткуарчал	-4036
мани	-4037
вании	-4038
▁пото	-4039
▁браке	-4040
▁знают	-4041
▁мысль	-4042
▁разум	-4043
ческому	-4044
▁позволя	-4045
▁карачаево	-4046
▁соглашение	-4047
▁торжествен	-4048
▁дж	-4049
ряет	-4050
▁раю	-4051
▁ряд	-4052
▁идти	-4053
▁можешь	-4054
▁первым	-4055
▁церемо	-4056
▁инвести	-4057
▁действия	-4058
▁абхазском	-4059
▁поддерживать	-4060
зой	-4061
пят	-4062
▁той	-4063
▁деть	-4064
▁орде	-4065
видзба	-4066
▁запла	-4067
▁группы	-4068
▁думать	-4069
▁узнаем	-4070
▁объедин	-4071
▁вспоминает	-4072
▁количество	-4073
▁предостере	-4074
кли	-4075
рас	-4076
рик	-4077
дили	-4078
▁внес	-4079
▁конф	-4080
▁обна	-4081
▁адама	-4082
▁ниспо	-4083
▁решил	-4084
▁скром	-4085
▁авраам	-4086
▁многое	-4087
▁жителей	-4088
▁задание	-4089
▁каждому	-4090
▁примени	-4091
▁парламент	-4092
▁поддержке	-4093
дё	-4094
чит	-4095
▁вру	-4096
▁опа	-4097
▁лана	-4098
▁плоды	-4099
▁приеха	-4100
▁словом	-4101
▁проводить	-4102
▁гл	-4103
▁руф	-4104
▁мной	-4105
ографи	-4106
чивать	-4107
▁искан	-4108
▁поезд	-4109
▁прось	-4110
▁тарба	-4111
дование	-4112
тельную	-4113
▁великого	-4114
▁кабинета	-4115
▁касландзия	-4116
дах	-4117
рыв	-4118
нете	-4119
шены	-4120
▁ели	-4121
▁уто	-4122
▁воли	-4123
▁поро	-4124
▁прос	-4125
жества	-4126
▁брака	-4127
▁видит	-4128
▁моего	-4129
▁впечат	-4130
▁детьми	-4131
▁какими	-4132
▁окружа	-4133
▁авидзба	-4134
▁выступи	-4135
▁всемирного	-4136
▁достаточно	-4137
чки	-4138
▁ов	-4139
▁иде	-4140
▁кви	-4141
▁выде	-4142
▁печа	-4143
▁корре	-4144
▁леони	-4145
▁популя	-4146
▁препод	-4147
▁укрепля	-4148
▁поблагода	-4149
▁проведения	-4150
зов	-4151
нял	-4152
ссе	-4153
вета	-4154
выше	-4155
нина	-4156
▁пят	-4157
тивно	-4158
▁иисусе	-4159
▁красно	-4160
▁экзеков	-4161
▁отметила	-4162
гна	-4163
сия	-4164
куль	-4165
▁жил	-4166
▁мла	-4167
▁дочь	-4168
▁добра	-4169
▁сесси	-4170
▁дороги	-4171
▁свободу	-4172
▁познакоми	-4173
▁профессиональ	-4174
▁зву	-4175
▁сва	-4176
вычай	-4177
▁живе	-4178
▁науки	-4179
▁глазах	-4180
▁жертву	-4181
▁ученикам	-4182
▁законопроек	-4183
▁соревнования	-4184
лим	-4185
риа	-4186
рка	-4187
свя	-4188
▁см	-4189
тром	-4190
▁ами	-4191
▁выз	-4192
▁ужа	-4193
▁музе	-4194
▁уров	-4195
зиться	-4196
рского	-4197
▁гудау	-4198
▁целях	-4199
▁велико	-4200
▁делегация	-4201
▁сокровища	-4202
▁состоянии	-4203
▁чрезвычай	-4204
▁трудностями	-4205
чер	-4206
▁мф	-4207
дной	-4208
лами	-4209
тием	-4210
щению	-4211
▁наибо	-4212
▁учить	-4213
▁возгла	-4214
▁гудаут	-4215
▁сергей	-4216
▁глубоко	-4217
▁месяцев	-4218
▁проекта	-4219
▁сердцем	-4220
▁встречах	-4221
▁фестиваля	-4222
12	-4223
кс	-4224
тере	-4225
▁ими	-4226
видно	-4227
водит	-4228
▁колле	-4229
▁компа	-4230
▁одном	-4231
вляться	-4232
▁позабо	-4233
▁удовле	-4234
▁заверши	-4235
▁проблем	-4236
▁сделали	-4237
▁хозяйства	-4238
▁благотвори	-4239
▁организован	-4240
▁48	-4241
вичу	-4242
▁тол	-4243
▁эмо	-4244
▁дово	-4245
▁куда	-4246
▁спут	-4247
▁марии	-4248
▁бюджет	-4249
▁препода	-4250
▁сексуаль	-4251
▁социально	-4252
▁поклонение	-4253
▁руководством	-4254
леко	-4255
▁197	-4256
▁мер	-4257
▁охо	-4258
▁собо	-4259
▁сочи	-4260
ностей	-4261
няется	-4262
ливость	-4263
▁лакоба	-4264
▁пророк	-4265
▁высшего	-4266
▁проводя	-4267
▁транспо	-4268
▁знамения	-4269
▁которому	-4270
▁нравится	-4271
▁положение	-4272
▁деятельностью	-4273
гой	-4274
круг	-4275
рной	-4276
▁вет	-4277
▁мемо	-4278
▁наук	-4279
женных	-4280
▁адгур	-4281
▁пости	-4282
▁безнра	-4283
▁моисея	-4284
▁считают	-4285
▁следующий	-4286
▁безнравствен	-4287
рё	-4288
ены	-4289
нба	-4290
няли	-4291
▁иак	-4292
▁иона	-4293
▁руфь	-4294
жность	-4295
▁даниил	-4296
▁замеча	-4297
▁обороны	-4298
▁подходя	-4299
▁упомина	-4300
ворил	-4301
▁коро	-4302
▁през	-4303
▁тамо	-4304
валось	-4305
▁помог	-4306
▁силой	-4307
▁будешь	-4308
▁первен	-4309
▁уголов	-4310
▁хотели	-4311
▁примеры	-4312
▁приходится	-4313
▁определенные	-4314
нит	-4315
вшим	-4316
пись	-4317
▁дли	-4318
▁туда	-4319
тивный	-4320
▁смогли	-4321
▁преподнес	-4322
▁последствия	-4323
▁национальной	-4324
дая	-4325
зем	-4326
пка	-4327
щал	-4328
дото	-4329
▁ощу	-4330
▁гала	-4331
▁одну	-4332
▁путе	-4333
▁эсфи	-4334
▁кровь	-4335
▁божьей	-4336
▁группа	-4337
▁зрения	-4338
▁провоз	-4339
▁кажется	-4340
▁комитет	-4341
▁подрост	-4342
▁мужество	-4343
▁обсудили	-4344
▁ожидается	-4345
шит	-4346
мить	-4347
▁осад	-4348
▁вторы	-4349
▁дамей	-4350
▁рауля	-4351
▁обычно	-4352
▁супругов	-4353
▁миллионов	-4354
▁соглашения	-4355
цать	-4356
щены	-4357
▁виду	-4358
▁илья	-4359
▁море	-4360
числен	-4361
▁квици	-4362
▁нелег	-4363
▁техни	-4364
▁увидел	-4365
▁преданность	-4366
▁пользоваться	-4367
▁вя	-4368
дании	-4369
▁жени	-4370
▁член	-4371
ванный	-4372
▁ваших	-4373
▁краси	-4374
▁самые	-4375
▁самый	-4376
▁число	-4377
▁делегации	-4378
▁тен	-4379
льная	-4380
▁веду	-4381
▁любы	-4382
▁отды	-4383
▁победу	-4384
▁станут	-4385
▁получил	-4386
▁братьями	-4387
▁материал	-4388
▁придержи	-4389
▁пришлось	-4390
гия	-4391
▁ави	-4392
гулия	-4393
▁лицо	-4394
▁ныне	-4395
ложить	-4396
редото	-4397
ходить	-4398
▁верхов	-4399
▁народом	-4400
▁успехов	-4401
▁отмечается	-4402
жил	-4403
лие	-4404
рили	-4405
вился	-4406
льном	-4407
▁выво	-4408
▁жены	-4409
▁рода	-4410
▁сочув	-4411
▁сфере	-4412
▁южной	-4413
▁надежда	-4414
▁сторону	-4415
▁предстоя	-4416
шта	-4417
стям	-4418
▁анд	-4419
ваясь	-4420
лейба	-4421
▁поки	-4422
▁демон	-4423
▁лицом	-4424
▁верных	-4425
▁знаешь	-4426
▁начать	-4427
▁тяжело	-4428
▁финансо	-4429
▁обещание	-4430
▁участники	-4431
▁мероприятие	-4432
▁здравоохранения	-4433
нг	-4434
ске	-4435
▁яс	-4436
▁клю	-4437
▁анти	-4438
▁мяте	-4439
▁анато	-4440
▁диску	-4441
▁сопро	-4442
ционной	-4443
▁прости	-4444
▁главным	-4445
▁ответил	-4446
▁хорошие	-4447
▁обучение	-4448
▁очевидно	-4449
▁сосредото	-4450
▁библейских	-4451
▁совершенно	-4452
20	-4453
дел	-4454
утбо	-4455
▁раб	-4456
▁взро	-4457
▁сезо	-4458
▁тама	-4459
▁учил	-4460
▁исаии	-4461
▁верным	-4462
▁инвали	-4463
▁нашему	-4464
▁тысячи	-4465
▁самуила	-4466
▁креститься	-4467
▁80	-4468
сфер	-4469
менти	-4470
▁дене	-4471
▁имел	-4472
▁сере	-4473
ствием	-4474
▁гицба	-4475
▁гордо	-4476
▁покры	-4477
просить	-4478
▁отдель	-4479
▁порядке	-4480
▁штрафом	-4481
▁животных	-4482
▁провозгла	-4483
▁абазинской	-4484
есе	-4485
чном	-4486
логии	-4487
нного	-4488
▁делам	-4489
▁исход	-4490
▁расти	-4491
▁целью	-4492
▁искать	-4493
▁полной	-4494
▁абхазов	-4495
▁большое	-4496
▁немного	-4497
▁приятно	-4498
▁политике	-4499
▁уверенность	-4500
тря	-4501
меня	-4502
риим	-4503
ющая	-4504
▁193	-4505
▁газ	-4506
тавли	-4507
▁греш	-4508
▁руку	-4509
▁фази	-4510
вержен	-4511
стоять	-4512
▁англи	-4513
▁согре	-4514
▁твоего	-4515
▁членов	-4516
▁национа	-4517
▁исполнение	-4518
▁представить	-4519
▁общественной	-4520
▁ответственность	-4521
▁мас	-4522
▁сбо	-4523
сятся	-4524
▁багра	-4525
▁ведет	-4526
▁выход	-4527
▁судеб	-4528
▁вокруг	-4529
▁замети	-4530
▁удосто	-4531
▁активно	-4532
▁дополни	-4533
▁постара	-4534
▁терпение	-4535
щер	-4536
вели	-4537
ниях	-4538
вляют	-4539
клады	-4540
ровка	-4541
▁муха	-4542
▁семи	-4543
вочный	-4544
▁колос	-4545
▁благой	-4546
▁вызыва	-4547
▁навыки	-4548
▁искренне	-4549
▁христианин	-4550
▁международных	-4551
ср	-4552
▁46	-4553
▁зе	-4554
▁2014	-4555
▁ближ	-4556
▁вита	-4557
▁села	-4558
тились	-4559
▁отцом	-4560
▁подар	-4561
▁упомя	-4562
▁футбо	-4563
▁воспита	-4564
▁достоин	-4565
▁атмосфер	-4566
▁благоразу	-4567
▁наказания	-4568
▁следующие	-4569
ёл	-4570
оны	-4571
пти	-4572
▁чь	-4573
шими	-4574
▁ваше	-4575
валась	-4576
▁давай	-4577
▁тобой	-4578
▁филиа	-4579
▁послал	-4580
▁доброту	-4581
вос	-4582
евич	-4583
нной	-4584
пози	-4585
рите	-4586
стор	-4587
▁вен	-4588
▁реша	-4589
▁дипло	-4590
▁мусса	-4591
▁прямо	-4592
▁экспо	-4593
▁жертвы	-4594
▁молодо	-4595
▁отказа	-4596
▁погода	-4597
▁помимо	-4598
▁вольной	-4599
▁должность	-4600
▁посещение	-4601
▁слушателей	-4602
▁очамчырского	-4603
брь	-4604
еты	-4605
дник	-4606
▁196	-4607
▁ква	-4608
▁сви	-4609
▁обще	-4610
▁верно	-4611
▁напол	-4612
▁такую	-4613
▁багапш	-4614
▁провел	-4615
▁пророчества	-4616
▁проинформировал	-4617
нар	-4618
▁ир	-4619
скор	-4620
чься	-4621
▁аста	-4622
▁упла	-4623
▁холо	-4624
▁начали	-4625
▁смысле	-4626
▁господи	-4627
▁последний	-4628
вд	-4629
жей	-4630
тое	-4631
▁её	-4632
дами	-4633
читы	-4634
▁аве	-4635
жению	-4636
▁ассо	-4637
▁ваша	-4638
▁аршба	-4639
▁голос	-4640
▁имеют	-4641
▁раска	-4642
▁мнению	-4643
▁выступле	-4644
▁отвечает	-4645
▁принципа	-4646
▁нравствен	-4647
▁наказывается	-4648
новей	-4649
▁репа	-4650
▁санк	-4651
▁еврей	-4652
▁любой	-4653
ционных	-4654
▁раскры	-4655
▁сессии	-4656
▁заслужи	-4657
▁осадков	-4658
▁символи	-4659
▁структу	-4660
▁изменить	-4661
▁эфесянам	-4662
▁разговари	-4663
▁поклонения	-4664
▁представьте	-4665
зде	-4666
дные	-4667
шара	-4668
шему	-4669
▁исх	-4670
▁мис	-4671
▁мое	-4672
▁юри	-4673
▁видя	-4674
▁возь	-4675
▁указ	-4676
▁живем	-4677
▁летию	-4678
▁научи	-4679
▁грузии	-4680
▁делают	-4681
▁жители	-4682
▁изобра	-4683
▁осетии	-4684
▁главный	-4685
▁сыновей	-4686
фон	-4687
▁55	-4688
вана	-4689
теть	-4690
тина	-4691
▁сау	-4692
крати	-4693
лезно	-4694
▁18.0	-4695
▁коле	-4696
▁лаза	-4697
▁попы	-4698
питься	-4699
циональ	-4700
▁гумани	-4701
▁большая	-4702
▁мучения	-4703
▁пригото	-4704
▁разрабо	-4705
▁прежнему	-4706
▁программа	-4707
▁общественных	-4708
▁свидетельство	-4709
чё	-4710
обо	-4711
гает	-4712
скать	-4713
ствий	-4714
туаль	-4715
ющему	-4716
▁попе	-4717
▁счет	-4718
гаться	-4719
▁ведом	-4720
▁влады	-4721
▁убеди	-4722
держать	-4723
▁вечную	-4724
▁прийти	-4725
▁понимал	-4726
▁колоссянам	-4727
лии	-4728
▁фара	-4729
▁акции	-4730
▁затра	-4731
▁дьявол	-4732
▁женщин	-4733
▁жизнью	-4734
▁концер	-4735
▁кодекса	-4736
▁писание	-4737
▁преступ	-4738
▁репатри	-4739
▁турнира	-4740
▁учиться	-4741
▁бедствия	-4742
мут	-4743
сор	-4744
исти	-4745
няют	-4746
▁бори	-4747
▁осве	-4748
▁раба	-4749
▁улуч	-4750
вились	-4751
вшихся	-4752
▁война	-4753
▁плодо	-4754
ступить	-4755
▁ближай	-4756
▁встреч	-4757
▁знаком	-4758
▁месяца	-4759
▁близких	-4760
▁выступа	-4761
▁история	-4762
▁избегать	-4763
▁смотреть	-4764
▁совершил	-4765
▁находятся	-4766
▁организаций	-4767
гах	-4768
джа	-4769
▁оз	-4770
емой	-4771
знес	-4772
нным	-4773
ропо	-4774
хать	-4775
▁лаг	-4776
▁опо	-4777
мости	-4778
▁кино	-4779
▁поря	-4780
шиться	-4781
▁ангел	-4782
▁любим	-4783
▁турец	-4784
▁такими	-4785
▁поручил	-4786
▁торгово	-4787
▁примерно	-4788
▁ситуацию	-4789
▁справиться	-4790
▁постановление	-4791
нят	-4792
пля	-4793
сать	-4794
▁низ	-4795
▁тео	-4796
жений	-4797
сария	-4798
▁реда	-4799
▁выкуп	-4800
▁патри	-4801
▁подда	-4802
живание	-4803
▁быстро	-4804
▁гостей	-4805
▁деньги	-4806
▁истина	-4807
▁адлейба	-4808
▁занятия	-4809
▁несколь	-4810
▁создать	-4811
▁турнире	-4812
▁филиппий	-4813
▁территория	-4814
▁сомневаться	-4815
▁заместителем	-4816
боя	-4817
бный	-4818
ждал	-4819
куба	-4820
шься	-4821
▁уди	-4822
▁тюрь	-4823
▁гораз	-4824
▁нарко	-4825
▁петер	-4826
▁абзацы	-4827
▁законы	-4828
▁никола	-4829
▁басария	-4830
▁остается	-4831
▁наказание	-4832
▁основании	-4833
▁рассматри	-4834
▁ҳ	-4835
жут	-4836
неть	-4837
▁ной	-4838
▁даст	-4839
▁воору	-4840
▁домой	-4841
▁закры	-4842
▁оружи	-4843
▁таком	-4844
▁щедро	-4845
▁превра	-4846
▁сможет	-4847
▁перспек	-4848
▁условия	-4849
▁непременно	-4850
▁университета	-4851
тива	-4852
▁ева	-4853
▁неба	-4854
вилось	-4855
емость	-4856
▁впере	-4857
▁расхо	-4858
законие	-4859
▁михаил	-4860
▁начало	-4861
▁немало	-4862
▁гораздо	-4863
▁молодые	-4864
▁могущест	-4865
▁заботиться	-4866
▁настоящего	-4867
▁республику	-4868
зом	-4869
бель	-4870
вано	-4871
▁зла	-4872
▁нави	-4873
бности	-4874
ленный	-4875
▁безза	-4876
▁божьи	-4877
▁знако	-4878
▁итоге	-4879
▁пасту	-4880
▁правитель	-4881
▁реализации	-4882
▁относительно	-4883
няка	-4884
▁книгу	-4885
▁описа	-4886
▁отста	-4887
▁бизнес	-4888
▁просты	-4889
▁совету	-4890
▁состав	-4891
рованный	-4892
▁квициния	-4893
▁института	-4894
▁настоящее	-4895
▁рассказала	-4896
▁сухумского	-4897
▁требования	-4898
дз	-4899
фици	-4900
▁тема	-4901
▁иначе	-4902
▁спосо	-4903
▁итогам	-4904
▁решить	-4905
▁бюджета	-4906
▁группой	-4907
▁морской	-4908
▁предела	-4909
▁располо	-4910
▁общаться	-4911
▁принесет	-4912
▁создания	-4913
▁слушаться	-4914
▁филиппийцам	-4915
бок	-4916
дам	-4917
▁65	-4918
писи	-4919
▁выше	-4920
▁жене	-4921
▁стих	-4922
▁тело	-4923
ренный	-4924
ченный	-4925
▁буква	-4926
▁повто	-4927
▁уника	-4928
▁форма	-4929
▁побуди	-4930
▁делится	-4931
▁настрой	-4932
▁применя	-4933
▁геннадий	-4934
▁наверняка	-4935
▁президентом	-4936
▁аль	-4937
▁блу	-4938
▁ков	-4939
▁саи	-4940
рович	-4941
▁мате	-4942
▁фило	-4943
▁энер	-4944
▁богат	-4945
▁выбор	-4946
▁живет	-4947
▁ревно	-4948
▁сирии	-4949
▁сможе	-4950
▁спикер	-4951
▁оказыва	-4952
▁править	-4953
▁абхазией	-4954
▁возраста	-4955
▁поступил	-4956
▁местности	-4957
щую	-4958
бере	-4959
▁195	-4960
несли	-4961
▁васи	-4962
▁импе	-4963
▁рады	-4964
▁речи	-4965
станов	-4966
▁домаш	-4967
▁любил	-4968
▁любят	-4969
▁особы	-4970
▁царей	-4971
▁числа	-4972
▁сыновь	-4973
▁безусло	-4974
▁беспоко	-4975
▁пророка	-4976
▁выставка	-4977
▁духовных	-4978
▁обсудить	-4979
▁петербур	-4980
▁провести	-4981
▁заботится	-4982
▁заседание	-4983
▁подготавли	-4984
▁внимательно	-4985
▁поклоняться	-4986
▁преступление	-4987
еме	-4988
зиа	-4989
▁фл	-4990
▁эль	-4991
▁моей	-4992
▁почу	-4993
▁покой	-4994
▁приро	-4995
▁свыше	-4996
▁зависи	-4997
▁картин	-4998
▁превос	-4999
▁ожидает	-5000
▁удоволь	-5001
▁давление	-5002
▁наиболее	-5003
▁радостью	-5004
▁имущества	-5005
▁удовлетво	-5006
▁существует	-5007
кор	-5008
сел	-5009
вень	-5010
дется	-5011
дцати	-5012
▁заго	-5013
▁солн	-5014
▁сосе	-5015
▁став	-5016
ровича	-5017
точный	-5018
шаться	-5019
▁грехи	-5020
▁незна	-5021
▁отсут	-5022
▁почув	-5023
▁нашими	-5024
▁принимает	-5025
▁различных	-5026
▁воскресение	-5027
▁строительство	-5028
емых	-5029
тивы	-5030
▁сда	-5031
▁сни	-5032
▁упа	-5033
салия	-5034
▁пребы	-5035
ственно	-5036
ческими	-5037
▁артист	-5038
▁выпуск	-5039
▁иосифа	-5040
▁решать	-5041
▁служат	-5042
▁ангелов	-5043
▁великий	-5044
▁законом	-5045
▁столкну	-5046
▁первосвя	-5047
▁понимать	-5048
▁вернуться	-5049
▁размышлять	-5050
▁спортсмены	-5051
▁свидетелями	-5052
▁международной	-5053
▁представитель	-5054
ген	-5055
гнуть	-5056
венный	-5057
квабия	-5058
▁несча	-5059
▁пораз	-5060
▁голосо	-5061
▁письмо	-5062
▁словно	-5063
▁святого	-5064
▁супруги	-5065
▁единство	-5066
▁миквабия	-5067
▁объектов	-5068
▁настолько	-5069
▁секретарь	-5070
▁прекрасный	-5071
дзе	-5072
чку	-5073
дуют	-5074
тной	-5075
щими	-5076
▁ран	-5077
▁неви	-5078
▁нечи	-5079
▁пицу	-5080
житься	-5081
паться	-5082
▁выпла	-5083
▁игорь	-5084
▁посоль	-5085
▁разные	-5086
▁решили	-5087
▁ассоциа	-5088
▁референ	-5089
▁относятся	-5090
▁первосвящен	-5091
тая	-5092
шек	-5093
▁каз	-5094
▁шин	-5095
▁бесс	-5096
▁знаю	-5097
▁присо	-5098
▁славы	-5099
▁узнал	-5100
▁учиты	-5101
▁доступ	-5102
▁остано	-5103
▁зависит	-5104
▁команда	-5105
▁средней	-5106
▁хорошее	-5107
▁мудрости	-5108
▁случилось	-5109
▁учреждения	-5110
▁государство	-5111
бей	-5112
гно	-5113
кля	-5114
твор	-5115
▁гос	-5116
▁май	-5117
▁рав	-5118
▁пови	-5119
ющиеся	-5120
▁делал	-5121
▁призы	-5122
▁прими	-5123
▁реаль	-5124
▁визита	-5125
▁осетия	-5126
▁столич	-5127
тельному	-5128
▁случаях	-5129
▁республикой	-5130
бая	-5131
шет	-5132
шой	-5133
боро	-5134
вшей	-5135
даго	-5136
жено	-5137
▁мет	-5138
дного	-5139
▁одни	-5140
▁пробу	-5141
▁вашего	-5142
▁прошли	-5143
▁языках	-5144
▁достичь	-5145
▁возрасте	-5146
▁общества	-5147
▁подумайте	-5148
▁установлен	-5149
▁воспоминания	-5150
сах	-5151
▁сю	-5152
▁джу	-5153
▁кли	-5154
▁флп	-5155
скоми	-5156
▁даур	-5157
▁душа	-5158
щением	-5159
▁близо	-5160
▁вещей	-5161
▁людях	-5162
▁отдела	-5163
▁профес	-5164
▁укрепи	-5165
зировать	-5166
▁органов	-5167
▁сестрам	-5168
▁качество	-5169
▁характер	-5170
▁заблуждение	-5171
▁человечества	-5172
4;	-5173
гии	-5174
124;	-5175
спон	-5176
▁ахь	-5177
▁буд	-5178
▁вар	-5179
▁вов	-5180
▁кля	-5181
▁пав	-5182
▁крас	-5183
бление	-5184
ватель	-5185
тность	-5186
▁возло	-5187
▁&#124;	-5188
▁задача	-5189
▁многим	-5190
▁отлича	-5191
▁самоот	-5192
▁алашара	-5193
▁верными	-5194
▁нелегко	-5195
▁выразить	-5196
▁документ	-5197
▁гуманитар	-5198
▁применять	-5199
вью	-5200
екии	-5201
лены	-5202
чное	-5203
▁аха	-5204
▁кан	-5205
▁титу	-5206
▁убий	-5207
честву	-5208
▁зачем	-5209
▁напро	-5210
▁серде	-5211
▁спаси	-5212
▁восста	-5213
▁жизнен	-5214
▁мальчи	-5215
▁педаго	-5216
▁сергея	-5217
▁страте	-5218
▁госкоми	-5219
▁иезекии	-5220
▁израиля	-5221
▁проявить	-5222
▁продолжать	-5223
дка	-5224
дон	-5225
тео	-5226
▁сс	-5227
▁эн	-5228
дных	-5229
сона	-5230
▁зри	-5231
▁тон	-5232
▁дево	-5233
▁крот	-5234
спонден	-5235
▁подвер	-5236
▁почита	-5237
▁великое	-5238
▁пригово	-5239
▁действий	-5240
▁производи	-5241
лыми	-5242
стую	-5243
тора	-5244
▁зав	-5245
▁теп	-5246
лений	-5247
▁обле	-5248
▁легче	-5249
▁обыча	-5250
▁позже	-5251
▁санкт	-5252
▁школу	-5253
▁южная	-5254
▁конкре	-5255
▁путеше	-5256
▁алексан	-5257
▁команды	-5258
▁общение	-5259
▁повелел	-5260
▁руководя	-5261
▁хотелось	-5262
▁апостолов	-5263
▁встретился	-5264
▁принадлежит	-5265
▁возвещателей	-5266
др	-5267
лле	-5268
пов	-5269
▁ещё	-5270
гоцен	-5271
ствуя	-5272
▁аргу	-5273
▁вефи	-5274
▁запо	-5275
▁реки	-5276
▁чудо	-5277
носить	-5278
▁ближе	-5279
▁делах	-5280
▁комму	-5281
▁вдохно	-5282
▁верные	-5283
▁заболе	-5284
▁первая	-5285
▁переме	-5286
▁спорту	-5287
▁напомни	-5288
▁шинкуба	-5289
▁здоровье	-5290
▁ниспосла	-5291
▁сотворил	-5292
▁безусловно	-5293
▁законопроект	-5294
▁государственном	-5295
мыс	-5296
шил	-5297
деся	-5298
риан	-5299
▁кле	-5300
▁заму	-5301
▁ссср	-5302
▁фрон	-5303
▁артур	-5304
▁проща	-5305
▁самой	-5306
▁центр	-5307
▁будучи	-5308
▁важнее	-5309
▁вторых	-5310
▁выбира	-5311
▁назвал	-5312
▁презен	-5313
▁учитель	-5314
▁счастливы	-5315
▁корреспонден	-5316
▁определенной	-5317
вят	-5318
▁края	-5319
▁спис	-5320
▁укра	-5321
▁аслан	-5322
▁оскор	-5323
▁повле	-5324
боязнен	-5325
надцати	-5326
▁божьем	-5327
▁другое	-5328
▁мадина	-5329
▁письма	-5330
▁твердо	-5331
▁столько	-5332
▁хороший	-5333
▁иордании	-5334
▁основание	-5335
▁сельского	-5336
▁продолжает	-5337
▁заслуженный	-5338
▁благополучия	-5339
▁политической	-5340
▁сотрудничестве	-5341
веро	-5342
думы	-5343
сили	-5344
▁кос	-5345
▁лже	-5346
ванге	-5347
▁иова	-5348
ющихся	-5349
▁иаков	-5350
▁мисси	-5351
▁посол	-5352
▁прида	-5353
▁трево	-5354
женного	-5355
▁родной	-5356
▁академи	-5357
▁неблаго	-5358
▁расписа	-5359
▁волнение	-5360
▁наказыва	-5361
▁объяснил	-5362
▁пионером	-5363
▁признания	-5364
▁начальника	-5365
▁состоялась	-5366
▁шу	-5367
маге	-5368
▁фла	-5369
чется	-5370
▁взять	-5371
▁могла	-5372
▁раско	-5373
▁тания	-5374
▁шести	-5375
▁еванге	-5376
▁одному	-5377
степриим	-5378
▁взгляды	-5379
▁знамени	-5380
▁помните	-5381
▁внимания	-5382
▁драгоцен	-5383
▁занимать	-5384
▁производ	-5385
▁внутренних	-5386
▁послушание	-5387
▁российских	-5388
▁богобоязнен	-5389
▁министерство	-5390
гава	-5391
енье	-5392
мене	-5393
стом	-5394
▁пас	-5395
▁ума	-5396
мотре	-5397
▁заре	-5398
▁затро	-5399
▁насла	-5400
▁подза	-5401
▁прода	-5402
▁радио	-5403
▁силах	-5404
▁царем	-5405
▁желает	-5406
▁постра	-5407
▁раская	-5408
▁городов	-5409
▁историю	-5410
▁слушать	-5411
▁миллионы	-5412
▁обучения	-5413
▁проводится	-5414
▁размышление	-5415
жим	-5416
▁аа	-5417
лана	-5418
▁500	-5419
▁мвд	-5420
кание	-5421
слана	-5422
служи	-5423
▁архе	-5424
▁фран	-5425
начале	-5426
▁живут	-5427
▁массо	-5428
▁страх	-5429
▁вселен	-5430
▁употре	-5431
▁форума	-5432
▁близкие	-5433
▁вначале	-5434
▁порядок	-5435
▁предприя	-5436
▁условиях	-5437
▁министром	-5438
▁совместно	-5439
▁укреплять	-5440
▁настоящему	-5441
дёт	-5442
ссы	-5443
▁90	-5444
зуме	-5445
мень	-5446
мери	-5447
рица	-5448
руют	-5449
тает	-5450
▁бук	-5451
▁тут	-5452
льщик	-5453
▁жену	-5454
▁олим	-5455
▁прило	-5456
▁сложи	-5457
▁смело	-5458
тывание	-5459
▁видели	-5460
▁говорю	-5461
▁облада	-5462
▁самуил	-5463
▁юбилей	-5464
▁властью	-5465
▁даниила	-5466
▁черномо	-5467
▁бороться	-5468
▁обещания	-5469
▁населения	-5470
▁показывают	-5471
▁художествен	-5472
▁национального	-5473
▁экономического	-5474
▁представителями	-5475
▁бт	-5476
влял	-5477
вшее	-5478
лями	-5479
рити	-5480
чена	-5481
▁нев	-5482
ведли	-5483
нович	-5484
графии	-5485
▁описы	-5486
▁поэта	-5487
▁прием	-5488
вленных	-5489
▁лучший	-5490
▁мнение	-5491
▁набере	-5492
▁страда	-5493
▁допуска	-5494
▁намного	-5495
▁помогло	-5496
▁развить	-5497
▁успешно	-5498
▁депутаты	-5499
▁комиссия	-5500
▁обстанов	-5501
▁связанные	-5502
▁сожалению	-5503
▁действовать	-5504
▁руководства	-5505
▁второзаконие	-5506
▁израильтянам	-5507
▁последователей	-5508
lt	-5509
зка	-5510
лон	-5511
мед	-5512
тура	-5513
▁всп	-5514
риаль	-5515
чными	-5516
▁2013	-5517
▁прио	-5518
▁проз	-5519
▁след	-5520
▁храм	-5521
валить	-5522
женной	-5523
▁ждать	-5524
▁полови	-5525
▁апостолы	-5526
▁верность	-5527
▁алиментов	-5528
▁двусторон	-5529
▁документа	-5530
▁посещения	-5531
▁различные	-5532
▁гостеприим	-5533
▁поддержать	-5534
▁совершенные	-5535
▁поддерживает	-5536
▁христианские	-5537
спи	-5538
▁ус	-5539
лено	-5540
отно	-5541
рисе	-5542
трия	-5543
циях	-5544
▁пен	-5545
▁ску	-5546
стоит	-5547
▁невы	-5548
▁обру	-5549
▁прой	-5550
влений	-5551
▁далее	-5552
▁женой	-5553
▁храма	-5554
льность	-5555
▁конкурс	-5556
▁личности	-5557
▁предвари	-5558
▁сообщении	-5559
▁информацию	-5560
▁воскресения	-5561
▁несовершенно	-5562
дж	-5563
зь	-5564
лда	-5565
лок	-5566
клон	-5567
нены	-5568
▁сих	-5569
сегда	-5570
▁апша	-5571
▁парт	-5572
нологи	-5573
▁ветер	-5574
▁кабар	-5575
▁крити	-5576
▁отвра	-5577
▁успеш	-5578
▁важное	-5579
▁грехов	-5580
▁послуш	-5581
▁притча	-5582
▁сравни	-5583
▁третий	-5584
▁незакон	-5585
▁субботу	-5586
▁туристи	-5587
▁написано	-5588
▁подробно	-5589
фей	-5590
▁ву	-5591
нули	-5592
летия	-5593
▁ахба	-5594
▁заво	-5595
▁приу	-5596
▁сбли	-5597
▁сцен	-5598
ковать	-5599
степен	-5600
тельны	-5601
▁ахьдз	-5602
▁оправ	-5603
▁военно	-5604
▁делами	-5605
▁милость	-5606
▁обещает	-5607
▁апостола	-5608
▁касается	-5609
▁погибших	-5610
▁служению	-5611
▁сомнения	-5612
▁исполнилось	-5613
▁несовершеннолет	-5614
вей	-5615
мую	-5616
▁кч	-5617
ющую	-5618
ешься	-5619
▁меда	-5620
▁меры	-5621
▁тако	-5622
ренное	-5623
▁нечто	-5624
▁оцени	-5625
▁бывает	-5626
▁вариан	-5627
ственный	-5628
▁вавилон	-5629
▁перемен	-5630
▁примере	-5631
▁отмечает	-5632
▁поразмыш	-5633
▁проводит	-5634
▁самообла	-5635
▁владислав	-5636
▁искандера	-5637
▁физической	-5638
куа	-5639
рет	-5640
▁ды	-5641
езда	-5642
лопо	-5643
раба	-5644
сало	-5645
▁зам	-5646
▁сне	-5647
тение	-5648
▁моря	-5649
▁преды	-5650
▁прину	-5651
▁часов	-5652
тельств	-5653
▁мужчин	-5654
▁паспор	-5655
▁правду	-5656
▁спасти	-5657
▁языков	-5658
▁дмитрия	-5659
▁отправи	-5660
▁районов	-5661
▁библиоте	-5662
▁духовное	-5663
▁духовной	-5664
▁выполнять	-5665
▁правления	-5666
▁устанавли	-5667
▁управление	-5668
▁планируется	-5669
▁самоотвержен	-5670
▁христианских	-5671
хия	-5672
▁мм	-5673
▁выя	-5674
▁лев	-5675
▁лжи	-5676
интере	-5677
пление	-5678
▁нормы	-5679
▁пусты	-5680
тельном	-5681
▁важные	-5682
▁знание	-5683
▁получа	-5684
▁фарисе	-5685
▁чагава	-5686
▁авраама	-5687
▁мужчины	-5688
▁наступи	-5689
▁подразуме	-5690
▁позволяет	-5691
▁публикации	-5692
▁совершенное	-5693
▁поблагодарил	-5694
▁руководители	-5695
гая	-5696
▁идо	-5697
долго	-5698
ехать	-5699
чесла	-5700
▁вещи	-5701
▁вред	-5702
▁идут	-5703
▁неис	-5704
▁одоб	-5705
▁стои	-5706
▁увле	-5707
▁чаще	-5708
нением	-5709
▁ковче	-5710
▁могло	-5711
▁новое	-5712
▁полно	-5713
▁слабо	-5714
▁служа	-5715
▁дружбу	-5716
▁мыслей	-5717
▁особое	-5718
тировать	-5719
▁вячесла	-5720
▁желания	-5721
▁мертвых	-5722
▁мужчина	-5723
▁насилия	-5724
▁прилага	-5725
▁просить	-5726
▁событие	-5727
▁состоит	-5728
тельности	-5729
▁подобные	-5730
▁страница	-5731
▁укрепить	-5732
▁положения	-5733
▁промышлен	-5734
▁библейской	-5735
▁произведения	-5736
мое	-5737
▁аф	-5738
чную	-5739
▁заг	-5740
▁иер	-5741
▁хро	-5742
рский	-5743
▁круг	-5744
▁твое	-5745
каться	-5746
▁чисты	-5747
▁влияет	-5748
▁статья	-5749
▁христе	-5750
▁влияние	-5751
▁поведение	-5752
▁стойкость	-5753
▁благоразум	-5754
▁документов	-5755
▁находиться	-5756
▁разговоров	-5757
▁приглашение	-5758
▁профессиона	-5759
лья	-5760
душе	-5761
онер	-5762
тете	-5763
магед	-5764
▁воин	-5765
▁моги	-5766
▁твоя	-5767
▁фами	-5768
▁взаим	-5769
▁вреда	-5770
▁нужна	-5771
▁пойти	-5772
▁пошли	-5773
▁рассе	-5774
▁самоу	-5775
▁сотво	-5776
ступать	-5777
▁партии	-5778
▁прошед	-5779
▁служил	-5780
▁армагед	-5781
▁возраст	-5782
▁счастья	-5783
▁увидели	-5784
▁примером	-5785
▁сообщест	-5786
▁конференции	-5787
руг	-5788
▁ест	-5789
▁анна	-5790
▁вось	-5791
▁капи	-5792
жается	-5793
▁автор	-5794
▁выдви	-5795
▁иудей	-5796
▁плана	-5797
▁школа	-5798
▁египет	-5799
▁знаете	-5800
▁обрати	-5801
нический	-5802
▁вступле	-5803
▁последу	-5804
▁происхо	-5805
▁заповеди	-5806
▁интересу	-5807
▁навсегда	-5808
▁напротив	-5809
▁создание	-5810
▁константин	-5811
▁политических	-5812
ок	-5813
пя	-5814
вут	-5815
лар	-5816
рим	-5817
▁51	-5818
▁эпи	-5819
льник	-5820
яться	-5821
▁инал	-5822
▁поис	-5823
▁ущер	-5824
▁фонд	-5825
десяти	-5826
▁макси	-5827
▁одино	-5828
▁плоти	-5829
▁прово	-5830
▁сложно	-5831
▁действу	-5832
▁допусти	-5833
▁мировой	-5834
▁подарок	-5835
▁прокуро	-5836
▁интервью	-5837
▁оказался	-5838
▁привести	-5839
▁стараемся	-5840
▁верховного	-5841
▁старейшинам	-5842
гие	-5843
жес	-5844
рый	-5845
рят	-5846
▁47	-5847
гают	-5848
емые	-5849
обще	-5850
веден	-5851
▁смог	-5852
водить	-5853
оборот	-5854
▁башни	-5855
▁необы	-5856
▁ноеми	-5857
▁сирий	-5858
▁труда	-5859
▁ценит	-5860
пустить	-5861
▁давать	-5862
▁задачи	-5863
▁общего	-5864
▁иеремия	-5865
▁предыду	-5866
▁служили	-5867
▁фессало	-5868
▁подобным	-5869
▁приходит	-5870
▁проявлял	-5871
▁родитель	-5872
▁писателей	-5873
▁понимание	-5874
▁александра	-5875
▁облачность	-5876
▁обращаться	-5877
▁служителям	-5878
нт	-5879
вим	-5880
луа	-5881
тай	-5882
▁52	-5883
▁уд	-5884
голо	-5885
нула	-5886
▁мощ	-5887
снуть	-5888
▁оцен	-5889
▁церк	-5890
▁твоей	-5891
имущест	-5892
▁вечере	-5893
▁вообще	-5894
▁народы	-5895
▁незаслу	-5896
▁пожелал	-5897
▁связаны	-5898
▁учителя	-5899
▁нескольких	-5900
▁расписание	-5901
▁атмосферное	-5902
пп	-5903
ара	-5904
шают	-5905
▁мяг	-5906
▁ура	-5907
нений	-5908
струк	-5909
▁зару	-5910
▁осла	-5911
▁смыс	-5912
ваемся	-5913
вшиеся	-5914
рованы	-5915
▁новым	-5916
▁утром	-5917
▁связей	-5918
ничество	-5919
▁взрослы	-5920
▁доверие	-5921
▁заплани	-5922
▁причина	-5923
▁сильнее	-5924
▁личность	-5925
▁требуется	-5926
▁направления	-5927
▁религиозные	-5928
▁исследования	-5929
▁взаимодействия	-5930
тк	-5931
кар	-5932
дное	-5933
чешь	-5934
▁кня	-5935
рении	-5936
телях	-5937
▁воле	-5938
▁иной	-5939
▁пищу	-5940
▁трен	-5941
образо	-5942
способ	-5943
▁видим	-5944
▁желаю	-5945
▁ничто	-5946
чивость	-5947
▁англий	-5948
▁завтра	-5949
▁одежду	-5950
▁разоча	-5951
▁святым	-5952
▁большую	-5953
▁григорь	-5954
▁исключи	-5955
▁назвать	-5956
▁наконец	-5957
▁прожива	-5958
▁ответить	-5959
▁присоеди	-5960
▁демонстра	-5961
▁поколения	-5962
▁проповедь	-5963
▁сострадание	-5964
▁аи	-5965
ерки	-5966
мого	-5967
рать	-5968
суль	-5969
▁бор	-5970
▁кчр	-5971
▁ори	-5972
тация	-5973
▁воля	-5974
▁гали	-5975
▁кана	-5976
▁лука	-5977
▁мама	-5978
▁адыге	-5979
▁слабы	-5980
шивание	-5981
▁автомо	-5982
▁поводу	-5983
▁руслан	-5984
▁страну	-5985
▁ходить	-5986
▁четвер	-5987
▁гагулия	-5988
▁награду	-5989
▁наркоти	-5990
▁обучать	-5991
▁четырех	-5992
▁непросто	-5993
▁свободой	-5994
лив	-5995
лож	-5996
лили	-5997
любо	-5998
рыпш	-5999
сток	-6000
▁сце	-6001
▁выро	-6002
▁опро	-6003
▁сайт	-6004
▁завое	-6005
▁лицем	-6006
▁пишет	-6007
▁попро	-6008
▁траге	-6009
▁вечной	-6010
▁всякий	-6011
▁попечи	-6012
▁правил	-6013
▁сатане	-6014
▁депутат	-6015
▁недавно	-6016
▁отличие	-6017
▁пожелает	-6018
▁приходят	-6019
▁творения	-6020
▁поступить	-6021
▁руководству	-6022
бь	-6023
лова	-6024
рено	-6025
▁вдо	-6026
вость	-6027
ивать	-6028
ковой	-6029
торов	-6030
▁нала	-6031
▁думаю	-6032
▁остро	-6033
▁подал	-6034
ременно	-6035
▁эсфирь	-6036
▁этноса	-6037
интересо	-6038
▁виталий	-6039
▁господу	-6040
▁драмати	-6041
▁поднима	-6042
▁пояснил	-6043
▁причины	-6044
▁спирити	-6045
▁духовном	-6046
▁истинные	-6047
▁остаться	-6048
▁эффектив	-6049
▁видеороли	-6050
▁основания	-6051
▁благодарны	-6052
▁потребности	-6053
▁руководителя	-6054
▁ответственности	-6055
луй	-6056
тят	-6057
▁пь	-6058
жена	-6059
шено	-6060
▁зау	-6061
зание	-6062
▁иуды	-6063
▁моих	-6064
▁сино	-6065
говори	-6066
ивание	-6067
▁приез	-6068
▁самим	-6069
зывание	-6070
▁важный	-6071
▁какого	-6072
▁мастер	-6073
▁увидев	-6074
▁молодой	-6075
▁помогли	-6076
▁сделает	-6077
▁проявляя	-6078
▁уважением	-6079
▁сотрудники	-6080
▁председателем	-6081
.1	-6082
ьы	-6083
жья	-6084
ффа	-6085
ации	-6086
жают	-6087
▁пти	-6088
▁сан	-6089
▁взял	-6090
▁коор	-6091
▁окон	-6092
▁ужас	-6093
▁вашим	-6094
▁кампа	-6095
▁лежит	-6096
▁разда	-6097
▁крайне	-6098
▁основе	-6099
▁родину	-6100
▁хотите	-6101
▁главная	-6102
▁принцип	-6103
▁смертью	-6104
▁сопрово	-6105
▁сестрами	-6106
▁испытания	-6107
▁категории	-6108
▁произведе	-6109
▁региональ	-6110
▁библейский	-6111
▁иерусалима	-6112
▁культурных	-6113
▁представил	-6114
▁правительство	-6115
лев	-6116
мар	-6117
мас	-6118
пар	-6119
рыз	-6120
шни	-6121
▁рт	-6122
мона	-6123
чери	-6124
▁дню	-6125
дения	-6126
вилась	-6127
мление	-6128
▁похва	-6129
▁угото	-6130
▁прислу	-6131
▁провер	-6132
▁узнаём	-6133
▁фазиля	-6134
▁надежды	-6135
▁небесах	-6136
▁примеча	-6137
▁местного	-6138
▁политики	-6139
▁понимает	-6140
▁радовать	-6141
▁предсказа	-6142
▁взаимоотно	-6143
▁московской	-6144
▁поговорить	-6145
▁родителями	-6146
бка	-6147
сро	-6148
▁уз	-6149
солю	-6150
тник	-6151
нутся	-6152
тятся	-6153
▁неот	-6154
▁ребя	-6155
▁спло	-6156
▁вышел	-6157
▁месяц	-6158
▁новую	-6159
▁праве	-6160
▁психо	-6161
▁роман	-6162
▁руках	-6163
▁школь	-6164
▁абсолю	-6165
▁обещал	-6166
▁одежды	-6167
▁семьей	-6168
▁ученый	-6169
▁конфлик	-6170
▁духовную	-6171
▁огромное	-6172
▁привлека	-6173
▁работает	-6174
▁применить	-6175
▁подготовки	-6176
▁президенту	-6177
▁практически	-6178
▁международном	-6179
ён	-6180
мор	-6181
щена	-6182
▁гул	-6183
▁мра	-6184
класс	-6185
▁весо	-6186
▁заха	-6187
▁нама	-6188
▁обли	-6189
▁стан	-6190
▁видят	-6191
▁отдал	-6192
▁выборы	-6193
▁деревь	-6194
▁дружба	-6195
▁христу	-6196
▁всякого	-6197
▁научить	-6198
▁спросил	-6199
▁иллюстрации	-6200
▁иллюстрацию	-6201
▁строительства	-6202
зво	-6203
кри	-6204
мана	-6205
поли	-6206
роди	-6207
▁бок	-6208
▁хиб	-6209
тного	-6210
▁ачба	-6211
▁воду	-6212
▁имен	-6213
▁кове	-6214
▁успо	-6215
▁прока	-6216
▁тимур	-6217
▁уроки	-6218
▁недели	-6219
▁разъяс	-6220
▁арсалия	-6221
▁болезни	-6222
▁георгий	-6223
▁комплек	-6224
▁полезно	-6225
▁система	-6226
▁составе	-6227
▁умерших	-6228
▁крещение	-6229
▁организу	-6230
▁парламен	-6231
▁понимаем	-6232
▁постанов	-6233
▁расскажи	-6234
▁небесного	-6235
▁семейного	-6236
▁соблюдать	-6237
▁владислава	-6238
▁преимущест	-6239
▁противодей	-6240
▁мероприятии	-6241
▁рассказывать	-6242
ъя	-6243
ена	-6244
▁ай	-6245
▁бри	-6246
новый	-6247
чивый	-6248
▁ждет	-6249
▁изли	-6250
▁лето	-6251
▁поль	-6252
▁поощ	-6253
▁схва	-6254
миться	-6255
▁будто	-6256
▁елена	-6257
▁женев	-6258
▁новой	-6259
▁пенси	-6260
▁понял	-6261
▁спаса	-6262
сказыва	-6263
▁вечери	-6264
▁лучшее	-6265
▁масшта	-6266
▁научно	-6267
▁палаты	-6268
▁препят	-6269
▁скажут	-6270
▁талант	-6271
▁годовщи	-6272
▁реализо	-6273
▁христом	-6274
▁принести	-6275
▁продолжи	-6276
▁некоторым	-6277
▁праведные	-6278
▁возвещатели	-6279
▁обеспечения	-6280
сур	-6281
тации	-6282
циона	-6283
▁бата	-6284
▁маши	-6285
ющийся	-6286
▁аргун	-6287
▁невер	-6288
▁стиха	-6289
▁воспри	-6290
▁вступи	-6291
▁россия	-6292
▁милости	-6293
▁создана	-6294
▁участия	-6295
▁черкеси	-6296
▁автомоби	-6297
▁движения	-6298
▁защитить	-6299
▁определя	-6300
▁основные	-6301
▁подчерки	-6302
▁спросить	-6303
▁строитель	-6304
▁говорилось	-6305
▁последователи	-6306
кл	-6307
гали	-6308
лежа	-6309
водят	-6310
▁двор	-6311
▁овец	-6312
▁юрий	-6313
ченных	-6314
▁давно	-6315
▁иудеи	-6316
▁непра	-6317
▁нераз	-6318
▁реаги	-6319
▁самих	-6320
▁сыном	-6321
▁трудо	-6322
ститься	-6323
▁аппара	-6324
▁второе	-6325
▁дочери	-6326
▁добавил	-6327
▁миллиар	-6328
▁общения	-6329
▁связано	-6330
▁коммента	-6331
▁попросил	-6332
▁владимира	-6333
▁отношению	-6334
▁северного	-6335
▁организацию	-6336
▁обстоятельствах	-6337
кви	-6338
рут	-6339
тол	-6340
щет	-6341
йцам	-6342
рных	-6343
▁зал	-6344
брать	-6345
порта	-6346
ритет	-6347
▁выну	-6348
▁горь	-6349
ждению	-6350
шенный	-6351
▁занта	-6352
▁извле	-6353
▁огонь	-6354
▁плохи	-6355
▁свадь	-6356
▁учили	-6357
▁жертва	-6358
▁избран	-6359
▁посыла	-6360
▁учимся	-6361
▁большим	-6362
▁заранее	-6363
▁исправи	-6364
▁рабочей	-6365
▁уважать	-6366
▁крещения	-6367
▁наоборот	-6368
▁предстоит	-6369
▁приведите	-6370
▁противоре	-6371
▁предлагать	-6372
▁воскресенье	-6373
▁представляет	-6374
рат	-6375
сит	-6376
вшая	-6377
цкия	-6378
шили	-6379
▁впо	-6380
▁зер	-6381
▁сар	-6382
▁чан	-6383
льную	-6384
▁млад	-6385
▁мужу	-6386
▁грузи	-6387
▁превы	-6388
▁целом	-6389
▁далеко	-6390
▁моисею	-6391
▁предна	-6392
▁пройти	-6393
▁безопас	-6394
▁доброму	-6395
▁работал	-6396
▁событий	-6397
▁столицы	-6398
▁стороне	-6399
▁уровень	-6400
▁чувству	-6401
▁влиянием	-6402
▁молодежь	-6403
▁перегово	-6404
▁регистра	-6405
▁смиренно	-6406
▁традиции	-6407
▁совершали	-6408
▁терпеливо	-6409
▁поделиться	-6410
▁обсуждались	-6411
▁фессалоники	-6412
▁необходимости	-6413
▁справедливость	-6414
▁76	-6415
дным	-6416
дника	-6417
енных	-6418
▁2008	-6419
▁кост	-6420
▁сути	-6421
ющимся	-6422
▁вдруг	-6423
▁герма	-6424
▁домам	-6425
▁лагер	-6426
вленный	-6427
▁беспла	-6428
▁божьим	-6429
▁делаем	-6430
▁каждой	-6431
▁открыл	-6432
▁родины	-6433
▁тысяче	-6434
▁безупре	-6435
▁орденом	-6436
▁осужден	-6437
▁посетил	-6438
▁прелюбо	-6439
▁инициати	-6440
▁началась	-6441
▁писатель	-6442
▁позволил	-6443
▁стратеги	-6444
▁оказались	-6445
▁призывает	-6446
▁иерусалиме	-6447
▁литературу	-6448
▁обязанностей	-6449
▁сотрудничество	-6450
▁государственным	-6451
ент	-6452
миа	-6453
▁49	-6454
нике	-6455
ющем	-6456
▁аре	-6457
▁бре	-6458
небре	-6459
телия	-6460
▁огне	-6461
▁прод	-6462
▁роли	-6463
▁функ	-6464
ковича	-6465
лённый	-6466
▁букле	-6467
▁старо	-6468
▁форум	-6469
▁никого	-6470
▁рабочи	-6471
▁границы	-6472
▁зантария	-6473
▁основном	-6474
▁подразде	-6475
▁пренебре	-6476
▁указания	-6477
▁вселенной	-6478
▁происходи	-6479
▁соболезно	-6480
▁совещание	-6481
▁милосердие	-6482
▁многочислен	-6483
▁проповедуем	-6484
сю	-6485
вёр	-6486
зно	-6487
лец	-6488
пок	-6489
▁ез	-6490
тиви	-6491
тила	-6492
▁умо	-6493
▁шах	-6494
ложил	-6495
разия	-6496
щихся	-6497
▁мучи	-6498
ктором	-6499
ченные	-6500
▁восем	-6501
▁вошли	-6502
▁графи	-6503
▁красо	-6504
▁флага	-6505
▁возьми	-6506
▁десять	-6507
▁звание	-6508
▁искупи	-6509
▁очамчы	-6510
▁принят	-6511
▁родине	-6512
▁сторон	-6513
▁центре	-6514
лировать	-6515
ственных	-6516
▁алексей	-6517
▁бояться	-6518
▁молитву	-6519
▁открове	-6520
▁убежден	-6521
▁утешить	-6522
▁довольно	-6523
▁писателя	-6524
▁составля	-6525
▁ветеранов	-6526
▁повеление	-6527
▁традицион	-6528
▁обратиться	-6529
▁преодолеть	-6530
▁развлечения	-6531
кет	-6532
люб	-6533
мян	-6534
шку	-6535
верь	-6536
тное	-6537
▁гря	-6538
▁нур	-6539
▁час	-6540
▁экс	-6541
▁яро	-6542
▁начи	-6543
▁темы	-6544
▁цари	-6545
ситься	-6546
тивных	-6547
▁верят	-6548
▁шесть	-6549
▁юриди	-6550
вленные	-6551
▁деяние	-6552
▁концов	-6553
▁мудрый	-6554
▁полнов	-6555
▁родном	-6556
▁собесе	-6557
▁потерпе	-6558
▁соломон	-6559
▁возвраща	-6560
▁выставки	-6561
▁изучению	-6562
▁сообщила	-6563
▁приносить	-6564
▁абазинский	-6565
▁произойдет	-6566
▁общественно	-6567
▁наказываются	-6568
▁празднования	-6569
▁родственники	-6570
кр	-6571
ов	-6572
волю	-6573
нджо	-6574
▁мел	-6575
▁смя	-6576
ленно	-6577
▁выпа	-6578
▁горы	-6579
▁комп	-6580
ровано	-6581
▁абази	-6582
▁возму	-6583
▁захва	-6584
▁нееми	-6585
▁приго	-6586
▁слову	-6587
▁вечерю	-6588
▁доволь	-6589
▁изгото	-6590
▁мнения	-6591
▁уровне	-6592
▁факуль	-6593
▁задания	-6594
▁проница	-6595
▁прощать	-6596
▁увеличи	-6597
▁финанси	-6598
▁духовный	-6599
▁посещать	-6600
▁телевиде	-6601
▁депутатов	-6602
▁пределами	-6603
▁принимают	-6604
▁фестивале	-6605
▁определить	-6606
▁праздником	-6607
▁журналистов	-6608
гий	-6609
нью	-6610
шал	-6611
▁коз	-6612
▁эпо	-6613
логия	-6614
стным	-6615
чатый	-6616
▁наго	-6617
▁сина	-6618
▁балка	-6619
▁напря	-6620
▁неожи	-6621
▁разво	-6622
▁траги	-6623
▁эльви	-6624
▁восхва	-6625
▁придне	-6626
▁стойко	-6627
▁устрой	-6628
▁воодуше	-6629
▁гулрыпш	-6630
▁затраги	-6631
▁оставил	-6632
▁считать	-6633
▁подобное	-6634
▁подумать	-6635
▁гагрского	-6636
▁женевских	-6637
▁культурно	-6638
▁опасности	-6639
▁поддержки	-6640
▁последней	-6641
▁необходимость	-6642
▁фессалоникийцам	-6643
чек	-6644
ждая	-6645
мыми	-6646
рачи	-6647
чник	-6648
щено	-6649
▁гва	-6650
▁лау	-6651
▁мыш	-6652
▁оба	-6653
▁тес	-6654
ждали	-6655
нутый	-6656
▁бодр	-6657
▁охва	-6658
▁плод	-6659
▁поку	-6660
▁саду	-6661
▁хлеб	-6662
истине	-6663
льному	-6664
▁велел	-6665
▁клуба	-6666
▁обору	-6667
▁пообе	-6668
▁пошел	-6669
▁разли	-6670
▁такти	-6671
▁устро	-6672
▁борьбы	-6673
▁непоро	-6674
▁другому	-6675
▁персона	-6676
▁пограни	-6677
▁требует	-6678
▁четверг	-6679
▁выставке	-6680
▁кротость	-6681
▁открывая	-6682
▁поистине	-6683
▁пытается	-6684
▁страницы	-6685
▁студенты	-6686
▁дискуссий	-6687
▁инвалидов	-6688
сторожности	-6689
▁предсказал	-6690
▁федерацией	-6691
фу	-6692
щить	-6693
▁еже	-6694
▁мид	-6695
▁чём	-6696
ждают	-6697
жными	-6698
хозяй	-6699
▁араб	-6700
▁воло	-6701
▁душу	-6702
▁маха	-6703
▁меха	-6704
живать	-6705
недель	-6706
▁задей	-6707
▁судей	-6708
▁труди	-6709
▁узнав	-6710
▁юбиле	-6711
▁газеты	-6712
▁каждом	-6713
▁ложной	-6714
▁опубли	-6715
▁поведе	-6716
▁престо	-6717
▁привел	-6718
▁примет	-6719
▁причин	-6720
▁подверг	-6721
▁проекты	-6722
▁утешение	-6723
▁отделения	-6724
▁праздника	-6725
▁стараются	-6726
▁исполнении	-6727
▁художников	-6728
▁свидетельствует	-6729
рд	-6730
пор	-6731
фан	-6732
делы	-6733
чере	-6734
▁192	-6735
▁ашу	-6736
▁уко	-6737
змава	-6738
▁гнев	-6739
▁двое	-6740
▁запу	-6741
▁злые	-6742
▁леон	-6743
▁наве	-6744
▁пить	-6745
▁пост	-6746
▁башне	-6747
▁насме	-6748
▁слепы	-6749
▁судом	-6750
▁татар	-6751
вайтесь	-6752
вляются	-6753
▁автобу	-6754
▁верить	-6755
▁данный	-6756
▁ошибки	-6757
▁церкви	-6758
▁чтения	-6759
ственной	-6760
▁военной	-6761
▁джинджо	-6762
▁усердно	-6763
▁хочется	-6764
▁важность	-6765
▁начинает	-6766
▁серьезно	-6767
▁древности	-6768
▁набережной	-6769
▁подготовке	-6770
▁посвященный	-6771
▁возможностей	-6772
блю	-6773
вки	-6774
ску	-6775
▁мк	-6776
ваку	-6777
тным	-6778
▁бой	-6779
▁вве	-6780
▁шер	-6781
стров	-6782
▁звез	-6783
▁мину	-6784
▁напи	-6785
▁обез	-6786
▁отры	-6787
▁хана	-6788
▁хозя	-6789
▁обита	-6790
▁отчет	-6791
▁призо	-6792
▁слева	-6793
▁стаби	-6794
▁тетра	-6795
▁читая	-6796
▁этими	-6797
▁абхазы	-6798
▁дружбы	-6799
▁задума	-6800
▁защиту	-6801
▁каждым	-6802
▁площад	-6803
▁прямым	-6804
▁словах	-6805
▁глазами	-6806
▁интерна	-6807
▁конкурса	-6808
▁оставить	-6809
▁постепен	-6810
▁проходят	-6811
▁сообщили	-6812
▁теократи	-6813
▁искусства	-6814
▁джинджолия	-6815
▁заинтересо	-6816
▁гудаутского	-6817
▁сегодняшний	-6818
▁противостоять	-6819
▁распространен	-6820
әы	-6821
зму	-6822
мая	-6823
хла	-6824
бели	-6825
▁дау	-6826
▁рад	-6827
▁шал	-6828
десят	-6829
▁делу	-6830
▁дени	-6831
▁зная	-6832
▁лице	-6833
▁преу	-6834
▁укло	-6835
дность	-6836
▁анали	-6837
▁беско	-6838
▁иеффа	-6839
▁мушни	-6840
▁прият	-6841
▁распу	-6842
▁сокра	-6843
▁видишь	-6844
▁демоны	-6845
▁дороге	-6846
▁естест	-6847
▁закону	-6848
▁лучших	-6849
▁налого	-6850
▁помогал	-6851
▁процесс	-6852
▁сохрани	-6853
▁герзмава	-6854
▁координа	-6855
▁обладает	-6856
▁оказывать	-6857
▁проявляют	-6858
▁состояние	-6859
▁становятся	-6860
▁репатриации	-6861
зей	-6862
реа	-6863
тян	-6864
змом	-6865
▁119	-6866
▁бал	-6867
▁ски	-6868
▁верх	-6869
▁кафе	-6870
▁сыну	-6871
▁това	-6872
▁школ	-6873
▁выйти	-6874
▁погло	-6875
▁столь	-6876
▁убить	-6877
▁чанба	-6878
гивание	-6879
▁курорт	-6880
▁одобря	-6881
▁порази	-6882
▁премии	-6883
▁присво	-6884
▁родных	-6885
▁стремя	-6886
▁тренер	-6887
▁хочешь	-6888
▁языком	-6889
тический	-6890
▁аллахом	-6891
▁бессмер	-6892
▁виногра	-6893
▁воспиты	-6894
▁выборах	-6895
▁харазия	-6896
▁хорошим	-6897
▁духовным	-6898
▁отметить	-6899
▁передать	-6900
▁подписан	-6901
▁потребно	-6902
▁нарушение	-6903
▁нуждается	-6904
▁предложил	-6905
▁прокурату	-6906
▁достижения	-6907
пия	-6908
рика	-6909
след	-6910
▁иго	-6911
▁мою	-6912
▁сор	-6913
▁сты	-6914
▁узы	-6915
▁иных	-6916
▁исче	-6917
▁опла	-6918
видный	-6919
ленных	-6920
▁возвы	-6921
▁иного	-6922
ждается	-6923
▁контак	-6924
▁примут	-6925
▁содержи	-6926
▁избежать	-6927
▁понедель	-6928
▁процвета	-6929
▁черкесии	-6930
▁имущество	-6931
▁материалы	-6932
▁уважаемый	-6933
▁постепенно	-6934
▁предполага	-6935
▁сочувствие	-6936
ала	-6937
бай	-6938
▁54	-6939
ждем	-6940
тров	-6941
▁сна	-6942
▁тща	-6943
жания	-6944
комен	-6945
ломет	-6946
честв	-6947
▁добы	-6948
▁визит	-6949
▁возро	-6950
▁держа	-6951
▁созна	-6952
▁верный	-6953
▁вещест	-6954
▁влиять	-6955
▁воинов	-6956
▁главой	-6957
▁заняли	-6958
▁просве	-6959
▁раздра	-6960
▁актуаль	-6961
▁астамур	-6962
▁валерия	-6963
▁жертвен	-6964
▁местные	-6965
▁наблюда	-6966
▁подумай	-6967
▁черномор	-6968
▁константи	-6969
▁относился	-6970
▁прекрасно	-6971
▁состоялся	-6972
▁церемонии	-6973
▁ассоциации	-6974
▁знакомство	-6975
▁исполнения	-6976
▁результаты	-6977
▁проповедовал	-6978
зап	-6979
огу	-6980
уго	-6981
цах	-6982
мопе	-6983
▁езе	-6984
▁ипа	-6985
▁сче	-6986
дному	-6987
мнить	-6988
щаясь	-6989
▁бабу	-6990
▁гром	-6991
▁дабы	-6992
▁жало	-6993
▁огор	-6994
▁уточ	-6995
гистри	-6996
заться	-6997
няются	-6998
▁креди	-6999
▁любые	-7000
▁нашли	-7001
▁рамку	-7002
▁храме	-7003
▁алкого	-7004
▁господ	-7005
▁просит	-7006
▁самари	-7007
нировать	-7008
▁выборов	-7009
▁выбрать	-7010
▁галатам	-7011
▁неудиви	-7012
ствование	-7013
▁неизвест	-7014
▁позволит	-7015
▁разногла	-7016
▁ведомства	-7017
▁объяснить	-7018
▁студентов	-7019
▁работников	-7020
▁справляться	-7021
▁пожертвования	-7022
▁предусмотренные	-7023
фы	-7024
▁©	-7025
вив	-7026
дза	-7027
дум	-7028
жий	-7029
шма	-7030
▁щи	-7031
днев	-7032
▁опу	-7033
▁алха	-7034
▁побы	-7035
▁флаг	-7036
▁шами	-7037
вающий	-7038
чаться	-7039
▁нужны	-7040
▁петру	-7041
▁понра	-7042
вывание	-7043
▁близок	-7044
▁всякую	-7045
▁другая	-7046
▁отклик	-7047
▁правда	-7048
▁прокля	-7049
▁судить	-7050
▁любящий	-7051
▁остался	-7052
▁академии	-7053
▁ансамбля	-7054
▁начнется	-7055
▁псалмопе	-7056
▁работами	-7057
▁возможное	-7058
▁воспользу	-7059
▁преподава	-7060
▁проявляем	-7061
▁размышляя	-7062
▁неудивительно	-7063
ваю	-7064
гал	-7065
тел	-7066
▁габ	-7067
▁оты	-7068
▁шли	-7069
жется	-7070
клона	-7071
▁1914	-7072
▁2020	-7073
▁аджи	-7074
▁впол	-7075
▁отка	-7076
▁юные	-7077
▁итоги	-7078
▁масте	-7079
▁сквер	-7080
надцать	-7081
▁важным	-7082
▁защиты	-7083
▁команд	-7084
▁некото	-7085
▁побере	-7086
▁растор	-7087
▁случаи	-7088
▁статью	-7089
▁усилий	-7090
▁девушки	-7091
▁закончи	-7092
▁израиле	-7093
▁истиной	-7094
▁километ	-7095
▁открыто	-7096
▁пожалуй	-7097
▁вопросах	-7098
▁вспомним	-7099
▁диаспора	-7100
▁интересы	-7101
▁приводит	-7102
▁ставропо	-7103
▁известный	-7104
▁поздравля	-7105
▁серьезные	-7106
▁транспорт	-7107
▁заключение	-7108
▁проводятся	-7109
▁госкомитета	-7110
▁российского	-7111
▁способность	-7112
▁государственных	-7113
▁признательность	-7114
бов	-7115
пба	-7116
▁53	-7117
веть	-7118
поло	-7119
пред	-7120
▁жив	-7121
▁лых	-7122
щиеся	-7123
▁девя	-7124
▁игры	-7125
▁общи	-7126
▁услу	-7127
▁цело	-7128
ляться	-7129
родный	-7130
▁агума	-7131
▁восхи	-7132
▁гумба	-7133
▁подви	-7134
▁смысл	-7135
▁мессия	-7136
▁силами	-7137
▁всемогу	-7138
▁говорим	-7139
▁порядка	-7140
▁трениру	-7141
▁верующих	-7142
▁казалось	-7143
▁крепкого	-7144
▁семейное	-7145
▁кабардино	-7146
▁мужествен	-7147
▁проходить	-7148
▁решительно	-7149
▁сохранения	-7150
▁необходимые	-7151
▁полномочный	-7152
▁представление	-7153
бую	-7154
гар	-7155
мат	-7156
фра	-7157
рена	-7158
тряс	-7159
▁люд	-7160
▁убы	-7161
ваете	-7162
стана	-7163
стных	-7164
▁книг	-7165
▁нали	-7166
▁поэт	-7167
▁саид	-7168
▁армии	-7169
▁батал	-7170
▁верит	-7171
▁гагра	-7172
▁денег	-7173
▁нагля	-7174
▁проте	-7175
▁сража	-7176
▁стихо	-7177
▁сцене	-7178
▁тарас	-7179
▁твоих	-7180
▁чирик	-7181
▁архите	-7182
▁другую	-7183
▁думают	-7184
▁зарубе	-7185
▁народе	-7186
▁нейтра	-7187
▁отдыха	-7188
▁скажет	-7189
▁создан	-7190
▁торгов	-7191
▁беслана	-7192
▁величай	-7193
▁вечером	-7194
▁жестоко	-7195
▁выступил	-7196
▁повлиять	-7197
▁примеров	-7198
▁приносят	-7199
▁узнавать	-7200
▁археологи	-7201
▁воспользо	-7202
▁напоминает	-7203
▁священного	-7204
▁официальный	-7205
▁преступлений	-7206
ал	-7207
бль	-7208
лял	-7209
мбу	-7210
ону	-7211
тке	-7212
▁оф	-7213
вале	-7214
ляют	-7215
мать	-7216
нена	-7217
ряют	-7218
щали	-7219
▁ссы	-7220
ждена	-7221
стики	-7222
▁бело	-7223
▁дали	-7224
▁нера	-7225
▁освя	-7226
▁шаги	-7227
▁ашуба	-7228
▁враги	-7229
▁думал	-7230
▁задач	-7231
▁комна	-7232
▁консу	-7233
▁мятеж	-7234
▁повре	-7235
▁прото	-7236
▁стати	-7237
▁боевой	-7238
▁боевых	-7239
▁вестью	-7240
▁голову	-7241
▁добрые	-7242
▁лауреа	-7243
▁леонид	-7244
▁механи	-7245
▁многом	-7246
▁читаем	-7247
▁большей	-7248
▁впослед	-7249
▁вторник	-7250
▁площади	-7251
▁правило	-7252
▁беззакон	-7253
▁доверять	-7254
▁пережить	-7255
▁поговори	-7256
▁находился	-7257
▁обращение	-7258
▁остальные	-7259
▁дальнейшем	-7260
▁называется	-7261
▁эмоциональ	-7262
▁впоследствии	-7263
▁самообладание	-7264
аа	-7265
гба	-7266
леп	-7267
гина	-7268
▁дес	-7269
▁деду	-7270
▁иско	-7271
▁реак	-7272
ровала	-7273
товать	-7274
▁зураб	-7275
▁повер	-7276
▁тенни	-7277
▁баграт	-7278
▁давиду	-7279
▁добрым	-7280
▁ковчег	-7281
▁марина	-7282
▁приста	-7283
▁стихов	-7284
▁успеха	-7285
▁визитом	-7286
▁замысел	-7287
▁россией	-7288
▁педагоги	-7289
▁приблизи	-7290
▁директора	-7291
▁духовного	-7292
▁краснодар	-7293
▁останется	-7294
▁последних	-7295
▁правление	-7296
▁характера	-7297
▁зарегистри	-7298
▁отношениях	-7299
▁полагаться	-7300
▁творчества	-7301
▁сталкиваются	-7302
▁соболезнования	-7303
▁58	-7304
▁66	-7305
рина	-7306
сред	-7307
терп	-7308
▁взы	-7309
▁дай	-7310
▁сад	-7311
▁сбы	-7312
▁сул	-7313
▁шаг	-7314
енный	-7315
рание	-7316
тябрь	-7317
▁смыр	-7318
▁соли	-7319
▁суве	-7320
▁викто	-7321
▁делом	-7322
▁замуж	-7323
▁карто	-7324
▁миром	-7325
▁облег	-7326
▁сыгра	-7327
▁авваку	-7328
▁важных	-7329
▁вечера	-7330
▁внутри	-7331
▁северо	-7332
▁страха	-7333
▁считал	-7334
▁цветов	-7335
▁видение	-7336
▁главных	-7337
▁мемориа	-7338
▁условий	-7339
▁вызывает	-7340
▁главного	-7341
▁огромную	-7342
▁сегодняш	-7343
▁интересно	-7344
▁ненавидит	-7345
▁укрепляет	-7346
▁переменная	-7347
▁проведение	-7348
▁образование	-7349
▁развлечений	-7350
▁беспокойства	-7351
▁родственников	-7352
▁последователям	-7353
гьы	-7354
зти	-7355
мах	-7356
чёт	-7357
ёрт	-7358
▁дн	-7359
бина	-7360
вите	-7361
нава	-7362
печа	-7363
▁дав	-7364
▁дзи	-7365
▁эфи	-7366
▁вашу	-7367
▁вода	-7368
▁заку	-7369
▁коба	-7370
▁мала	-7371
▁отбы	-7372
▁тела	-7373
мотрел	-7374
▁винов	-7375
▁закан	-7376
▁имена	-7377
▁лакер	-7378
▁общей	-7379
▁отвле	-7380
▁самая	-7381
▁добрый	-7382
▁посред	-7383
▁стихий	-7384
▁юношей	-7385
▁брошюре	-7386
▁доброде	-7387
▁компози	-7388
▁личного	-7389
▁районах	-7390
▁религия	-7391
▁следова	-7392
▁сохраня	-7393
▁эксплуа	-7394
▁название	-7395
▁находясь	-7396
▁придется	-7397
▁абхазским	-7398
▁интересов	-7399
▁программу	-7400
▁содержится	-7401
▁сообщается	-7402
▁состоялось	-7403
▁готовностью	-7404
▁организаторы	-7405
йн	-7406
уэ	-7407
вор	-7408
дио	-7409
зре	-7410
мец	-7411
мощ	-7412
хле	-7413
коло	-7414
надо	-7415
сами	-7416
чала	-7417
▁бер	-7418
ратор	-7419
циями	-7420
▁плот	-7421
▁пони	-7422
▁войти	-7423
▁плоть	-7424
▁прису	-7425
▁сотни	-7426
▁сумму	-7427
▁важную	-7428
▁внешне	-7429
▁войска	-7430
▁именем	-7431
▁москвы	-7432
▁никому	-7433
▁охотно	-7434
▁скорби	-7435
новением	-7436
тельский	-7437
▁большие	-7438
▁гудаута	-7439
▁думаете	-7440
▁двадцати	-7441
▁ежегодно	-7442
▁институт	-7443
▁получать	-7444
▁проектов	-7445
▁участием	-7446
▁поступали	-7447
▁воспитание	-7448
▁обсуждения	-7449
▁референдума	-7450
▁представлены	-7451
вку	-7452
дор	-7453
сии	-7454
шай	-7455
лина	-7456
▁144	-7457
▁вое	-7458
служа	-7459
▁2012	-7460
▁зала	-7461
▁кора	-7462
▁паль	-7463
▁сосу	-7464
▁сото	-7465
▁эккл	-7466
ложили	-7467
▁приле	-7468
▁экспе	-7469
ющегося	-7470
▁египта	-7471
▁наилуч	-7472
▁партий	-7473
▁поняли	-7474
▁предме	-7475
▁службу	-7476
▁синопти	-7477
▁считали	-7478
▁сыновья	-7479
▁чирикба	-7480
▁говорите	-7481
▁делиться	-7482
▁достигну	-7483
▁единства	-7484
▁молитесь	-7485
▁образова	-7486
▁спасения	-7487
▁обратился	-7488
▁поступают	-7489
▁появились	-7490
▁предназна	-7491
▁проповедуя	-7492
▁социальной	-7493
▁последствий	-7494
▁способности	-7495
▁министерством	-7496
▁общественного	-7497
▁соревнованиях	-7498
▁неосторожности	-7499
▁взаимоотношения	-7500
жая	-7501
лью	-7502
пан	-7503
сон	-7504
хан	-7505
домо	-7506
ними	-7507
▁фра	-7508
гание	-7509
▁19.0	-7510
▁адзы	-7511
▁дбар	-7512
▁замо	-7513
▁крат	-7514
▁пита	-7515
▁углу	-7516
шается	-7517
▁владе	-7518
▁карти	-7519
▁квали	-7520
▁кубок	-7521
фикации	-7522
▁близко	-7523
▁вступа	-7524
▁габния	-7525
▁заняла	-7526
▁назван	-7527
▁бойтесь	-7528
▁впереди	-7529
▁обслужи	-7530
▁популяр	-7531
▁причине	-7532
▁рабочая	-7533
▁спасибо	-7534
▁ансамбль	-7535
▁истинный	-7536
▁очамчыра	-7537
▁проходил	-7538
▁прошлого	-7539
▁изменений	-7540
▁искренние	-7541
▁небольшой	-7542
▁христиани	-7543
▁показываем	-7544
▁военнослужа	-7545
▁подчиняться	-7546
▁представляя	-7547
▁поздравлении	-7548
▁независимость	-7549
вов	-7550
чии	-7551
▁мх	-7552
лава	-7553
энер	-7554
▁300	-7555
▁бле	-7556
▁дне	-7557
▁дро	-7558
▁ужи	-7559
▁улы	-7560
лармо	-7561
ренно	-7562
стной	-7563
▁моим	-7564
▁ноги	-7565
▁раза	-7566
▁фоль	-7567
дзария	-7568
товича	-7569
▁атмос	-7570
▁брату	-7571
▁парке	-7572
▁подня	-7573
▁славу	-7574
ривание	-7575
▁зарабо	-7576
▁любите	-7577
▁патрио	-7578
▁успоко	-7579
▁подарки	-7580
▁провели	-7581
▁счастью	-7582
▁умершие	-7583
▁эльвира	-7584
правления	-7585
▁договори	-7586
▁заповедь	-7587
▁основных	-7588
▁пророков	-7589
▁паспортов	-7590
▁страданий	-7591
▁абазинских	-7592
▁готовность	-7593
▁президенте	-7594
▁президенты	-7595
▁праведность	-7596
▁университет	-7597
нё	-7598
сый	-7599
▁56	-7600
вляя	-7601
дует	-7602
рное	-7603
▁жду	-7604
▁сби	-7605
гнать	-7606
▁впра	-7607
▁идея	-7608
▁инар	-7609
▁иные	-7610
▁исаа	-7611
▁ката	-7612
▁пищи	-7613
▁погу	-7614
дивиду	-7615
россий	-7616
▁возбу	-7617
▁волну	-7618
▁годом	-7619
▁двумя	-7620
▁истре	-7621
▁неред	-7622
▁прохо	-7623
▁психи	-7624
▁резер	-7625
▁самуи	-7626
▁свете	-7627
▁делали	-7628
▁египте	-7629
▁заявил	-7630
▁проник	-7631
▁прямой	-7632
▁синаго	-7633
▁сказав	-7634
▁широко	-7635
▁награда	-7636
▁надежде	-7637
▁вячеслав	-7638
▁индивиду	-7639
▁небесный	-7640
▁непосред	-7641
▁ободрять	-7642
▁приведен	-7643
▁проведен	-7644
▁дзидзария	-7645
▁окончания	-7646
▁поделился	-7647
▁сухумской	-7648
▁убеждения	-7649
▁участвуют	-7650
▁учениками	-7651
▁государств	-7652
▁составляет	-7653
▁надзиратель	-7654
▁сотрудников	-7655
▁недостаточно	-7656
▁познакомиться	-7657
хь	-7658
тех	-7659
гура	-7660
зами	-7661
коле	-7662
нила	-7663
стил	-7664
▁сму	-7665
▁сша	-7666
стора	-7667
▁домо	-7668
▁духе	-7669
▁изло	-7670
▁инфо	-7671
▁стес	-7672
▁сюда	-7673
▁хуже	-7674
клезиа	-7675
совать	-7676
▁левит	-7677
▁найде	-7678
▁прибе	-7679
▁судьи	-7680
▁устре	-7681
▁чудес	-7682
вальный	-7683
▁врагов	-7684
▁горячо	-7685
▁звания	-7686
▁подзаг	-7687
▁предус	-7688
▁проком	-7689
▁соедин	-7690
образный	-7691
ственные	-7692
▁детства	-7693
▁истинно	-7694
▁кобахия	-7695
▁мыслями	-7696
▁насилие	-7697
▁получат	-7698
▁рекомен	-7699
▁ставить	-7700
▁гордость	-7701
▁напомнил	-7702
▁оставили	-7703
▁собранию	-7704
▁сообщают	-7705
▁экклезиа	-7706
▁организуй	-7707
▁трудиться	-7708
▁церемония	-7709
▁посмотреть	-7710
▁специально	-7711
▁заслуживает	-7712
▁приходилось	-7713
▁прокомменти	-7714
▁исторической	-7715
▁политические	-7716
▁христианская	-7717
▁исправительными	-7718
тэ	-7719
бий	-7720
лки	-7721
▁72	-7722
▁сфе	-7723
вшему	-7724
ерков	-7725
пнуть	-7726
тором	-7727
▁вока	-7728
стский	-7729
▁амери	-7730
▁возда	-7731
▁музея	-7732
▁обето	-7733
▁планы	-7734
▁подру	-7735
▁пропи	-7736
▁улице	-7737
новения	-7738
▁вполне	-7739
▁европы	-7740
▁знаний	-7741
▁инспек	-7742
▁класси	-7743
▁мусуль	-7744
▁одержа	-7745
▁распре	-7746
▁ремонт	-7747
▁солнце	-7748
▁товари	-7749
▁доброта	-7750
▁нередко	-7751
▁никаких	-7752
▁поездки	-7753
▁религию	-7754
▁слышать	-7755
▁фолькло	-7756
▁исполнит	-7757
▁паспорта	-7758
▁понимают	-7759
▁сравнить	-7760
▁вопросами	-7761
▁заседания	-7762
▁иезекииль	-7763
▁награжден	-7764
▁поступает	-7765
▁праздники	-7766
▁программе	-7767
▁профессор	-7768
▁указывает	-7769
▁федерация	-7770
▁вооруженных	-7771
▁заключается	-7772
▁национально	-7773
▁генерального	-7774
▁министерстве	-7775
▁национальных	-7776
бом	-7777
иль	-7778
тни	-7779
мено	-7780
филь	-7781
▁бит	-7782
▁выу	-7783
▁дре	-7784
▁зас	-7785
▁наг	-7786
▁сно	-7787
▁умы	-7788
вляли	-7789
▁2011	-7790
▁ласу	-7791
▁мора	-7792
▁моро	-7793
▁нара	-7794
▁сило	-7795
женные	-7796
▁верой	-7797
▁имели	-7798
▁костю	-7799
▁повсе	-7800
▁сумма	-7801
▁ущерб	-7802
▁фильм	-7803
▁невиди	-7804
▁похоро	-7805
▁правди	-7806
▁родным	-7807
валиться	-7808
▁городах	-7809
▁курорта	-7810
▁местных	-7811
▁сможете	-7812
▁бедствие	-7813
▁вавилона	-7814
▁галского	-7815
▁господин	-7816
▁источник	-7817
▁остались	-7818
▁произнес	-7819
▁апостолам	-7820
▁возникают	-7821
▁заявление	-7822
▁инфопорта	-7823
▁нуждаются	-7824
▁объясните	-7825
▁появилась	-7826
▁совершать	-7827
▁стараться	-7828
▁столичной	-7829
▁библейским	-7830
▁появляется	-7831
▁содействия	-7832
▁сохранение	-7833
▁укрепление	-7834
▁чемпионата	-7835
▁черкесской	-7836
▁мероприятиях	-7837
▁христианском	-7838
▁руководителей	-7839
ад	-7840
вне	-7841
лию	-7842
чом	-7843
▁въ	-7844
▁ҳа	-7845
граф	-7846
дном	-7847
есть	-7848
лизм	-7849
сора	-7850
вшими	-7851
делия	-7852
душно	-7853
ницей	-7854
ципли	-7855
▁зама	-7856
▁злых	-7857
▁лесо	-7858
▁марш	-7859
▁мхце	-7860
▁царю	-7861
▁экза	-7862
альный	-7863
кратно	-7864
лением	-7865
▁входи	-7866
▁крово	-7867
▁людми	-7868
▁микро	-7869
▁солда	-7870
▁театр	-7871
▁торго	-7872
▁ценим	-7873
▁кавале	-7874
▁нормам	-7875
▁божьему	-7876
▁многому	-7877
▁наделил	-7878
▁покрови	-7879
▁предмет	-7880
▁приводи	-7881
▁связана	-7882
▁членами	-7883
▁душевный	-7884
▁компании	-7885
▁народный	-7886
▁никакого	-7887
▁осталось	-7888
▁помогали	-7889
▁пострада	-7890
▁развитии	-7891
▁ребенком	-7892
▁спутника	-7893
▁повторное	-7894
▁российско	-7895
▁старейшина	-7896
▁неправильно	-7897
▁чувствовать	-7898
еса	-7899
ору	-7900
рье	-7901
сан	-7902
гети	-7903
жную	-7904
мура	-7905
нную	-7906
тыми	-7907
▁зме	-7908
кович	-7909
лятся	-7910
стами	-7911
▁асси	-7912
▁боли	-7913
▁ильи	-7914
▁исте	-7915
▁клуб	-7916
▁насы	-7917
▁олег	-7918
▁полю	-7919
▁пота	-7920
▁сухо	-7921
▁целе	-7922
вывать	-7923
▁акция	-7924
▁вашем	-7925
▁венес	-7926
▁време	-7927
▁выгля	-7928
▁давал	-7929
▁кораб	-7930
▁ресур	-7931
▁данные	-7932
▁мудрые	-7933
▁повлек	-7934
рованных	-7935
▁демонов	-7936
▁махаджи	-7937
▁надеюсь	-7938
▁писании	-7939
▁пройдут	-7940
▁соснали	-7941
▁супруга	-7942
▁экспози	-7943
▁близкого	-7944
▁нейтрали	-7945
▁преодоле	-7946
▁абхазскую	-7947
▁ревностно	-7948
▁символизи	-7949
▁совершает	-7950
▁абхазскому	-7951
▁обеспечить	-7952
▁признается	-7953
▁переживания	-7954
▁позаботился	-7955
▁исследований	-7956
▁использованием	-7957
ряз	-7958
ляем	-7959
нями	-7960
рила	-7961
яние	-7962
▁ано	-7963
дроме	-7964
енные	-7965
нулся	-7966
товый	-7967
▁выго	-7968
▁выяс	-7969
▁наря	-7970
▁оглы	-7971
▁отце	-7972
▁рост	-7973
▁учат	-7974
▁факт	-7975
венные	-7976
гресси	-7977
дитесь	-7978
стость	-7979
▁адрес	-7980
▁войну	-7981
▁желая	-7982
▁мужем	-7983
▁опять	-7984
▁языку	-7985
чеством	-7986
▁бжания	-7987
▁доктор	-7988
▁землей	-7989
▁ответь	-7990
▁продви	-7991
▁адзынба	-7992
▁максима	-7993
▁приняла	-7994
▁ребенку	-7995
▁умереть	-7996
▁договора	-7997
▁коллекти	-7998
▁подражая	-7999
▁заставить	-8000
▁конгрессе	-8001
▁однокласс	-8002
▁священном	-8003
▁спектакль	-8004
▁считается	-8005
▁информация	-8006
▁заместителя	-8007
▁понедельник	-8008
▁распоряжение	-8009
▁экономическому	-8010
бах	-8011
жие	-8012
тба	-8013
хба	-8014
▁62	-8015
▁аҧ	-8016
емле	-8017
▁вый	-8018
▁поу	-8019
▁лиши	-8020
▁моно	-8021
▁номе	-8022
▁рано	-8023
▁силе	-8024
▁утро	-8025
рением	-8026
▁вывод	-8027
▁новая	-8028
▁прояс	-8029
▁разби	-8030
▁страш	-8031
▁танца	-8032
▁факты	-8033
▁отдать	-8034
▁планах	-8035
▁строго	-8036
▁момента	-8037
▁наступа	-8038
▁олимпий	-8039
▁препара	-8040
▁строить	-8041
▁дискусси	-8042
▁туристов	-8043
▁объясняет	-8044
▁тщательно	-8045
▁библейское	-8046
▁прекрасные	-8047
▁рассказали	-8048
▁объединения	-8049
▁христианское	-8050
гуш	-8051
дри	-8052
▁ею	-8053
зная	-8054
крыл	-8055
▁вещ	-8056
стись	-8057
▁зато	-8058
▁удоб	-8059
▁волей	-8060
▁герои	-8061
▁целей	-8062
▁доброе	-8063
▁пионер	-8064
▁письме	-8065
▁режисс	-8066
▁станем	-8067
▁страна	-8068
▁театре	-8069
▁форуме	-8070
▁ценить	-8071
▁церков	-8072
▁чудеса	-8073
▁аврааму	-8074
▁венесуэ	-8075
▁заверил	-8076
▁заканчи	-8077
▁ожидать	-8078
▁сатаной	-8079
▁советов	-8080
▁граждане	-8081
▁надеемся	-8082
▁обществе	-8083
▁отмечают	-8084
▁работают	-8085
▁супружес	-8086
▁буквально	-8087
▁возникает	-8088
▁коллектив	-8089
▁мемориаль	-8090
▁останавли	-8091
▁технологи	-8092
▁пожалуйста	-8093
▁помазанных	-8094
▁посольства	-8095
▁несправедли	-8096
▁посредством	-8097
▁праведности	-8098
▁предложения	-8099
▁участвовали	-8100
▁распространения	-8101
жё	-8102
жье	-8103
киа	-8104
пом	-8105
упо	-8106
▁оо	-8107
ждую	-8108
жное	-8109
пира	-8110
рыва	-8111
▁аку	-8112
▁ода	-8113
▁сел	-8114
▁эго	-8115
зацию	-8116
тацию	-8117
▁испу	-8118
▁отту	-8119
▁папа	-8120
▁поля	-8121
нились	-8122
▁авиге	-8123
▁велит	-8124
▁вышли	-8125
▁ложью	-8126
▁округ	-8127
▁отнес	-8128
▁отцов	-8129
▁песен	-8130
▁порно	-8131
▁прика	-8132
▁распа	-8133
▁сокру	-8134
▁танце	-8135
▁точку	-8136
▁цветы	-8137
▁восьми	-8138
▁голоса	-8139
▁каждую	-8140
▁кварти	-8141
▁отрица	-8142
▁благоск	-8143
▁задержа	-8144
▁молодым	-8145
▁оказать	-8146
▁передви	-8147
▁подарил	-8148
▁присвое	-8149
▁пятницу	-8150
▁родного	-8151
ственного	-8152
▁господом	-8153
▁заверяет	-8154
▁общество	-8155
▁поставил	-8156
▁согласия	-8157
▁способен	-8158
▁экологии	-8159
▁выполнить	-8160
▁качествен	-8161
▁консульта	-8162
▁грузинской	-8163
▁республика	-8164
▁возвещатель	-8165
▁конференция	-8166
▁особенности	-8167
▁медицинского	-8168
▁рассказывается	-8169
,5	-8170
рг	-8171
рял	-8172
шес	-8173
▁69	-8174
дуар	-8175
жало	-8176
ждой	-8177
жене	-8178
▁эле	-8179
знуть	-8180
лился	-8181
носит	-8182
рению	-8183
▁вина	-8184
▁возо	-8185
▁имея	-8186
▁овла	-8187
▁рубе	-8188
▁убор	-8189
ленные	-8190
нулись	-8191
полити	-8192
▁веков	-8193
▁вовсе	-8194
▁ключе	-8195
▁марфа	-8196
▁привя	-8197
▁рекла	-8198
▁среду	-8199
▁хибла	-8200
▁щедры	-8201
▁божьих	-8202
▁вправе	-8203
▁ордена	-8204
▁отмеча	-8205
▁очевид	-8206
▁разуме	-8207
▁случаю	-8208
▁умерли	-8209
▁генерал	-8210
▁молился	-8211
▁перееха	-8212
▁потребо	-8213
▁свобода	-8214
▁вернулся	-8215
▁побудить	-8216
▁претерпе	-8217
▁призывал	-8218
▁финансов	-8219
▁пионерами	-8220
▁фотографи	-8221
▁библейскую	-8222
▁гражданина	-8223
▁петербурге	-8224
▁поздравляю	-8225
▁территорию	-8226
▁представлен	-8227
▁единственный	-8228
▁человечество	-8229
▁руководителем	-8230
▁христианского	-8231
▁способствовать	-8232
ам	-8233
век	-8234
руп	-8235
тон	-8236
▁93	-8237
▁аэ	-8238
кома	-8239
стам	-8240
стья	-8241
▁чай	-8242
дятся	-8243
жание	-8244
▁вымо	-8245
▁дано	-8246
▁мело	-8247
▁порт	-8248
▁твою	-8249
▁языч	-8250
ненный	-8251
садить	-8252
▁любое	-8253
▁покон	-8254
▁текст	-8255
▁эдуар	-8256
сывание	-8257
▁агумаа	-8258
▁аламиа	-8259
▁восемь	-8260
▁дорого	-8261
▁образу	-8262
▁развер	-8263
▁развра	-8264
▁третье	-8265
читывать	-8266
▁когония	-8267
▁побудит	-8268
▁потерял	-8269
▁сможешь	-8270
▁состава	-8271
▁защищать	-8272
▁наступит	-8273
▁остаются	-8274
▁отметили	-8275
▁советник	-8276
▁спокойно	-8277
▁стихотво	-8278
▁поступили	-8279
▁связанных	-8280
▁серьезный	-8281
▁совершили	-8282
▁занимается	-8283
▁молодежной	-8284
▁неверующие	-8285
▁неверующих	-8286
▁содержание	-8287
▁необходимое	-8288
▁воспользуйся	-8289
▁демонстрацию	-8290
▁соревнований	-8291
▁совершенствуем	-8292
лаз	-8293
нси	-8294
сен	-8295
хна	-8296
юще	-8297
қәа	-8298
▁07	-8299
▁яг	-8300
вато	-8301
нера	-8302
пети	-8303
▁16.	-8304
рамия	-8305
тябре	-8306
хание	-8307
ходов	-8308
▁акте	-8309
▁весе	-8310
▁вида	-8311
▁зача	-8312
▁укры	-8313
▁хута	-8314
вшийся	-8315
льными	-8316
щаться	-8317
▁живых	-8318
▁кишма	-8319
▁концу	-8320
▁митин	-8321
▁обуча	-8322
▁отчая	-8323
▁павлу	-8324
▁проли	-8325
▁рекон	-8326
▁стены	-8327
ливание	-8328
льности	-8329
▁молодё	-8330
▁никара	-8331
▁самому	-8332
▁старше	-8333
▁экспер	-8334
ствовало	-8335
▁близким	-8336
▁брошюра	-8337
▁верного	-8338
▁включая	-8339
▁высокий	-8340
▁паспорт	-8341
▁сердцах	-8342
▁следить	-8343
▁геннадия	-8344
▁достойно	-8345
▁отказыва	-8346
▁подобных	-8347
▁вариантом	-8348
▁документы	-8349
▁направлен	-8350
▁результат	-8351
▁умеренное	-8352
▁учитывать	-8353
▁свидетелем	-8354
▁стремиться	-8355
▁учреждений	-8356
▁конституции	-8357
▁христианами	-8358
▁центральной	-8359
▁администрация	-8360
▁использование	-8361
▁экономической	-8362
▁доказательства	-8363
▁организованной	-8364
▁государственная	-8365
мил	-8366
▁лк	-8367
вшую	-8368
иска	-8369
лога	-8370
петь	-8371
▁оль	-8372
довой	-8373
мерно	-8374
▁ааро	-8375
▁дают	-8376
▁ждут	-8377
▁ибра	-8378
▁нине	-8379
▁фаль	-8380
вность	-8381
▁взыва	-8382
▁вошел	-8383
▁забот	-8384
▁зовут	-8385
▁метео	-8386
▁михай	-8387
тически	-8388
▁братом	-8389
▁всякой	-8390
▁втором	-8391
▁капита	-8392
▁обманы	-8393
▁органы	-8394
▁просил	-8395
▁развед	-8396
▁раскаи	-8397
▁высокое	-8398
▁издание	-8399
▁начиная	-8400
▁письмен	-8401
▁простра	-8402
▁работой	-8403
▁слушает	-8404
▁анатолий	-8405
▁гварамия	-8406
▁комплекс	-8407
▁летопись	-8408
▁молодого	-8409
▁наступле	-8410
▁начинают	-8411
▁небесное	-8412
▁традиций	-8413
▁опасность	-8414
▁создатель	-8415
▁армагеддон	-8416
▁правильный	-8417
▁совместных	-8418
▁сообщества	-8419
▁укрепления	-8420
▁библейскими	-8421
▁испытаниями	-8422
▁организатор	-8423
▁религиозных	-8424
▁требованиям	-8425
▁чрезвычайный	-8426
▁•	-8427
бло	-8428
вон	-8429
дже	-8430
диа	-8431
дию	-8432
еси	-8433
зер	-8434
рых	-8435
шко	-8436
▁ед	-8437
▁мл	-8438
ёнок	-8439
▁150	-8440
вного	-8441
лении	-8442
▁выру	-8443
▁руфи	-8444
земпля	-8445
ловича	-8446
▁вален	-8447
▁вовле	-8448
▁вынес	-8449
▁девуш	-8450
▁нынеш	-8451
▁точки	-8452
▁убежи	-8453
ствуйте	-8454
▁буклет	-8455
▁коммер	-8456
▁компью	-8457
▁мессии	-8458
▁неприя	-8459
▁подход	-8460
▁сезона	-8461
▁соверу	-8462
▁тяжкие	-8463
▁шакрыл	-8464
лармонии	-8465
▁дьявола	-8466
▁серебря	-8467
▁текущие	-8468
▁услышав	-8469
стический	-8470
▁означают	-8471
▁перевода	-8472
▁пообещал	-8473
▁поступки	-8474
▁счастлив	-8475
▁услышать	-8476
▁экземпля	-8477
▁убедиться	-8478
▁воспитывать	-8479
▁исключением	-8480
▁перспективы	-8481
▁уничтожение	-8482
▁человеческой	-8483
▁обстоятельств	-8484
▁справедливости	-8485
▁соответствующий	-8486
душ	-8487
ждё	-8488
льт	-8489
ниа	-8490
эна	-8491
▁77	-8492
▁97	-8493
▁мэ	-8494
▁пр	-8495
▁сп	-8496
вица	-8497
емое	-8498
кату	-8499
квер	-8500
кура	-8501
рази	-8502
твра	-8503
хара	-8504
шали	-8505
щаем	-8506
▁блю	-8507
▁зим	-8508
▁моз	-8509
▁соч	-8510
▁чьи	-8511
▁баск	-8512
▁геен	-8513
▁глаз	-8514
▁копи	-8515
▁тира	-8516
вольно	-8517
женную	-8518
менить	-8519
▁борис	-8520
▁главу	-8521
▁крепо	-8522
▁обмен	-8523
▁объем	-8524
▁ценят	-8525
летнего	-8526
▁ежедне	-8527
▁запада	-8528
▁контра	-8529
▁летний	-8530
▁обрабо	-8531
▁обычаи	-8532
▁опасно	-8533
▁оружия	-8534
▁оттуда	-8535
▁псалме	-8536
▁следуя	-8537
▁список	-8538
▁хутаба	-8539
▁аналоги	-8540
▁влияния	-8541
▁выслуши	-8542
▁главной	-8543
▁примера	-8544
▁природы	-8545
▁проекте	-8546
▁режиссе	-8547
▁связыва	-8548
▁случаев	-8549
▁слышали	-8550
▁собрать	-8551
▁терпели	-8552
▁тимофей	-8553
▁центров	-8554
▁детского	-8555
▁интернет	-8556
▁обнаружи	-8557
▁открытия	-8558
▁приближа	-8559
▁прощение	-8560
▁самостоя	-8561
▁удостове	-8562
▁энергети	-8563
▁абсолютно	-8564
▁плодотвор	-8565
▁принципов	-8566
▁ситуациях	-8567
▁совершают	-8568
▁совещании	-8569
▁состояния	-8570
▁утвержден	-8571
▁чувствами	-8572
▁кандидатов	-8573
▁расскажите	-8574
▁совершения	-8575
▁милосердный	-8576
▁полновремен	-8577
▁гражданского	-8578
▁федерального	-8579
▁▪	-8580
вав	-8581
дки	-8582
мля	-8583
язы	-8584
▁цу	-8585
ково	-8586
стся	-8587
▁бло	-8588
▁еву	-8589
▁лей	-8590
▁пья	-8591
▁уны	-8592
блять	-8593
стные	-8594
▁вещь	-8595
▁зата	-8596
▁знак	-8597
▁мона	-8598
▁опер	-8599
▁пога	-8600
▁чуть	-8601
женное	-8602
руется	-8603
▁агент	-8604
▁гаран	-8605
▁дозво	-8606
▁ирэна	-8607
▁стату	-8608
▁андрей	-8609
▁благая	-8610
▁вашему	-8611
▁входят	-8612
▁обозна	-8613
▁осквер	-8614
▁сформи	-8615
▁тамара	-8616
▁ученые	-8617
дрометео	-8618
рованной	-8619
▁второго	-8620
▁деятели	-8621
▁лечение	-8622
▁сторона	-8623
▁фарисеи	-8624
▁будущего	-8625
▁внесении	-8626
▁возможен	-8627
▁забывать	-8628
▁защищает	-8629
▁открытие	-8630
▁правовой	-8631
▁делегацию	-8632
▁настоящим	-8633
▁инициативе	-8634
▁литературе	-8635
▁назначении	-8636
▁первенство	-8637
▁приднестров	-8638
▁разногласия	-8639
▁произведений	-8640
▁гостеприимство	-8641
ина	-8642
лую	-8643
пей	-8644
сна	-8645
▁85	-8646
▁ур	-8647
етбо	-8648
зора	-8649
лика	-8650
▁впа	-8651
▁гло	-8652
▁шел	-8653
думан	-8654
товал	-8655
▁биле	-8656
▁высе	-8657
▁зажи	-8658
▁зеле	-8659
▁поды	-8660
ванной	-8661
дочный	-8662
нимать	-8663
ряться	-8664
тивные	-8665
▁двери	-8666
▁лекар	-8667
▁летия	-8668
▁немно	-8669
▁пилия	-8670
▁плате	-8671
▁пребу	-8672
▁рубри	-8673
▁стоят	-8674
▁твоим	-8675
▁умрет	-8676
▁юноша	-8677
▁юноши	-8678
▁ангела	-8679
▁борьбу	-8680
▁вручил	-8681
▁заботу	-8682
▁законе	-8683
▁записи	-8684
▁иудеев	-8685
▁лазаря	-8686
▁младен	-8687
▁обосно	-8688
▁оппози	-8689
▁осторо	-8690
▁повест	-8691
▁повину	-8692
▁подлин	-8693
▁посему	-8694
▁приуро	-8695
▁экскур	-8696
▁великим	-8697
▁георгия	-8698
▁девушек	-8699
▁договор	-8700
▁побудил	-8701
▁сельско	-8702
▁согласо	-8703
▁частями	-8704
▁баскетбо	-8705
▁дисципли	-8706
▁ефесянам	-8707
▁некоторо	-8708
▁огромной	-8709
▁получаем	-8710
▁пригласи	-8711
▁человеке	-8712
▁архитекту	-8713
▁всероссий	-8714
▁заявления	-8715
▁исполнить	-8716
▁никарагуа	-8717
▁продукции	-8718
▁дружествен	-8719
▁материалов	-8720
▁принципами	-8721
▁приобрести	-8722
▁экклезиаст	-8723
▁голосования	-8724
▁объясняется	-8725
▁сосредоточи	-8726
▁республиканской	-8727
бея	-8728
вик	-8729
дав	-8730
▁06	-8731
▁61	-8732
▁рм	-8733
▁сг	-8734
▁сх	-8735
бора	-8736
джия	-8737
льше	-8738
▁105	-8739
▁ман	-8740
▁ове	-8741
▁ооо	-8742
▁ост	-8743
▁уха	-8744
▁шла	-8745
образ	-8746
стать	-8747
стика	-8748
▁завя	-8749
▁зало	-8750
▁изго	-8751
▁нази	-8752
▁нега	-8753
▁офор	-8754
▁плен	-8755
▁табу	-8756
▁хоре	-8757
лочный	-8758
льский	-8759
▁ведут	-8760
▁леона	-8761
▁минут	-8762
▁поспе	-8763
▁прико	-8764
▁умест	-8765
▁утеши	-8766
▁чачба	-8767
▁языки	-8768
ждаться	-8769
ждением	-8770
скаться	-8771
▁аслана	-8772
▁бесцен	-8773
▁дерева	-8774
▁динами	-8775
▁помина	-8776
▁притчу	-8777
▁пришла	-8778
▁случая	-8779
▁страхо	-8780
▁тюрьме	-8781
▁угодно	-8782
▁учетом	-8783
▁шамиль	-8784
▁диплома	-8785
▁древних	-8786
▁ласурия	-8787
▁нечисто	-8788
▁никакой	-8789
▁приехал	-8790
▁продела	-8791
▁станете	-8792
▁статьей	-8793
▁умирает	-8794
▁хватает	-8795
▁здоровью	-8796
▁казаться	-8797
▁миллиона	-8798
▁народной	-8799
▁освободи	-8800
▁показали	-8801
▁приговор	-8802
▁проводят	-8803
▁растений	-8804
▁сотовари	-8805
▁странице	-8806
▁филологи	-8807
▁исполняет	-8808
▁превосход	-8809
▁признание	-8810
▁синоптики	-8811
▁уголовной	-8812
▁литература	-8813
▁прекрасное	-8814
▁причинение	-8815
▁чувствовал	-8816
▁информацион	-8817
▁исследовать	-8818
▁направлении	-8819
▁предпринять	-8820
▁современной	-8821
▁исторических	-8822
▁несовершенны	-8823
▁празднование	-8824
▁сельскохозяй	-8825
▁специалистов	-8826
уа	-8827
▁’	-8828
мие	-8829
нал	-8830
хуа	-8831
▁2.	-8832
▁67	-8833
кест	-8834
цеду	-8835
циям	-8836
чера	-8837
чета	-8838
▁120	-8839
▁145	-8840
▁600	-8841
▁ара	-8842
▁ата	-8843
▁куз	-8844
▁руб	-8845
▁фан	-8846
▁хар	-8847
▁чут	-8848
вимся	-8849
▁всле	-8850
▁дина	-8851
▁доби	-8852
▁нахо	-8853
▁разг	-8854
▁резо	-8855
▁смот	-8856
▁сози	-8857
▁тара	-8858
▁упро	-8859
▁хоть	-8860
нейших	-8861
образи	-8862
титель	-8863
употре	-8864
▁аминь	-8865
▁божью	-8866
▁героя	-8867
▁жертв	-8868
▁квара	-8869
▁люблю	-8870
▁редак	-8871
▁соору	-8872
▁чести	-8873
▁аджинд	-8874
▁входит	-8875
▁гастро	-8876
▁головы	-8877
▁демона	-8878
▁личное	-8879
▁неделе	-8880
▁неодно	-8881
▁органа	-8882
▁родные	-8883
▁уровня	-8884
ствовала	-8885
▁брошюру	-8886
▁возобно	-8887
▁передал	-8888
▁прибыли	-8889
▁уделять	-8890
ствования	-8891
чительный	-8892
▁движение	-8893
▁заведомо	-8894
▁огромная	-8895
▁ознакоми	-8896
▁приехали	-8897
▁свободно	-8898
▁экзекова	-8899
▁вернулись	-8900
▁посвятить	-8901
▁предотвра	-8902
▁произойти	-8903
▁разговора	-8904
▁районного	-8905
▁поделилась	-8906
▁продолжают	-8907
▁совершение	-8908
▁участвовал	-8909
▁благословил	-8910
▁развиваться	-8911
▁представляют	-8912
▁преподнесение	-8913
▁соответствующие	-8914
лба	-8915
плы	-8916
▁86	-8917
ваши	-8918
нуне	-8919
стен	-8920
стка	-8921
▁виф	-8922
▁зах	-8923
▁рук	-8924
▁таи	-8925
▁япо	-8926
вайся	-8927
внове	-8928
емого	-8929
нство	-8930
страи	-8931
▁амца	-8932
▁голу	-8933
▁земе	-8934
▁скре	-8935
▁юрия	-8936
ночный	-8937
скание	-8938
▁даром	-8939
▁запол	-8940
▁леген	-8941
▁марша	-8942
▁мечта	-8943
▁музее	-8944
▁нашел	-8945
▁никак	-8946
▁царём	-8947
▁важная	-8948
▁дается	-8949
▁думает	-8950
▁заведу	-8951
▁здания	-8952
▁каждое	-8953
▁каратэ	-8954
▁комите	-8955
▁методи	-8956
▁наслед	-8957
▁оркест	-8958
▁полуян	-8959
▁прогно	-8960
▁семьям	-8961
▁творец	-8962
▁атмосфе	-8963
▁границу	-8964
▁написан	-8965
▁отрывок	-8966
▁партнер	-8967
▁решений	-8968
▁русском	-8969
▁совести	-8970
▁фараона	-8971
▁германии	-8972
▁культура	-8973
▁накануне	-8974
▁необычай	-8975
▁обеспечи	-8976
▁понимали	-8977
▁проявили	-8978
▁учитывая	-8979
▁щедрость	-8980
▁интересам	-8981
▁истинному	-8982
▁открывает	-8983
▁побуждают	-8984
▁поставить	-8985
▁присвоено	-8986
▁прочитать	-8987
▁находились	-8988
▁обращается	-8989
▁помазанные	-8990
▁официальном	-8991
▁счастливыми	-8992
▁чувствовали	-8993
▁безопасность	-8994
▁постановления	-8995
▁инвестиционной	-8996
ав	-8997
жд	-8998
гры	-8999
дре	-9000
кно	-9001
мию	-9002
чев	-9003
чха	-9004
▁64	-9005
▁сф	-9006
нном	-9007
пуск	-9008
рели	-9009
▁103	-9010
▁17.	-9011
▁брю	-9012
▁вис	-9013
▁ищи	-9014
▁кло	-9015
▁пох	-9016
▁уст	-9017
бание	-9018
лежит	-9019
птать	-9020
чиков	-9021
▁адыг	-9022
▁вряд	-9023
▁выве	-9024
▁огра	-9025
▁тяго	-9026
▁этап	-9027
ведены	-9028
чности	-9029
▁адаму	-9030
▁монет	-9031
▁пасты	-9032
▁помню	-9033
▁промо	-9034
▁профи	-9035
▁тесно	-9036
▁трени	-9037
▁банков	-9038
▁задумы	-9039
▁лазарь	-9040
▁любого	-9041
▁номина	-9042
▁опытом	-9043
▁правит	-9044
▁радует	-9045
▁школах	-9046
ствующих	-9047
▁добрыми	-9048
▁коммуна	-9049
▁руслана	-9050
▁сборной	-9051
▁советам	-9052
▁экологи	-9053
терпением	-9054
▁военного	-9055
▁истинных	-9056
▁мужества	-9057
▁отвечать	-9058
▁посетили	-9059
▁русского	-9060
▁собраний	-9061
▁спасение	-9062
▁тридцати	-9063
▁ближайшее	-9064
▁временами	-9065
▁духовными	-9066
▁кандидату	-9067
▁некоторое	-9068
▁уготованы	-9069
▁готовиться	-9070
▁махаджиров	-9071
▁применения	-9072
▁счастливой	-9073
▁установить	-9074
▁исполняется	-9075
▁использовал	-9076
▁псалмопевец	-9077
▁современных	-9078
▁становиться	-9079
▁восстановить	-9080
▁добровольцев	-9081
▁освобождение	-9082
▁благословений	-9083
▁благословляет	-9084
▁человеческого	-9085
вии	-9086
нки	-9087
рма	-9088
соу	-9089
тек	-9090
▁57	-9091
▁дю	-9092
нать	-9093
рово	-9094
тран	-9095
фана	-9096
▁вах	-9097
▁оон	-9098
дации	-9099
нными	-9100
раясь	-9101
▁2000	-9102
▁афри	-9103
▁затя	-9104
▁ионы	-9105
▁млрд	-9106
▁наре	-9107
▁отцы	-9108
▁смяг	-9109
▁ушел	-9110
нитель	-9111
▁дерев	-9112
▁домов	-9113
▁елисе	-9114
▁навин	-9115
▁рабов	-9116
▁связь	-9117
▁срока	-9118
▁чачха	-9119
▁вперед	-9120
▁выража	-9121
▁задать	-9122
▁здание	-9123
▁играет	-9124
▁класса	-9125
▁лучшие	-9126
▁поздно	-9127
▁растет	-9128
▁решила	-9129
▁телеви	-9130
▁удержи	-9131
▁учился	-9132
▁заслуги	-9133
▁привело	-9134
▁системе	-9135
▁трудные	-9136
▁удается	-9137
▁вступить	-9138
▁записано	-9139
▁интересо	-9140
▁молодёжи	-9141
▁назначил	-9142
▁переводе	-9143
▁поступая	-9144
▁инициатив	-9145
▁открылась	-9146
▁поколение	-9147
▁принимали	-9148
▁произошед	-9149
▁старается	-9150
▁возникнуть	-9151
▁проведении	-9152
▁проведению	-9153
▁пятидесяти	-9154
▁старайтесь	-9155
▁участникам	-9156
▁воскресении	-9157
▁инструмента	-9158
▁подготовить	-9159
▁предсказано	-9160
▁инструментов	-9161
▁поразмышлять	-9162
▁содействовать	-9163
▁ткуарчалского	-9164
ъек	-9165
енти	-9166
умно	-9167
▁125	-9168
▁коп	-9169
▁оре	-9170
▁рей	-9171
дился	-9172
дными	-9173
мысли	-9174
строи	-9175
телен	-9176
циони	-9177
▁2010	-9178
▁анны	-9179
▁гиви	-9180
▁засу	-9181
▁нарт	-9182
▁подс	-9183
▁эдем	-9184
видеть	-9185
▁берет	-9186
▁глуби	-9187
▁групп	-9188
▁злого	-9189
▁логуа	-9190
▁любом	-9191
▁любых	-9192
▁общее	-9193
▁опаса	-9194
▁претк	-9195
▁столе	-9196
▁тужба	-9197
венного	-9198
вестись	-9199
▁дорога	-9200
▁подроб	-9201
▁пойдет	-9202
▁сверст	-9203
▁сестре	-9204
▁явился	-9205
▁заметил	-9206
▁империи	-9207
▁мальчик	-9208
▁награды	-9209
▁непослу	-9210
▁обязаны	-9211
▁процеду	-9212
▁следуют	-9213
▁аппарата	-9214
▁глубокое	-9215
▁зависимо	-9216
▁занимает	-9217
▁многолет	-9218
▁называет	-9219
▁называют	-9220
▁окажется	-9221
▁получила	-9222
▁злоупотре	-9223
▁отправили	-9224
▁попросили	-9225
▁последнее	-9226
▁священное	-9227
▁спектакля	-9228
▁священники	-9229
▁советского	-9230
▁наставление	-9231
▁поклонялись	-9232
▁прокуратуры	-9233
▁совершенным	-9234
▁социального	-9235
▁корреспонденту	-9236
▁соответствующее	-9237
тё	-9238
лям	-9239
бами	-9240
дная	-9241
тяне	-9242
чало	-9243
▁жем	-9244
▁кир	-9245
▁лав	-9246
▁фер	-9247
жутся	-9248
насле	-9249
▁злой	-9250
▁игру	-9251
▁логи	-9252
▁маги	-9253
▁овцы	-9254
▁отва	-9255
▁пагу	-9256
венное	-9257
ллиген	-9258
ченным	-9259
▁аджба	-9260
▁важна	-9261
▁взяли	-9262
▁вчера	-9263
▁годах	-9264
▁занял	-9265
▁нелли	-9266
▁рожде	-9267
▁форме	-9268
▁беспре	-9269
▁выходи	-9270
▁героев	-9271
▁обнару	-9272
▁округу	-9273
▁оружие	-9274
▁плохое	-9275
▁предше	-9276
▁размер	-9277
▁считаю	-9278
▁чтении	-9279
▁журнала	-9280
▁образцо	-9281
▁перечис	-9282
▁погибли	-9283
▁предубе	-9284
▁рабочим	-9285
▁футболу	-9286
▁желаниям	-9287
▁кампании	-9288
▁мышление	-9289
▁почетное	-9290
▁прислуши	-9291
▁создании	-9292
▁спросите	-9293
▁уравнове	-9294
▁аджинджал	-9295
▁гражданам	-9296
▁дипломати	-9297
▁используя	-9298
▁перенести	-9299
▁сирийской	-9300
▁изучающего	-9301
▁относились	-9302
▁парламенте	-9303
▁предлагает	-9304
▁нетерпением	-9305
▁предложение	-9306
▁предусматри	-9307
▁происходило	-9308
▁проповедуют	-9309
▁освобождения	-9310
▁человеческий	-9311
▁исполнительный	-9312
▁придерживаться	-9313
▁удовлетворение	-9314
мно	-9315
рус	-9316
▁3.	-9317
лизо	-9318
стая	-9319
ходе	-9320
▁плю	-9321
▁рем	-9322
▁фру	-9323
немся	-9324
ссажи	-9325
тости	-9326
▁днём	-9327
▁мили	-9328
▁муса	-9329
▁наву	-9330
▁пила	-9331
▁сбро	-9332
▁убил	-9333
культу	-9334
▁богов	-9335
▁знала	-9336
▁капба	-9337
▁общий	-9338
▁судья	-9339
▁твори	-9340
▁терпи	-9341
вашидзе	-9342
ровании	-9343
▁видите	-9344
▁дружбе	-9345
▁лицеме	-9346
▁нестор	-9347
▁связям	-9348
▁слышал	-9349
▁творца	-9350
▁увидим	-9351
▁хотела	-9352
▁баграта	-9353
▁выпуска	-9354
▁женщине	-9355
▁издания	-9356
▁метеоро	-9357
▁направо	-9358
▁площадь	-9359
▁позицию	-9360
▁принуди	-9361
▁притчах	-9362
▁реабили	-9363
▁старший	-9364
▁умирают	-9365
▁утешает	-9366
▁вступать	-9367
▁начинать	-9368
▁ограничи	-9369
▁опублико	-9370
▁пересмот	-9371
▁соломона	-9372
▁сострада	-9373
▁торговли	-9374
▁ценности	-9375
▁интересах	-9376
▁испытаний	-9377
▁обсуждать	-9378
▁собраниях	-9379
▁сообщения	-9380
▁чувствует	-9381
дрометеослу	-9382
▁интеллиген	-9383
▁отличается	-9384
▁предстояло	-9385
▁прелюбодея	-9386
▁служебного	-9387
▁ставрополь	-9388
▁трудностей	-9389
▁шервашидзе	-9390
▁владычество	-9391
▁удовольствие	-9392
▁благословение	-9393
▁избирательной	-9394
▁преследования	-9395
▁национальности	-9396
▁государственные	-9397
▁свидетельствуют	-9398
бие	-9399
нде	-9400
чок	-9401
▁59	-9402
▁68	-9403
▁еф	-9404
сыла	-9405
сюду	-9406
ходы	-9407
▁зак	-9408
▁нью	-9409
нский	-9410
▁1989	-9411
▁даёт	-9412
▁испа	-9413
▁ищет	-9414
▁куку	-9415
▁курс	-9416
▁огня	-9417
▁село	-9418
вшейся	-9419
женным	-9420
▁бежен	-9421
▁всевы	-9422
▁вслед	-9423
▁душой	-9424
▁защит	-9425
▁ликви	-9426
▁непод	-9427
▁однов	-9428
▁сверх	-9429
дывание	-9430
▁данным	-9431
▁долгое	-9432
▁защите	-9433
▁испове	-9434
▁какоба	-9435
▁недель	-9436
▁отверг	-9437
▁службе	-9438
▁увидят	-9439
▁военных	-9440
▁гудауте	-9441
▁законов	-9442
▁иеремии	-9443
▁историк	-9444
▁кабинет	-9445
▁обратил	-9446
▁получит	-9447
▁правила	-9448
▁пытался	-9449
▁смотрит	-9450
▁управля	-9451
▁ветераны	-9452
▁знамение	-9453
▁поступок	-9454
▁потеряли	-9455
▁предписа	-9456
▁приступи	-9457
▁событиях	-9458
▁столетия	-9459
▁странами	-9460
▁текущего	-9461
▁абхазское	-9462
▁мудростью	-9463
▁одобрение	-9464
▁первонача	-9465
▁проблемах	-9466
▁заключения	-9467
▁известного	-9468
▁пользуется	-9469
▁посланника	-9470
▁социальных	-9471
▁счастливым	-9472
▁благословит	-9473
▁проживающих	-9474
▁организовать	-9475
▁поддерживают	-9476
▁уверенностью	-9477
▁парламентарии	-9478
▁подготавливать	-9479
тку	-9480
тую	-9481
эль	-9482
▁71	-9483
▁94	-9484
вное	-9485
▁бди	-9486
▁вел	-9487
▁вле	-9488
▁заи	-9489
▁изы	-9490
▁циф	-9491
ковые	-9492
никах	-9493
▁книж	-9494
▁лари	-9495
▁лову	-9496
▁обря	-9497
▁отво	-9498
▁разы	-9499
▁сани	-9500
▁седь	-9501
▁упол	-9502
▁упря	-9503
▁часа	-9504
рована	-9505
▁видна	-9506
▁видов	-9507
▁гогуа	-9508
▁голод	-9509
▁допол	-9510
▁моему	-9511
▁мужья	-9512
▁немец	-9513
▁нужен	-9514
▁порта	-9515
▁соеди	-9516
▁сокро	-9517
действи	-9518
▁благоу	-9519
▁важной	-9520
▁вефиле	-9521
▁вефиль	-9522
▁добрая	-9523
▁записы	-9524
▁исаака	-9525
▁метров	-9526
▁партия	-9527
▁преста	-9528
▁тексте	-9529
▁больных	-9530
▁василье	-9531
▁вопросу	-9532
▁выходит	-9533
▁жителям	-9534
▁золотой	-9535
▁крепкую	-9536
▁лечения	-9537
▁началом	-9538
▁объясни	-9539
▁туризму	-9540
▁умышлен	-9541
▁услышал	-9542
▁хранить	-9543
▁ближнего	-9544
▁включает	-9545
▁направил	-9546
▁помогаем	-9547
▁принимая	-9548
▁проблему	-9549
▁районных	-9550
▁регионов	-9551
▁выражение	-9552
▁поддержка	-9553
▁прокурора	-9554
▁завершился	-9555
▁кавказской	-9556
▁откровении	-9557
▁состоялись	-9558
▁комментарий	-9559
▁стабильности	-9560
▁экономических	-9561
▁краснодарского	-9562
уп	-9563
ҭа	-9564
лая	-9565
нды	-9566
нув	-9567
пен	-9568
тес	-9569
▁63	-9570
▁73	-9571
▁74	-9572
▁83	-9573
▁ул	-9574
берт	-9575
вьте	-9576
ляли	-9577
смен	-9578
стие	-9579
чики	-9580
▁ази	-9581
▁гли	-9582
▁иду	-9583
▁кух	-9584
▁неи	-9585
▁ниж	-9586
▁оза	-9587
▁озе	-9588
▁усо	-9589
▁хит	-9590
▁хол	-9591
▁цик	-9592
кульп	-9593
лости	-9594
товой	-9595
тский	-9596
▁агро	-9597
▁адре	-9598
▁идеи	-9599
▁иуда	-9600
▁мимо	-9601
▁мною	-9602
▁моль	-9603
▁неак	-9604
▁судя	-9605
▁суме	-9606
вшимся	-9607
держит	-9608
пления	-9609
рочный	-9610
▁дверь	-9611
▁исчез	-9612
▁ковар	-9613
▁расто	-9614
▁уважи	-9615
▁шатре	-9616
водство	-9617
▁вообра	-9618
▁группе	-9619
▁данное	-9620
▁молдав	-9621
▁носить	-9622
▁охране	-9623
▁писать	-9624
▁помаза	-9625
▁процен	-9626
▁раздел	-9627
▁расста	-9628
▁скульп	-9629
▁стамбу	-9630
▁уплате	-9631
▁ученых	-9632
▁фильма	-9633
▁частей	-9634
новаться	-9635
▁больших	-9636
▁владель	-9637
▁детских	-9638
▁женщину	-9639
▁знакоми	-9640
▁коротко	-9641
▁разными	-9642
▁сильный	-9643
▁советом	-9644
▁ученого	-9645
▁биографи	-9646
▁деревьев	-9647
▁добиться	-9648
▁записаны	-9649
▁истинную	-9650
▁культуру	-9651
▁наверное	-9652
▁нечестие	-9653
▁помешать	-9654
▁поручено	-9655
▁правосла	-9656
▁прощения	-9657
▁пытаются	-9658
▁режиссер	-9659
▁уполномо	-9660
▁богатство	-9661
▁ежедневно	-9662
▁используй	-9663
▁относимся	-9664
▁переведен	-9665
▁подростки	-9666
▁совещания	-9667
▁сравнению	-9668
▁чувствуем	-9669
▁обстановке	-9670
▁показаться	-9671
▁правлением	-9672
▁реконструк	-9673
▁чемпионате	-9674
▁выступление	-9675
▁обсуждается	-9676
▁подчеркнула	-9677
▁пробудитесь	-9678
▁руководящий	-9679
▁христианина	-9680
▁продолжается	-9681
▁университете	-9682
▁происхождения	-9683
▁преимущественно	-9684
▁~	-9685
вие	-9686
гор	-9687
жом	-9688
нке	-9689
пам	-9690
▁96	-9691
тизм	-9692
хуба	-9693
▁бол	-9694
▁ива	-9695
▁мон	-9696
▁опи	-9697
▁пош	-9698
ждено	-9699
ковых	-9700
лится	-9701
▁бума	-9702
▁виды	-9703
▁заба	-9704
▁заро	-9705
▁злом	-9706
▁иное	-9707
▁кали	-9708
▁лако	-9709
▁мета	-9710
▁моби	-9711
▁назо	-9712
▁рыба	-9713
▁суть	-9714
▁уйти	-9715
ванных	-9716
вязать	-9717
графия	-9718
▁армян	-9719
▁божие	-9720
▁домах	-9721
▁замет	-9722
▁намаз	-9723
▁неува	-9724
▁отрыв	-9725
▁погру	-9726
▁сайта	-9727
▁стоял	-9728
▁тбили	-9729
▁тенги	-9730
▁увеще	-9731
ленного	-9732
програм	-9733
торский	-9734
▁активи	-9735
▁амичба	-9736
▁архива	-9737
▁выбрал	-9738
▁гибели	-9739
▁довери	-9740
▁долгие	-9741
▁дружес	-9742
▁земной	-9743
▁иордан	-9744
▁какому	-9745
▁купить	-9746
▁москву	-9747
▁особой	-9748
▁постиг	-9749
▁развод	-9750
▁репута	-9751
▁сестру	-9752
▁фараон	-9753
▁францу	-9754
▁фронта	-9755
рировать	-9756
▁девушка	-9757
▁законам	-9758
▁налогам	-9759
▁нечисты	-9760
▁объекты	-9761
▁проголо	-9762
▁суббота	-9763
▁указыва	-9764
▁чистоту	-9765
▁активное	-9766
▁болезней	-9767
▁выбирать	-9768
▁даровали	-9769
▁достовер	-9770
▁народами	-9771
▁независи	-9772
▁перемены	-9773
▁появится	-9774
▁возможным	-9775
▁комплекса	-9776
▁крестился	-9777
▁небесному	-9778
▁побуждать	-9779
▁поведения	-9780
▁позволяют	-9781
▁собранием	-9782
▁справедли	-9783
▁чемпионат	-9784
▁возложения	-9785
▁избавиться	-9786
▁испытывают	-9787
▁начинается	-9788
▁филармонии	-9789
▁школьников	-9790
▁пророчестве	-9791
▁национальный	-9792
▁организацией	-9793
▁представлять	-9794
▁благодарности	-9795
▁исключительно	-9796
▁разговаривать	-9797
▁‘	-9798
аги	-9799
коп	-9800
рея	-9801
▁99	-9802
▁ть	-9803
▁хе	-9804
жечь	-9805
нков	-9806
сило	-9807
▁18.	-9808
▁игр	-9809
▁пёт	-9810
ватый	-9811
онный	-9812
▁1919	-9813
▁базы	-9814
▁дому	-9815
▁обши	-9816
▁ослу	-9817
▁парк	-9818
бления	-9819
▁броса	-9820
▁греху	-9821
▁инжен	-9822
▁креще	-9823
▁лыхны	-9824
▁нанес	-9825
▁недви	-9826
▁погре	-9827
▁приви	-9828
▁сгово	-9829
▁сопер	-9830
▁среда	-9831
▁твоем	-9832
▁целый	-9833
ниверси	-9834
рованию	-9835
строить	-9836
▁братия	-9837
▁группу	-9838
▁ибрахи	-9839
▁избрал	-9840
▁каждая	-9841
▁летием	-9842
▁личные	-9843
▁личный	-9844
▁оказал	-9845
▁подсоб	-9846
▁пришло	-9847
▁служим	-9848
▁соблаз	-9849
▁съезда	-9850
▁такому	-9851
▁успехи	-9852
▁ученик	-9853
▁честно	-9854
лопоклон	-9855
работать	-9856
▁большее	-9857
▁веществ	-9858
▁гарцкия	-9859
▁господе	-9860
▁границе	-9861
▁думаешь	-9862
▁команду	-9863
▁наполни	-9864
▁образно	-9865
▁отреаги	-9866
▁пассажи	-9867
▁плохого	-9868
▁пустыне	-9869
▁удастся	-9870
▁чистыми	-9871
▁экспеди	-9872
▁добротой	-9873
▁женщиной	-9874
▁картинке	-9875
▁контроль	-9876
▁получают	-9877
▁помогало	-9878
▁премьера	-9879
▁престаре	-9880
▁признать	-9881
▁радостно	-9882
▁сомнений	-9883
▁старался	-9884
▁уважения	-9885
▁высказыва	-9886
▁затронуть	-9887
▁настоящий	-9888
▁недействи	-9889
▁отделение	-9890
▁перестали	-9891
▁поговорим	-9892
▁миллиардов	-9893
▁полномочия	-9894
▁приложение	-9895
▁продолжить	-9896
▁проживания	-9897
▁радоваться	-9898
▁идолопоклон	-9899
▁приглашению	-9900
▁продолжайте	-9901
▁специалисты	-9902
▁гуманитарных	-9903
▁представлена	-9904
▁сталкиваемся	-9905
▁использования	-9906
▁торжественное	-9907
▁доказательство	-9908
▁избирательному	-9909
тю	-9910
вее	-9911
или	-9912
мин	-9913
мок	-9914
худ	-9915
▁08	-9916
▁95	-9917
дишь	-9918
емым	-9919
тная	-9920
чами	-9921
шите	-9922
▁вор	-9923
▁йор	-9924
▁нём	-9925
ковка	-9926
нится	-9927
ницах	-9928
серде	-9929
чание	-9930
▁брон	-9931
▁засо	-9932
▁заур	-9933
▁наса	-9934
▁обно	-9935
▁хиру	-9936
лились	-9937
менный	-9938
нистый	-9939
станно	-9940
ствова	-9941
▁банка	-9942
▁богам	-9943
▁вифле	-9944
▁госги	-9945
▁испор	-9946
▁курсы	-9947
▁праву	-9948
▁придя	-9949
▁редко	-9950
▁сроки	-9951
водятся	-9952
родного	-9953
фикация	-9954
▁адыгеи	-9955
▁беседе	-9956
▁внезап	-9957
▁заложи	-9958
▁испуга	-9959
▁книгой	-9960
▁новому	-9961
▁ответа	-9962
▁отступ	-9963
▁попыта	-9964
▁решает	-9965
▁сельхо	-9966
▁статей	-9967
▁учений	-9968
▁абазины	-9969
▁докумен	-9970
▁извлечь	-9971
▁налогов	-9972
▁научных	-9973
▁окончил	-9974
▁оригина	-9975
▁подчиня	-9976
▁предпоч	-9977
▁рабства	-9978
▁разбира	-9979
▁разъезд	-9980
▁русский	-9981
▁участок	-9982
▁единству	-9983
▁конкурсе	-9984
▁надеждой	-9985
▁научился	-9986
▁неправед	-9987
▁облачная	-9988
▁помощник	-9989
▁посетить	-9990
▁талантли	-9991
▁ценность	-9992
▁построить	-9993
▁праведный	-9994
▁прощающий	-9995
▁сложности	-9996
▁собрались	-9997
▁старались	-9998
▁занимаются	-9999
▁исполнится	-10000
▁назначения	-10001
▁отправился	-10002
▁применение	-10003
▁разрешения	-10004
▁спрашивает	-10005
▁фотографии	-10006
▁выпускников	-10007
▁генеральный	-10008
▁инструменты	-10009
▁обязанность	-10010
▁ограничения	-10011
▁прославлять	-10012
▁вдохновением	-10013
▁поздравления	-10014
▁практические	-10015
▁исследователи	-10016
▁предусмотренных	-10017
вол	-10018
дны	-10019
под	-10020
▁78	-10021
▁аш	-10022
дних	-10023
заве	-10024
ланд	-10025
моло	-10026
рист	-10027
тана	-10028
шена	-10029
шина	-10030
ётся	-10031
▁190	-10032
▁дам	-10033
▁уга	-10034
▁ула	-10035
▁шен	-10036
дцать	-10037
ковым	-10038
любил	-10039
▁2004	-10040
▁взор	-10041
▁джум	-10042
▁косо	-10043
▁ночи	-10044
▁обет	-10045
▁пола	-10046
▁родо	-10047
▁рука	-10048
▁сады	-10049
▁тонн	-10050
вающие	-10051
мерный	-10052
охрани	-10053
щённый	-10054
▁алхас	-10055
▁возле	-10056
▁дорог	-10057
▁класс	-10058
▁музей	-10059
▁облож	-10060
▁орган	-10061
▁стихе	-10062
▁улицы	-10063
транспо	-10064
▁москва	-10065
▁музыки	-10066
▁настой	-10067
▁нечест	-10068
▁победа	-10069
▁святом	-10070
▁стопам	-10071
▁стоять	-10072
▁тверды	-10073
▁эсфири	-10074
председа	-10075
▁великая	-10076
▁востока	-10077
▁лишения	-10078
▁народам	-10079
▁ноеминь	-10080
▁обратно	-10081
▁понятно	-10082
▁призвал	-10083
▁простил	-10084
▁просьбы	-10085
▁раздели	-10086
▁хороших	-10087
▁курортам	-10088
▁народных	-10089
▁огромный	-10090
▁основная	-10091
▁развивай	-10092
▁решением	-10093
▁сравните	-10094
▁убийство	-10095
▁журналист	-10096
▁занимался	-10097
▁землетряс	-10098
▁остальных	-10099
▁побережье	-10100
▁попросить	-10101
▁прилагать	-10102
▁принципам	-10103
▁располага	-10104
▁репатриан	-10105
▁секретаря	-10106
▁следующем	-10107
▁служитель	-10108
▁совершить	-10109
▁тренируют	-10110
▁коллективу	-10111
▁молдавской	-10112
▁подражайте	-10113
▁прекрасным	-10114
▁существуют	-10115
▁уничтожить	-10116
▁впечатление	-10117
▁индивидуаль	-10118
▁исполнились	-10119
▁предприятия	-10120
▁применением	-10121
▁совершенный	-10122
▁потребностях	-10123
▁республиканский	-10124
бю	-10125
гих	-10126
пиа	-10127
руя	-10128
цей	-10129
чую	-10130
▁92	-10131
▁дя	-10132
▁ля	-10133
баты	-10134
вных	-10135
зина	-10136
няем	-10137
шаем	-10138
▁ава	-10139
▁зао	-10140
▁кал	-10141
▁лак	-10142
▁рыб	-10143
▁син	-10144
▁уре	-10145
▁ход	-10146
ляция	-10147
сться	-10148
тения	-10149
▁1941	-10150
▁авиа	-10151
▁вины	-10152
▁дата	-10153
▁едва	-10154
▁игро	-10155
▁купи	-10156
▁пачу	-10157
▁чека	-10158
бность	-10159
гласно	-10160
женная	-10161
нингра	-10162
▁безот	-10163
▁божия	-10164
▁возме	-10165
▁дочер	-10166
▁закре	-10167
▁ливне	-10168
▁нести	-10169
▁одина	-10170
▁плака	-10171
▁тамаз	-10172
▁терро	-10173
▁умень	-10174
▁вознес	-10175
▁вторая	-10176
▁главен	-10177
▁желаем	-10178
▁жертво	-10179
▁комфор	-10180
▁лагерь	-10181
▁матерь	-10182
▁опуска	-10183
▁основы	-10184
▁полном	-10185
▁пользы	-10186
▁прозву	-10187
▁сатану	-10188
▁узнают	-10189
▁унасле	-10190
▁филосо	-10191
▁детстве	-10192
▁захарии	-10193
▁мучений	-10194
▁начался	-10195
▁патриар	-10196
▁перейти	-10197
▁позволь	-10198
▁послево	-10199
▁разобра	-10200
▁третьих	-10201
▁филисти	-10202
▁выслушай	-10203
▁знаниями	-10204
▁истинное	-10205
▁кишмария	-10206
▁обладают	-10207
▁основной	-10208
▁отмечать	-10209
▁принимал	-10210
▁пропаган	-10211
▁распреде	-10212
▁великобри	-10213
▁верующими	-10214
▁допускает	-10215
▁категория	-10216
▁назначили	-10217
▁оказаться	-10218
▁памятника	-10219
▁праведных	-10220
▁имуществом	-10221
▁испытаниях	-10222
▁освободить	-10223
▁основанное	-10224
▁поклонении	-10225
▁предложить	-10226
▁совместной	-10227
▁финансовой	-10228
▁выступления	-10229
▁госуниверси	-10230
▁гражданства	-10231
▁дальнейшего	-10232
▁помазанники	-10233
▁посланников	-10234
▁правоохрани	-10235
▁процветания	-10236
▁таможенного	-10237
▁установлены	-10238
▁внешнеполити	-10239
▁историческую	-10240
▁национальные	-10241
▁владимировича	-10242
▁международным	-10243
▁подготовиться	-10244
▁представителя	-10245
▁преподнесения	-10246
▁присутствовали	-10247
▁приднестровской	-10248
эс	-10249
зах	-10250
реи	-10251
▁84	-10252
▁91	-10253
вные	-10254
низм	-10255
рном	-10256
рные	-10257
▁аза	-10258
▁бга	-10259
▁гим	-10260
▁каб	-10261
▁ною	-10262
▁сие	-10263
▁сня	-10264
▁хью	-10265
стили	-10266
▁бара	-10267
▁доли	-10268
▁ждем	-10269
▁иным	-10270
▁ирак	-10271
▁ключ	-10272
▁осна	-10273
▁торо	-10274
стливо	-10275
хнакия	-10276
▁алеко	-10277
▁божья	-10278
▁вадим	-10279
▁вопло	-10280
▁горах	-10281
▁держи	-10282
▁игоря	-10283
▁извра	-10284
▁коран	-10285
▁науке	-10286
▁обере	-10287
▁плани	-10288
▁пусто	-10289
▁формы	-10290
▁адгура	-10291
▁беседу	-10292
▁ввести	-10293
▁весьма	-10294
▁войско	-10295
▁дерево	-10296
▁инвест	-10297
▁лучшим	-10298
▁методы	-10299
▁округа	-10300
▁поклон	-10301
▁природ	-10302
▁рабами	-10303
▁учение	-10304
▁чикату	-10305
▁чувств	-10306
тивность	-10307
▁беремен	-10308
▁доброго	-10309
▁дорогие	-10310
▁крепкая	-10311
▁мессиан	-10312
▁насмеха	-10313
▁потребу	-10314
▁стандар	-10315
▁француз	-10316
▁арабской	-10317
▁балкарии	-10318
▁болезнью	-10319
▁желающих	-10320
▁кандидат	-10321
▁неожидан	-10322
▁открытый	-10323
▁побуждал	-10324
▁посылает	-10325
▁появился	-10326
▁принесли	-10327
▁такового	-10328
▁устранит	-10329
▁хорошего	-10330
▁цахнакия	-10331
▁авторитет	-10332
▁армагеддо	-10333
▁багателия	-10334
▁благоприя	-10335
▁воскресил	-10336
▁искусство	-10337
▁истинного	-10338
▁коммуника	-10339
▁отдельных	-10340
▁появилось	-10341
▁приходили	-10342
▁приходить	-10343
▁следующих	-10344
▁стремятся	-10345
▁городского	-10346
▁измениться	-10347
▁назначение	-10348
▁подготовка	-10349
▁предыдущей	-10350
▁проблемами	-10351
▁проявляйте	-10352
▁российская	-10353
▁собирается	-10354
▁содержания	-10355
▁укреплению	-10356
▁нейтралитет	-10357
▁преданности	-10358
▁собственные	-10359
▁собственных	-10360
▁упоминается	-10361
▁неоднократно	-10362
▁приблизиться	-10363
▁родительских	-10364
▁двустороннего	-10365
▁удовольствием	-10366
есо	-10367
жны	-10368
зар	-10369
сиа	-10370
чуа	-10371
защи	-10372
лета	-10373
нгви	-10374
тило	-10375
▁110	-10376
▁118	-10377
▁127	-10378
▁бзы	-10379
▁выи	-10380
▁дже	-10381
▁мих	-10382
▁оку	-10383
▁оле	-10384
▁пры	-10385
▁руп	-10386
▁сго	-10387
▁трё	-10388
▁ута	-10389
тивов	-10390
▁18.1	-10391
▁алфа	-10392
▁вспы	-10393
▁гагр	-10394
▁джон	-10395
▁засе	-10396
▁коры	-10397
▁крым	-10398
▁мика	-10399
▁мино	-10400
▁мура	-10401
▁позо	-10402
▁пётр	-10403
▁расц	-10404
▁сара	-10405
▁скле	-10406
▁соба	-10407
▁таба	-10408
▁чужо	-10409
▁авель	-10410
▁гарри	-10411
▁грамо	-10412
▁даура	-10413
▁доход	-10414
▁идите	-10415
▁непол	-10416
▁общая	-10417
▁опеча	-10418
▁переи	-10419
▁переч	-10420
▁проде	-10421
▁проме	-10422
▁темур	-10423
пывание	-10424
структу	-10425
ционные	-10426
▁бгажба	-10427
▁борьба	-10428
▁встать	-10429
▁доверя	-10430
▁иосифу	-10431
▁настав	-10432
▁начнет	-10433
▁обруши	-10434
▁пицунд	-10435
▁помоги	-10436
▁призыв	-10437
▁союзни	-10438
▁умерла	-10439
ченность	-10440
▁бескоры	-10441
▁вкладку	-10442
▁извести	-10443
▁людмила	-10444
▁медведе	-10445
▁отвечал	-10446
▁потенци	-10447
▁придает	-10448
▁сопроти	-10449
▁тимофея	-10450
▁узнаете	-10451
▁упомяну	-10452
▁анатолия	-10453
▁божества	-10454
▁большого	-10455
▁выходные	-10456
▁истинной	-10457
▁контроля	-10458
▁мальчика	-10459
▁подверга	-10460
▁познание	-10461
▁привлечь	-10462
▁согласны	-10463
▁трагедии	-10464
▁турецкой	-10465
▁упомянул	-10466
▁действует	-10467
▁повышения	-10468
▁поручение	-10469
▁стоимость	-10470
▁необходимы	-10471
▁объединяет	-10472
▁пониманием	-10473
▁пригласить	-10474
▁содействие	-10475
▁спрашивают	-10476
▁великобрита	-10477
▁противополо	-10478
▁незаслуженной	-10479
▁присутствовал	-10480
▁соответствует	-10481
▁строительстве	-10482
▁взаимодействие	-10483
ец	-10484
зю	-10485
пт	-10486
йка	-10487
кол	-10488
лоу	-10489
лят	-10490
нях	-10491
теа	-10492
чее	-10493
▁эм	-10494
блеи	-10495
дана	-10496
ковы	-10497
лист	-10498
мали	-10499
нено	-10500
рени	-10501
стье	-10502
▁400	-10503
▁зай	-10504
▁пог	-10505
женно	-10506
любие	-10507
рство	-10508
▁1994	-10509
▁2002	-10510
▁взят	-10511
▁депа	-10512
▁идёт	-10513
▁лиде	-10514
▁лихо	-10515
▁опти	-10516
▁паци	-10517
▁рису	-10518
▁своё	-10519
▁снег	-10520
▁спро	-10521
▁таки	-10522
▁ухуд	-10523
бовать	-10524
витель	-10525
ленным	-10526
тянуть	-10527
▁забра	-10528
▁ингур	-10529
▁калмы	-10530
▁корни	-10531
▁линии	-10532
▁опеки	-10533
▁парка	-10534
▁перео	-10535
▁песню	-10536
▁посре	-10537
▁расту	-10538
▁сезон	-10539
▁умело	-10540
▁эволю	-10541
▁вахтан	-10542
▁выводу	-10543
▁добром	-10544
▁дорогу	-10545
▁думали	-10546
▁занять	-10547
▁неверо	-10548
▁похожи	-10549
▁романа	-10550
▁телефо	-10551
▁теплые	-10552
▁южного	-10553
▁юношес	-10554
▁доброте	-10555
▁занятий	-10556
▁знающий	-10557
▁команди	-10558
▁моменты	-10559
▁музыкан	-10560
▁открыть	-10561
▁пицунда	-10562
▁преданы	-10563
▁приумно	-10564
▁простым	-10565
▁пятница	-10566
▁решению	-10567
▁созданы	-10568
▁тетрадь	-10569
▁тяжкого	-10570
▁циклона	-10571
▁близкими	-10572
▁взглядов	-10573
▁искандер	-10574
▁картинку	-10575
▁миссионе	-10576
▁находить	-10577
▁областях	-10578
▁поступал	-10579
▁простить	-10580
▁рабочего	-10581
▁сообщить	-10582
▁кандидата	-10583
▁оставался	-10584
▁останутся	-10585
▁поколений	-10586
▁получение	-10587
▁посланник	-10588
▁воспитания	-10589
▁изменилось	-10590
▁победители	-10591
▁пользуются	-10592
▁публикация	-10593
▁скромность	-10594
▁автотранспо	-10595
▁встретиться	-10596
▁материально	-10597
▁посвященных	-10598
▁проявляется	-10599
▁собственной	-10600
▁возвращается	-10601
▁гулрыпшского	-10602
▁общественные	-10603
▁одновременно	-10604
▁постарайтесь	-10605
▁исследователь	-10606
▁правительством	-10607
взя	-10608
рья	-10609
сот	-10610
ума	-10611
▁ек	-10612
люсь	-10613
нешь	-10614
рихо	-10615
тном	-10616
чика	-10617
▁аби	-10618
▁ади	-10619
▁бен	-10620
▁взо	-10621
▁еды	-10622
▁киа	-10623
▁тпп	-10624
▁юга	-10625
дники	-10626
пание	-10627
рвать	-10628
тными	-10629
ылара	-10630
▁апол	-10631
▁аспи	-10632
▁вене	-10633
▁вкус	-10634
▁води	-10635
▁выбе	-10636
▁жале	-10637
▁мага	-10638
▁марк	-10639
▁петь	-10640
▁пища	-10641
▁рабы	-10642
▁сидя	-10643
▁снос	-10644
▁суро	-10645
▁хвар	-10646
▁ярко	-10647
даться	-10648
▁бебия	-10649
▁войск	-10650
▁жемчу	-10651
▁зерно	-10652
▁множе	-10653
▁муссы	-10654
▁одних	-10655
▁прошу	-10656
▁рицин	-10657
▁саула	-10658
▁спике	-10659
▁стола	-10660
▁хьюит	-10661
▁чинов	-10662
ждаются	-10663
льевича	-10664
ченными	-10665
▁адыгея	-10666
▁бежать	-10667
▁грозой	-10668
▁евреев	-10669
▁забота	-10670
▁иерихо	-10671
▁крепко	-10672
▁неемия	-10673
▁отобра	-10674
▁оценку	-10675
▁посове	-10676
▁прекло	-10677
▁секрет	-10678
▁семьях	-10679
▁сердцу	-10680
▁солнца	-10681
▁сферах	-10682
▁увлека	-10683
▁устраи	-10684
▁аспиран	-10685
▁бизнеса	-10686
▁деятеля	-10687
▁древнем	-10688
▁европей	-10689
▁лучшему	-10690
▁михаила	-10691
▁недвижи	-10692
▁ожидают	-10693
▁позволи	-10694
▁посчита	-10695
▁преуспе	-10696
▁привели	-10697
▁простой	-10698
▁считаем	-10699
▁угрозой	-10700
▁уместно	-10701
▁филиала	-10702
националь	-10703
▁известны	-10704
▁конструк	-10705
▁обратите	-10706
▁полюбить	-10707
▁популяри	-10708
▁потомков	-10709
▁пребудут	-10710
▁пропуска	-10711
▁северный	-10712
▁семейные	-10713
▁хварцкия	-10714
▁бесплатно	-10715
▁благоскло	-10716
▁евангелия	-10717
▁институте	-10718
▁намеренно	-10719
▁наследуют	-10720
▁обращения	-10721
▁оказалось	-10722
▁переехать	-10723
▁праведным	-10724
▁сообщение	-10725
▁благодарен	-10726
▁всемогущий	-10727
▁окружающих	-10728
▁отказаться	-10729
▁побуждений	-10730
▁поведением	-10731
▁повторного	-10732
▁происходят	-10733
▁публикаций	-10734
▁страданиям	-10735
▁хореографи	-10736
▁зависимости	-10737
▁проводиться	-10738
▁сотрудничать	-10739
▁родственникам	-10740
▁могущественный	-10741
▁распространять	-10742
▁государственную	-10743
қә	-10744
бил	-10745
вия	-10746
гиб	-10747
лян	-10748
пет	-10749
твы	-10750
▁чо	-10751
деме	-10752
дняя	-10753
жала	-10754
кана	-10755
кове	-10756
нист	-10757
рией	-10758
тков	-10759
цара	-10760
▁ага	-10761
▁ека	-10762
▁иди	-10763
▁лес	-10764
▁нах	-10765
▁нер	-10766
▁сма	-10767
клопе	-10768
онеры	-10769
рассу	-10770
щений	-10771
▁2007	-10772
▁впло	-10773
▁врач	-10774
▁дале	-10775
▁духу	-10776
▁злым	-10777
▁изде	-10778
▁илье	-10779
▁маго	-10780
▁наль	-10781
▁ниже	-10782
▁огля	-10783
▁пача	-10784
▁цвет	-10785
▁энци	-10786
▁юных	-10787
баться	-10788
вшуюся	-10789
дников	-10790
кинуть	-10791
клесиа	-10792
мления	-10793
ничный	-10794
пресси	-10795
провод	-10796
совест	-10797
тилась	-10798
ченное	-10799
▁бутба	-10800
▁декла	-10801
▁завла	-10802
▁конфе	-10803
▁осень	-10804
▁проти	-10805
▁слава	-10806
▁хвали	-10807
▁штаба	-10808
▁этапе	-10809
кнуться	-10810
тизации	-10811
хнуться	-10812
▁антици	-10813
▁веруют	-10814
▁видимо	-10815
▁выводы	-10816
▁городу	-10817
▁джапуа	-10818
▁диспан	-10819
▁корруп	-10820
▁кристи	-10821
▁моисее	-10822
▁одежда	-10823
▁ослабе	-10824
▁особые	-10825
▁повеле	-10826
▁превоз	-10827
▁ребята	-10828
▁слышит	-10829
▁стрель	-10830
▁тюрьму	-10831
▁филиал	-10832
▁хозяин	-10833
ренность	-10834
рованные	-10835
ственное	-10836
▁библией	-10837
▁высоком	-10838
▁дорогой	-10839
▁екатери	-10840
▁захотел	-10841
▁исследу	-10842
▁крупном	-10843
▁милиции	-10844
▁оставит	-10845
▁террори	-10846
▁туризма	-10847
▁воспитан	-10848
▁географи	-10849
▁допустил	-10850
▁екклесиа	-10851
▁одобряет	-10852
▁ожидания	-10853
▁праведно	-10854
▁причиной	-10855
▁программ	-10856
▁услышали	-10857
▁возвещать	-10858
▁всемирный	-10859
▁исправить	-10860
▁мемориалу	-10861
▁население	-10862
▁отказался	-10863
▁петербург	-10864
▁почетного	-10865
▁продолжал	-10866
▁произошли	-10867
▁спортсмен	-10868
▁сухумском	-10869
▁энциклопе	-10870
▁воскрешены	-10871
▁двенадцать	-10872
▁записанные	-10873
▁километров	-10874
▁приглашает	-10875
▁российский	-10876
▁встречается	-10877
▁поклоняются	-10878
▁столкнуться	-10879
▁учреждениях	-10880
▁направлениям	-10881
▁приближается	-10882
▁формирования	-10883
▁собственности	-10884
▁попечительства	-10885
гва	-10886
гер	-10887
дру	-10888
рян	-10889
спа	-10890
▁04	-10891
▁98	-10892
▁ас	-10893
мять	-10894
теле	-10895
▁вса	-10896
▁еве	-10897
▁зар	-10898
▁пал	-10899
▁тря	-10900
▁ухо	-10901
йтись	-10902
лёный	-10903
поста	-10904
ровки	-10905
ёмный	-10906
▁2001	-10907
▁кака	-10908
▁коем	-10909
▁нево	-10910
▁обло	-10911
▁подъ	-10912
▁ряда	-10913
▁сака	-10914
▁сыне	-10915
ченной	-10916
▁воины	-10917
▁домом	-10918
▁кален	-10919
▁корен	-10920
▁обога	-10921
▁печат	-10922
▁сбере	-10923
▁света	-10924
▁семен	-10925
▁снять	-10926
▁ценил	-10927
лениями	-10928
нениями	-10929
▁думаем	-10930
▁житель	-10931
▁золото	-10932
▁консер	-10933
▁кукуру	-10934
▁менять	-10935
▁наряду	-10936
▁описал	-10937
▁ошибку	-10938
▁регули	-10939
▁семина	-10940
▁скором	-10941
▁урожай	-10942
ленность	-10943
▁возлага	-10944
▁воронов	-10945
▁высокую	-10946
▁выставо	-10947
▁главные	-10948
▁департа	-10949
▁защищал	-10950
▁кавказе	-10951
▁лучшего	-10952
▁надлежа	-10953
▁неожида	-10954
▁пачулия	-10955
▁повсюду	-10956
▁помогла	-10957
▁просите	-10958
▁региона	-10959
▁решении	-10960
▁сговору	-10961
▁убедить	-10962
▁алименты	-10963
▁взрослых	-10964
▁действие	-10965
▁духовная	-10966
▁принесло	-10967
▁рассчиты	-10968
▁слушайся	-10969
▁согласие	-10970
▁транспор	-10971
▁художник	-10972
▁искушение	-10973
▁коллегами	-10974
▁настоящая	-10975
▁небольшая	-10976
▁оказывает	-10977
▁получения	-10978
▁завершения	-10979
▁испытанием	-10980
▁подготовку	-10981
▁сопредседа	-10982
▁затрагивает	-10983
▁праздничный	-10984
▁предупредил	-10985
▁презентация	-10986
▁рассмотреть	-10987
▁результатам	-10988
▁спокойствие	-10989
▁значительное	-10990
▁предостерега	-10991
▁приобретение	-10992
▁дополнительные	-10993
▁соответствовать	-10994
буа	-10995
зам	-10996
зву	-10997
тут	-10998
▁89	-10999
бных	-11000
дную	-11001
лать	-11002
олог	-11003
слый	-11004
щина	-11005
▁ари	-11006
▁лек	-11007
▁лон	-11008
▁ниц	-11009
▁пис	-11010
▁пля	-11011
▁тыс	-11012
▁хло	-11013
вляем	-11014
говый	-11015
предь	-11016
релый	-11017
тович	-11018
▁ахра	-11019
▁вижу	-11020
▁долг	-11021
▁измо	-11022
▁изъя	-11023
▁нели	-11024
▁нури	-11025
▁очер	-11026
▁паро	-11027
▁реке	-11028
▁спец	-11029
▁усво	-11030
▁чуже	-11031
ванные	-11032
вающих	-11033
венных	-11034
▁везде	-11035
▁вреди	-11036
▁живой	-11037
▁ломия	-11038
▁мягко	-11039
▁недав	-11040
▁несет	-11041
▁нетру	-11042
▁прихо	-11043
▁хашба	-11044
▁хлебо	-11045
▁четыр	-11046
▁шалва	-11047
гнуться	-11048
дельный	-11049
стояние	-11050
тировал	-11051
▁австра	-11052
▁впредь	-11053
▁выхода	-11054
▁гранди	-11055
▁защита	-11056
▁контек	-11057
▁кредит	-11058
▁лингви	-11059
▁ложных	-11060
▁медали	-11061
▁понадо	-11062
▁правам	-11063
▁слабый	-11064
▁субъек	-11065
▁благове	-11066
▁коллеги	-11067
▁королев	-11068
▁леонидо	-11069
▁мирской	-11070
▁перенес	-11071
▁попытки	-11072
▁публику	-11073
▁разумом	-11074
▁систему	-11075
▁вопросом	-11076
▁гордости	-11077
▁доказыва	-11078
▁желанием	-11079
▁желающие	-11080
▁истинная	-11081
▁наследие	-11082
▁небесной	-11083
▁операции	-11084
▁памятник	-11085
▁побудило	-11086
▁погибшим	-11087
▁подраста	-11088
▁пожелать	-11089
▁приводят	-11090
▁пытались	-11091
▁рассказы	-11092
▁самаритя	-11093
▁здоровьем	-11094
▁известных	-11095
▁изменение	-11096
▁испытание	-11097
▁наблюдать	-11098
▁названием	-11099
▁намерения	-11100
▁непослуша	-11101
▁приоритет	-11102
▁проголосо	-11103
▁происходя	-11104
▁сообщению	-11105
▁сражаться	-11106
▁участвует	-11107
▁честность	-11108
▁чувствуют	-11109
▁вступление	-11110
▁екклесиаст	-11111
▁обсуждении	-11112
▁переговоры	-11113
▁прекрасную	-11114
▁примечание	-11115
▁спортивной	-11116
▁столкнулся	-11117
▁наставления	-11118
▁необходимым	-11119
▁обеспечение	-11120
▁посвященная	-11121
▁регистрации	-11122
▁служителями	-11123
▁старейшиной	-11124
▁бодрствовать	-11125
▁человеческие	-11126
▁интеллигенции	-11127
▁непосредственно	-11128
вни	-11129
зый	-11130
куп	-11131
лке	-11132
пах	-11133
сок	-11134
щут	-11135
ьям	-11136
▁9.	-11137
вому	-11138
евой	-11139
еспо	-11140
нусь	-11141
рисо	-11142
рным	-11143
цело	-11144
шана	-11145
▁кис	-11146
▁пли	-11147
▁соу	-11148
▁эсф	-11149
▁юго	-11150
дится	-11151
логов	-11152
ляйте	-11153
нской	-11154
петен	-11155
▁1995	-11156
▁взра	-11157
▁вкра	-11158
▁воде	-11159
▁враг	-11160
▁гору	-11161
▁забу	-11162
▁маан	-11163
▁моем	-11164
▁мёрт	-11165
▁насу	-11166
▁норм	-11167
▁пары	-11168
▁рада	-11169
▁хуху	-11170
вшееся	-11171
думать	-11172
рность	-11173
чаются	-11174
шаются	-11175
шивать	-11176
ющейся	-11177
▁аспек	-11178
▁безна	-11179
▁вышла	-11180
▁денис	-11181
▁набра	-11182
▁обман	-11183
▁опере	-11184
▁отдох	-11185
▁плане	-11186
▁пушки	-11187
▁разры	-11188
▁своев	-11189
▁сцена	-11190
▁успех	-11191
▁учите	-11192
▁черно	-11193
тивного	-11194
ченного	-11195
▁баталь	-11196
▁выборе	-11197
▁добрых	-11198
▁ободря	-11199
▁одержи	-11200
▁остере	-11201
▁подряд	-11202
▁помним	-11203
▁причем	-11204
▁рассле	-11205
▁святое	-11206
▁ценный	-11207
▁августе	-11208
▁вопросе	-11209
▁голосов	-11210
▁даровал	-11211
▁друзьям	-11212
▁живущих	-11213
▁многими	-11214
▁олимпиа	-11215
▁отнести	-11216
▁первыми	-11217
▁пожилые	-11218
▁примите	-11219
▁сборник	-11220
▁эксперт	-11221
вательный	-11222
▁испытать	-11223
▁написать	-11224
▁непросты	-11225
▁окажутся	-11226
▁открылся	-11227
▁поверить	-11228
▁потерять	-11229
▁растения	-11230
▁сердечно	-11231
▁старшего	-11232
▁страдают	-11233
▁угождать	-11234
▁учащихся	-11235
▁выступает	-11236
▁материала	-11237
▁окончании	-11238
▁планируем	-11239
▁пользуясь	-11240
▁послушать	-11241
▁указаниям	-11242
▁уничтожит	-11243
▁управлять	-11244
▁устранить	-11245
▁факультет	-11246
▁черкесске	-11247
▁читателей	-11248
▁неблагодар	-11249
▁памятников	-11250
▁первенстве	-11251
▁посланнику	-11252
▁правильное	-11253
▁транспорта	-11254
▁управлении	-11255
▁начальником	-11256
▁необходимых	-11257
▁образованию	-11258
▁последовали	-11259
▁представили	-11260
▁принадлежат	-11261
▁управлением	-11262
▁организована	-11263
▁чрезвычайным	-11264
▁строительству	-11265
▁драматического	-11266
▁воспользоваться	-11267
мс	-11268
пс	-11269
тм	-11270
без	-11271
зли	-11272
нат	-11273
няк	-11274
тья	-11275
хма	-11276
чко	-11277
▁кб	-11278
слов	-11279
хлый	-11280
шись	-11281
▁евг	-11282
▁жан	-11283
▁сол	-11284
▁тка	-11285
▁чко	-11286
▁шан	-11287
▁эли	-11288
гелия	-11289
даний	-11290
ложим	-11291
раста	-11292
ртава	-11293
теран	-11294
тному	-11295
▁вслу	-11296
▁двум	-11297
▁деко	-11298
▁окре	-11299
▁помя	-11300
▁похи	-11301
▁путя	-11302
▁саул	-11303
▁севе	-11304
▁сети	-11305
▁трёх	-11306
▁уско	-11307
колеби	-11308
танный	-11309
▁ашана	-11310
▁болен	-11311
▁бремя	-11312
▁верен	-11313
▁весен	-11314
▁досро	-11315
▁колес	-11316
▁наций	-11317
▁обсле	-11318
▁перси	-11319
▁песнь	-11320
▁слезы	-11321
▁хирур	-11322
вшегося	-11323
скочить	-11324
▁важней	-11325
▁виктор	-11326
▁влияют	-11327
▁возлюб	-11328
▁врачей	-11329
▁гибель	-11330
▁изучая	-11331
▁крепче	-11332
▁особый	-11333
▁перепа	-11334
▁поднял	-11335
▁поняла	-11336
▁придут	-11337
▁рвение	-11338
▁сдержа	-11339
▁слышат	-11340
▁созыва	-11341
▁твоему	-11342
▁трудом	-11343
▁читали	-11344
▁экстре	-11345
женность	-11346
▁агресси	-11347
▁близкий	-11348
▁врагами	-11349
▁детский	-11350
▁жертвой	-11351
▁мертвые	-11352
▁многобо	-11353
▁ориенти	-11354
▁писаний	-11355
▁помогая	-11356
▁потомки	-11357
▁прощает	-11358
▁реакция	-11359
▁реликто	-11360
▁сотвори	-11361
▁статьях	-11362
▁требуют	-11363
▁хорошая	-11364
▁академик	-11365
▁выражать	-11366
▁диспансе	-11367
▁единстве	-11368
▁подумаем	-11369
▁призовые	-11370
▁расходов	-11371
▁спросили	-11372
▁чачхалия	-11373
▁читанава	-11374
▁возглавил	-11375
▁забывайте	-11376
▁завершить	-11377
▁мусульман	-11378
▁обращаясь	-11379
▁описывает	-11380
▁отдельные	-11381
▁повеления	-11382
▁повлекшее	-11383
▁поддержал	-11384
▁последнюю	-11385
▁признании	-11386
▁умеренный	-11387
▁гражданами	-11388
▁изучающему	-11389
▁испытывает	-11390
▁непоколеби	-11391
▁библейского	-11392
▁медицинских	-11393
▁медицинской	-11394
▁предприятий	-11395
▁столкнулись	-11396
▁черкесского	-11397
▁промышленной	-11398
▁сотрудниками	-11399
▁установления	-11400
▁обязательства	-11401
▁первосвященник	-11402
▁сотрудничеству	-11403
яз	-11404
пки	-11405
сян	-11406
▁4.	-11407
▁8.	-11408
▁мч	-11409
▁уж	-11410
виль	-11411
дний	-11412
ждён	-11413
жном	-11414
кову	-11415
нуты	-11416
обре	-11417
рная	-11418
тную	-11419
▁12.	-11420
▁139	-11421
▁ану	-11422
ваешь	-11423
верии	-11424
лович	-11425
ровая	-11426
сфаль	-11427
талки	-11428
▁азии	-11429
▁выез	-11430
▁вызо	-11431
▁газе	-11432
▁джор	-11433
▁коме	-11434
▁лицу	-11435
▁напу	-11436
▁ната	-11437
▁побо	-11438
▁рома	-11439
▁соро	-11440
▁удел	-11441
▁этни	-11442
ляется	-11443
началу	-11444
нского	-11445
стного	-11446
▁астро	-11447
▁блока	-11448
▁бойся	-11449
▁делая	-11450
▁детях	-11451
▁залов	-11452
▁корпу	-11453
▁отдел	-11454
▁попра	-11455
▁почте	-11456
▁промы	-11457
▁рамка	-11458
▁растя	-11459
▁симон	-11460
▁среды	-11461
▁стади	-11462
▁техно	-11463
▁убира	-11464
▁фанта	-11465
▁ходил	-11466
▁царит	-11467
▁эстра	-11468
▁авигея	-11469
▁беспри	-11470
▁бориса	-11471
▁внести	-11472
▁воздая	-11473
▁галиле	-11474
▁данной	-11475
▁данном	-11476
▁дарует	-11477
▁дважды	-11478
▁европе	-11479
▁маршру	-11480
▁назаре	-11481
▁обрели	-11482
▁пастух	-11483
▁потопа	-11484
▁поэзии	-11485
▁спарта	-11486
▁виталия	-11487
▁выучить	-11488
▁декабрь	-11489
▁доволен	-11490
▁знакомы	-11491
▁качеств	-11492
▁незначи	-11493
▁ноемини	-11494
▁периода	-11495
▁победой	-11496
▁положит	-11497
▁прибыла	-11498
▁приняты	-11499
▁разумно	-11500
▁свадьбы	-11501
▁создали	-11502
▁тяжести	-11503
▁аввакума	-11504
▁больницы	-11505
▁верующие	-11506
▁выражает	-11507
▁грандиоз	-11508
▁женщинам	-11509
▁животные	-11510
▁исполнил	-11511
▁кабинете	-11512
▁концерта	-11513
▁массовой	-11514
▁математи	-11515
▁отвечают	-11516
▁отдавать	-11517
▁простран	-11518
▁сведения	-11519
▁семейной	-11520
▁спастись	-11521
▁старайся	-11522
▁учителей	-11523
▁частично	-11524
▁городской	-11525
▁заключить	-11526
▁иезекииля	-11527
▁множества	-11528
▁настроены	-11529
▁оставлять	-11530
▁подписали	-11531
▁продолжил	-11532
▁произошел	-11533
▁создателя	-11534
▁использует	-11535
▁качествами	-11536
▁обращаются	-11537
▁праздников	-11538
▁прекрасных	-11539
▁пророчеств	-11540
▁совершаете	-11541
▁стремление	-11542
▁эффективно	-11543
▁возвращения	-11544
▁метеорологи	-11545
▁московского	-11546
▁надзирателя	-11547
▁предсказыва	-11548
▁соединенных	-11549
▁участниками	-11550
▁непорочность	-11551
▁поддерживаем	-11552
▁позаботиться	-11553
▁предупреждал	-11554
▁приближаться	-11555
▁инвестпрограм	-11556
▁символизирует	-11557
▁общественности	-11558
▁общественностью	-11559
тә	-11560
▁̆	-11561
лла	-11562
нто	-11563
рби	-11564
тлу	-11565
тёр	-11566
цәа	-11567
шиг	-11568
доно	-11569
куси	-11570
лико	-11571
лица	-11572
мену	-11573
ремя	-11574
снаб	-11575
таль	-11576
▁арм	-11577
▁евы	-11578
▁ота	-11579
▁рос	-11580
▁сож	-11581
▁сур	-11582
выста	-11583
носят	-11584
стрее	-11585
шайте	-11586
щийся	-11587
▁2006	-11588
▁2009	-11589
▁ауди	-11590
▁базе	-11591
▁джан	-11592
▁добр	-11593
▁зате	-11594
▁капе	-11595
▁карь	-11596
▁льва	-11597
▁охла	-11598
▁пару	-11599
▁трав	-11600
▁упре	-11601
▁фини	-11602
▁фрук	-11603
▁чама	-11604
▁штат	-11605
колько	-11606
менять	-11607
понима	-11608
рабаты	-11609
щиться	-11610
энерго	-11611
▁актов	-11612
▁браку	-11613
▁вслух	-11614
▁встал	-11615
▁евреи	-11616
▁зухба	-11617
▁каран	-11618
▁кецба	-11619
▁любую	-11620
▁номер	-11621
▁опеку	-11622
▁попол	-11623
▁ребят	-11624
▁ремес	-11625
▁сария	-11626
▁склон	-11627
▁строй	-11628
▁унизи	-11629
▁хагба	-11630
▁хашиг	-11631
▁эпиде	-11632
▁август	-11633
▁берегу	-11634
▁беседы	-11635
▁вечная	-11636
▁грехах	-11637
▁древне	-11638
▁журнал	-11639
▁зачиты	-11640
▁играть	-11641
▁киараз	-11642
▁маршан	-11643
▁научил	-11644
▁отзыва	-11645
▁плодов	-11646
▁разным	-11647
▁району	-11648
▁святых	-11649
▁сделай	-11650
▁слепых	-11651
▁ценные	-11652
▁юности	-11653
▁бюджете	-11654
▁высоких	-11655
▁данного	-11656
▁делаете	-11657
▁деревья	-11658
▁доверия	-11659
▁крепкой	-11660
▁леонида	-11661
▁местами	-11662
▁молимся	-11663
▁новость	-11664
▁нормами	-11665
▁объясня	-11666
▁простые	-11667
▁сложные	-11668
▁тбилиси	-11669
▁ткуарча	-11670
▁царству	-11671
ственными	-11672
▁встречам	-11673
▁доказать	-11674
▁наладить	-11675
▁начались	-11676
▁началось	-11677
▁очамчыре	-11678
▁переданы	-11679
▁поздрави	-11680
▁поначалу	-11681
▁приведет	-11682
▁проверки	-11683
▁просьбой	-11684
▁вспомнить	-11685
▁выступили	-11686
▁задейство	-11687
▁конфедера	-11688
▁нисколько	-11689
▁следствие	-11690
▁показывать	-11691
▁порнографи	-11692
▁профессора	-11693
▁следующего	-11694
▁сохраняйте	-11695
▁великодушно	-11696
▁видеоролики	-11697
▁избирателей	-11698
▁потребуется	-11699
▁удивительно	-11700
▁установлено	-11701
▁беспокоиться	-11702
▁исследование	-11703
▁почувствовал	-11704
▁собственного	-11705
▁международная	-11706
▁восстановление	-11707
▁черноморэнерго	-11708
▁подразумевается	-11709
ҟа	-11710
гай	-11711
доб	-11712
мит	-11713
сек	-11714
фед	-11715
▁пм	-11716
воро	-11717
дохе	-11718
емая	-11719
емую	-11720
лием	-11721
▁130	-11722
▁202	-11723
▁700	-11724
▁ешь	-11725
▁мчс	-11726
▁нуг	-11727
▁сон	-11728
▁эше	-11729
▁яко	-11730
садка	-11731
совый	-11732
чному	-11733
ялись	-11734
▁1990	-11735
▁1991	-11736
▁1999	-11737
▁аква	-11738
▁дока	-11739
▁забе	-11740
▁изна	-11741
▁муже	-11742
▁поту	-11743
▁приг	-11744
▁реку	-11745
▁риме	-11746
▁рово	-11747
▁сада	-11748
▁спле	-11749
▁спря	-11750
▁стен	-11751
▁теме	-11752
стными	-11753
тивным	-11754
щаются	-11755
▁ахуба	-11756
▁вдова	-11757
▁верил	-11758
▁вразу	-11759
▁вырос	-11760
▁глупо	-11761
▁донец	-11762
▁задол	-11763
▁звали	-11764
▁имеем	-11765
▁накло	-11766
▁наука	-11767
▁немощ	-11768
▁ошибо	-11769
▁переу	-11770
▁посте	-11771
▁прива	-11772
▁речью	-11773
▁снего	-11774
▁сумме	-11775
▁трапш	-11776
▁форму	-11777
▁фунда	-11778
▁ханаа	-11779
▁храни	-11780
▁чудом	-11781
ложение	-11782
▁беспло	-11783
▁больно	-11784
▁верблю	-11785
▁воздуш	-11786
▁всякое	-11787
▁вырабо	-11788
▁выращи	-11789
▁забыть	-11790
▁ложные	-11791
▁любили	-11792
▁одежде	-11793
▁описан	-11794
▁отдали	-11795
▁претен	-11796
▁просим	-11797
▁разбой	-11798
▁репети	-11799
▁семена	-11800
▁справа	-11801
▁ценное	-11802
ванность	-11803
рический	-11804
▁бесконе	-11805
▁ветеран	-11806
▁вовремя	-11807
▁волейбо	-11808
▁должное	-11809
▁доходов	-11810
▁древние	-11811
▁замысла	-11812
▁мастера	-11813
▁молодая	-11814
▁нестора	-11815
▁объявил	-11816
▁октябрь	-11817
▁отклика	-11818
▁перепол	-11819
▁повышен	-11820
▁прароди	-11821
▁превыше	-11822
▁простит	-11823
▁разруши	-11824
▁святили	-11825
▁третьей	-11826
▁центром	-11827
▁лакербай	-11828
▁лакербая	-11829
▁мужчинам	-11830
▁недоволь	-11831
▁обмануть	-11832
▁победить	-11833
▁повлияло	-11834
▁районный	-11835
▁сентябрь	-11836
▁смелость	-11837
▁способны	-11838
▁улучшить	-11839
▁чувствую	-11840
▁возложили	-11841
▁греческое	-11842
▁держаться	-11843
▁ниспослал	-11844
▁позволить	-11845
▁положении	-11846
▁пятидесят	-11847
▁смиренным	-11848
▁стремится	-11849
▁сухумский	-11850
▁фотовыста	-11851
▁воскресить	-11852
▁вступления	-11853
▁жительства	-11854
▁источником	-11855
▁недостатки	-11856
▁необходима	-11857
▁относитесь	-11858
▁преследова	-11859
▁расположен	-11860
▁согласился	-11861
▁спортивных	-11862
▁рассказывая	-11863
▁уничтожения	-11864
▁шестидесяти	-11865
▁беспокойство	-11866
▁общественная	-11867
▁производство	-11868
▁рассказывали	-11869
▁руководящего	-11870
дрометеослужба	-11871
▁избирательных	-11872
▁искупительной	-11873
▁организаторов	-11874
▁политического	-11875
▁проповедовали	-11876
▁предприниматель	-11877
гон	-11878
ира	-11879
лёт	-11880
▁уо	-11881
бать	-11882
гран	-11883
дием	-11884
ился	-11885
лови	-11886
льет	-11887
лясь	-11888
меть	-11889
сафа	-11890
сель	-11891
стар	-11892
хова	-11893
▁гам	-11894
▁гол	-11895
▁оже	-11896
▁пмр	-11897
▁сет	-11898
гвава	-11899
дении	-11900
ильям	-11901
канье	-11902
рений	-11903
товка	-11904
▁2003	-11905
▁вооз	-11906
▁выле	-11907
▁ежем	-11908
▁идей	-11909
▁куба	-11910
▁мель	-11911
▁наце	-11912
▁поез	-11913
▁прин	-11914
▁рати	-11915
▁рыбо	-11916
▁сово	-11917
▁суди	-11918
▁фраг	-11919
▁цену	-11920
▁швей	-11921
битель	-11922
дились	-11923
доволь	-11924
душный	-11925
раться	-11926
▁гогия	-11927
▁делай	-11928
▁забро	-11929
▁исаак	-11930
▁курса	-11931
▁марте	-11932
▁оболь	-11933
▁отдых	-11934
▁потоп	-11935
▁потра	-11936
▁предд	-11937
▁прили	-11938
▁проре	-11939
▁разор	-11940
▁стани	-11941
▁убере	-11942
ванного	-11943
вленной	-11944
дневной	-11945
▁апрель	-11946
▁востор	-11947
▁выкупа	-11948
▁девять	-11949
▁изменя	-11950
▁изобре	-11951
▁камень	-11952
▁камкиа	-11953
▁мотива	-11954
▁пациен	-11955
▁поверх	-11956
▁полный	-11957
▁просят	-11958
▁револю	-11959
▁ростов	-11960
▁стихах	-11961
▁темати	-11962
▁уильям	-11963
▁урожая	-11964
▁учесть	-11965
▁фазиль	-11966
▁чистую	-11967
▁бигвава	-11968
▁выдержа	-11969
▁держать	-11970
▁знамена	-11971
▁какалия	-11972
▁крупных	-11973
▁мардохе	-11974
▁научной	-11975
▁неформа	-11976
▁николай	-11977
▁новости	-11978
▁отнесся	-11979
▁подобны	-11980
▁пределы	-11981
▁пророки	-11982
▁просьбу	-11983
▁разобла	-11984
▁сделала	-11985
▁сделано	-11986
▁телефон	-11987
▁теннису	-11988
▁утешать	-11989
▁участка	-11990
▁фамилии	-11991
▁чамагуа	-11992
стройство	-11993
▁великому	-11994
▁внезапно	-11995
▁высокого	-11996
▁глубокие	-11997
▁депутата	-11998
▁древнего	-11999
▁молитвах	-12000
▁обратить	-12001
▁объявлен	-12002
▁переводи	-12003
▁полезные	-12004
▁получает	-12005
▁пределах	-12006
▁проводим	-12007
▁работали	-12008
▁северной	-12009
▁совестью	-12010
▁составил	-12011
▁уверовал	-12012
▁научились	-12013
▁обращался	-12014
▁обращении	-12015
▁очередной	-12016
▁повышение	-12017
▁проходили	-12018
▁проявляли	-12019
▁васильевич	-12020
▁завершение	-12021
▁значимость	-12022
▁интересные	-12023
▁испытываем	-12024
▁испытывать	-12025
▁коллектива	-12026
▁награждены	-12027
▁направлены	-12028
▁незаконное	-12029
▁ниспослали	-12030
▁официально	-12031
▁победитель	-12032
▁получается	-12033
▁предложили	-12034
▁специализи	-12035
▁творчество	-12036
▁фактически	-12037
▁библейскому	-12038
▁благодарить	-12039
▁видеоролика	-12040
▁напоминание	-12041
▁позаботится	-12042
▁предоставил	-12043
▁христианину	-12044
▁благодарными	-12045
▁рассмотрение	-12046
▁христианской	-12047
▁существование	-12048
▁великобритании	-12049
▁присутствовать	-12050
▁родственниками	-12051
эр	-12052
▁‐	-12053
бже	-12054
као	-12055
мол	-12056
сою	-12057
шке	-12058
лого	-12059
ньте	-12060
рень	-12061
чава	-12062
яния	-12063
▁11.	-12064
▁ажи	-12065
▁век	-12066
▁гав	-12067
▁моа	-12068
▁ног	-12069
▁ово	-12070
▁роз	-12071
▁сжи	-12072
▁чье	-12073
денти	-12074
зится	-12075
исана	-12076
нился	-12077
понен	-12078
судар	-12079
тство	-12080
▁2005	-12081
▁арен	-12082
▁выжи	-12083
▁двой	-12084
▁засы	-12085
▁иову	-12086
▁кеса	-12087
▁лоша	-12088
▁маме	-12089
▁мясо	-12090
▁озву	-12091
▁отча	-12092
▁пище	-12093
▁прах	-12094
▁семя	-12095
▁софа	-12096
▁теря	-12097
▁удар	-12098
▁чтоб	-12099
ванную	-12100
дывать	-12101
жённый	-12102
лотить	-12103
чённый	-12104
щенный	-12105
▁боксу	-12106
▁верим	-12107
▁горды	-12108
▁друже	-12109
▁завет	-12110
▁запро	-12111
▁злыми	-12112
▁месту	-12113
▁напар	-12114
▁плано	-12115
▁повод	-12116
▁подве	-12117
▁подли	-12118
▁показ	-12119
▁рассы	-12120
▁собою	-12121
▁сферы	-12122
▁съезд	-12123
▁хитро	-12124
кование	-12125
▁асфаль	-12126
▁аэропо	-12127
▁голова	-12128
▁зураба	-12129
▁искоре	-12130
▁исходя	-12131
▁камнем	-12132
▁могиле	-12133
▁навина	-12134
▁непред	-12135
▁нисана	-12136
▁переко	-12137
▁перели	-12138
▁персид	-12139
▁подыто	-12140
▁прегра	-12141
▁разгне	-12142
▁сдержи	-12143
▁склады	-12144
▁созида	-12145
▁указом	-12146
▁шенкао	-12147
▁билетов	-12148
▁внешней	-12149
▁вывести	-12150
▁доказал	-12151
▁израилю	-12152
▁любимый	-12153
▁новогод	-12154
▁обсудил	-12155
▁препира	-12156
▁проника	-12157
▁пророку	-12158
▁просили	-12159
▁сестрой	-12160
▁творить	-12161
правитель	-12162
▁возвести	-12163
▁комменти	-12164
▁называли	-12165
▁плодотво	-12166
▁тактично	-12167
▁утешения	-12168
▁участвуя	-12169
▁чувствах	-12170
ственность	-12171
▁вынуждены	-12172
▁духовному	-12173
▁заботятся	-12174
▁искушения	-12175
▁ненависть	-12176
▁нравилось	-12177
▁ободрение	-12178
▁посмотрим	-12179
▁причинить	-12180
▁республик	-12181
▁неверующим	-12182
▁необычайно	-12183
▁обратились	-12184
▁оставались	-12185
▁отсутствии	-12186
▁подписание	-12187
▁полномочий	-12188
▁смиренными	-12189
▁требование	-12190
▁выдающегося	-12191
▁георгиевича	-12192
▁достоинства	-12193
▁единогласно	-12194
▁естественно	-12195
▁нечестивого	-12196
▁присутствия	-12197
▁размышления	-12198
▁разобраться	-12199
▁рассказывал	-12200
▁безупречными	-12201
▁политический	-12202
▁производится	-12203
▁представления	-12204
▁преподаватель	-12205
▁несовершенство	-12206
▁самоуправления	-12207
▁филологических	-12208
▁сосредоточиться	-12209
шё	-12210
влю	-12211
еся	-12212
зок	-12213
кал	-12214
пры	-12215
реб	-12216
рза	-12217
риф	-12218
сий	-12219
сср	-12220
цыц	-12221
чию	-12222
шат	-12223
шев	-12224
эко	-12225
▁09	-12226
▁81	-12227
▁ом	-12228
▁тв	-12229
бные	-12230
быва	-12231
гова	-12232
ехал	-12233
жник	-12234
кали	-12235
льти	-12236
мато	-12237
мони	-12238
нная	-12239
▁гля	-12240
▁изъ	-12241
▁каи	-12242
▁мал	-12243
▁неф	-12244
▁пут	-12245
▁уще	-12246
душие	-12247
ехали	-12248
лезть	-12249
летие	-12250
парла	-12251
ствию	-12252
ховен	-12253
▁биби	-12254
▁гоов	-12255
▁дары	-12256
▁духи	-12257
▁отоз	-12258
▁отпа	-12259
▁отче	-12260
▁рама	-12261
▁скри	-12262
▁тщет	-12263
▁фина	-12264
▁хули	-12265
кладка	-12266
продук	-12267
ходили	-12268
▁авеля	-12269
▁алмас	-12270
▁бокса	-12271
▁всеоб	-12272
▁гагре	-12273
▁инфра	-12274
▁китай	-12275
▁колон	-12276
▁лицам	-12277
▁модер	-12278
▁мульт	-12279
▁проще	-12280
▁разма	-12281
▁регла	-12282
▁сваде	-12283
▁сочли	-12284
▁транс	-12285
ведении	-12286
ведений	-12287
ностями	-12288
ношение	-12289
▁барцыц	-12290
▁боялся	-12291
▁брошюр	-12292
▁велика	-12293
▁воздви	-12294
▁глубже	-12295
▁гостям	-12296
▁езекия	-12297
▁замени	-12298
▁изнача	-12299
▁коллег	-12300
▁особую	-12301
▁поборо	-12302
▁полную	-12303
▁путина	-12304
▁собрал	-12305
▁султан	-12306
▁упуска	-12307
▁чистой	-12308
▁читают	-12309
▁эдуард	-12310
дировать	-12311
ственным	-12312
▁благого	-12313
▁божьими	-12314
▁властям	-12315
▁делайте	-12316
▁ежемеся	-12317
▁инженер	-12318
▁корабль	-12319
▁лауреат	-12320
▁матерью	-12321
▁незнако	-12322
▁ожидаем	-12323
▁перевоз	-12324
▁подойти	-12325
▁пособия	-12326
▁президи	-12327
▁сильным	-12328
▁скверно	-12329
▁танцева	-12330
▁тяжелые	-12331
▁февраль	-12332
▁франции	-12333
парламент	-12334
▁американ	-12335
▁единовер	-12336
▁заключил	-12337
▁значения	-12338
▁зрителей	-12339
▁истинным	-12340
▁красного	-12341
▁осуждает	-12342
▁познания	-12343
▁привычку	-12344
▁принятия	-12345
▁приобрел	-12346
▁причинам	-12347
▁радуется	-12348
▁редактор	-12349
▁религией	-12350
▁созданий	-12351
▁стороной	-12352
▁судебном	-12353
▁еврейских	-12354
▁испытывал	-12355
▁мультфиль	-12356
▁непристой	-12357
▁объяснять	-12358
▁продлится	-12359
▁советской	-12360
▁сыновьями	-12361
▁диспансери	-12362
▁жительство	-12363
▁завершении	-12364
▁количества	-12365
▁осуществля	-12366
▁отмечалось	-12367
▁помощников	-12368
▁помощником	-12369
▁преданными	-12370
▁преддверии	-12371
▁пригласили	-12372
▁статистики	-12373
▁управлению	-12374
▁факультета	-12375
▁информацией	-12376
▁исправление	-12377
▁коллективов	-12378
▁нуждающимся	-12379
▁переговоров	-12380
▁посвященное	-12381
▁превосходит	-12382
▁телевидения	-12383
▁усыновление	-12384
▁усыновления	-12385
▁центральном	-12386
▁департамента	-12387
▁поддерживали	-12388
▁помазанников	-12389
▁преодолевать	-12390
▁совершенными	-12391
▁эксплуатацию	-12392
▁избирательный	-12393
▁установленном	-12394
▁парламентского	-12395
▁самостоятельно	-12396
ама	-12397
бек	-12398
вто	-12399
ету	-12400
нге	-12401
пец	-12402
пот	-12403
хии	-12404
▁6.	-12405
▁дэ	-12406
▁кв	-12407
▁нм	-12408
жете	-12409
жешь	-12410
жили	-12411
руем	-12412
това	-12413
▁13.	-12414
▁186	-12415
▁800	-12416
▁зат	-12417
▁иро	-12418
▁сгб	-12419
▁тей	-12420
▁шпи	-12421
грать	-12422
драть	-12423
ловка	-12424
чанье	-12425
шнего	-12426
ъемле	-12427
▁1945	-12428
▁апсу	-12429
▁веща	-12430
▁гале	-12431
▁гуми	-12432
▁изви	-12433
▁илия	-12434
▁клас	-12435
▁март	-12436
▁мото	-12437
▁наду	-12438
▁нале	-12439
▁обер	-12440
▁отря	-12441
▁прог	-12442
▁псоу	-12443
▁скру	-12444
▁хами	-12445
▁юсти	-12446
нулась	-12447
ходный	-12448
шечный	-12449
▁акцен	-12450
▁герой	-12451
▁грубо	-12452
▁затру	-12453
▁карта	-12454
▁мирот	-12455
▁нагру	-12456
▁отсро	-12457
▁плену	-12458
▁повел	-12459
▁попал	-12460
▁прогу	-12461
▁пункт	-12462
▁саида	-12463
▁сосед	-12464
▁чичба	-12465
ваетесь	-12466
ренного	-12467
творить	-12468
▁бездей	-12469
▁выбора	-12470
▁готова	-12471
▁даются	-12472
▁длинно	-12473
▁иеффай	-12474
▁лагеря	-12475
▁местом	-12476
▁мотивы	-12477
▁незако	-12478
▁образе	-12479
▁обрета	-12480
▁павлом	-12481
▁подопе	-12482
▁правую	-12483
▁прести	-12484
▁притче	-12485
▁систем	-12486
▁смогла	-12487
▁сообща	-12488
▁стояли	-12489
▁супруг	-12490
▁учатся	-12491
▁членом	-12492
▁январь	-12493
лённость	-12494
▁богоуго	-12495
▁воевать	-12496
▁девочки	-12497
▁древней	-12498
▁золотые	-12499
▁изобили	-12500
▁периоди	-12501
▁получив	-12502
▁попасть	-12503
▁попробу	-12504
▁прорабо	-12505
▁рабочих	-12506
▁рассуди	-12507
▁сильное	-12508
▁создает	-12509
▁тяжелое	-12510
▁эгоисти	-12511
▁электри	-12512
▁верующим	-12513
▁демонами	-12514
▁искусств	-12515
▁комиссию	-12516
▁компетен	-12517
▁концерте	-12518
▁любящего	-12519
▁многобож	-12520
▁памятных	-12521
▁повторно	-12522
▁почетные	-12523
▁прокурор	-12524
▁сентябре	-12525
▁учебного	-12526
▁неотъемле	-12527
▁оказалась	-12528
▁поддержит	-12529
▁преданным	-12530
▁преобразо	-12531
▁принимаем	-12532
▁проводили	-12533
▁создавать	-12534
▁стойкости	-12535
▁страницах	-12536
▁употребля	-12537
▁художника	-12538
▁абазинском	-12539
▁двенадцати	-12540
▁занимались	-12541
▁используют	-12542
▁литературо	-12543
▁освобожден	-12544
▁отсутствие	-12545
▁праведными	-12546
▁российские	-12547
▁средствами	-12548
▁современные	-12549
▁владимирович	-12550
▁двусторонних	-12551
▁заслуженного	-12552
▁инфраструкту	-12553
▁межпарламент	-12554
▁министерству	-12555
▁администраций	-12556
▁подразделений	-12557
▁подразумевает	-12558
▁предубеждения	-12559
▁предусмотрено	-12560
▁прелюбодеяние	-12561
▁примечательно	-12562
▁существования	-12563
▁приблизительно	-12564
эк	-12565
ҳа	-12566
бит	-12567
гим	-12568
дую	-12569
ено	-12570
▁5.	-12571
▁87	-12572
▁88	-12573
▁ем	-12574
взой	-12575
гани	-12576
ениа	-12577
лька	-12578
стит	-12579
суди	-12580
▁або	-12581
▁арт	-12582
▁бах	-12583
▁отя	-12584
▁пей	-12585
ворот	-12586
говор	-12587
довый	-12588
зовый	-12589
миная	-12590
ховой	-12591
честь	-12592
▁абду	-12593
▁айба	-12594
▁анто	-12595
▁асср	-12596
▁бала	-12597
▁быто	-12598
▁зано	-12599
▁ищут	-12600
▁июль	-12601
▁наво	-12602
▁нада	-12603
▁неду	-12604
▁отзы	-12605
▁рахи	-12606
▁сном	-12607
▁улыб	-12608
▁умно	-12609
▁хими	-12610
▁экра	-12611
▁эски	-12612
▁ябло	-12613
онного	-12614
шались	-12615
▁актер	-12616
▁блага	-12617
▁ведем	-12618
▁взрыв	-12619
▁голиа	-12620
▁искал	-12621
▁килба	-12622
▁конку	-12623
▁консо	-12624
▁латин	-12625
▁мигра	-12626
▁накор	-12627
▁нежно	-12628
▁помыш	-12629
▁преде	-12630
▁припа	-12631
▁прице	-12632
▁разоб	-12633
▁расчи	-12634
▁роско	-12635
▁сбора	-12636
▁силам	-12637
▁траур	-12638
▁тюрем	-12639
▁хвата	-12640
▁члена	-12641
бросить	-12642
стность	-12643
▁вплоть	-12644
▁загряз	-12645
▁звезда	-12646
▁иосафа	-12647
▁насиль	-12648
▁неправ	-12649
▁нурбей	-12650
▁ожесто	-12651
▁подтол	-12652
▁позади	-12653
▁полное	-12654
▁поэтов	-12655
▁прибыл	-12656
▁псалма	-12657
▁ректор	-12658
▁самона	-12659
▁середи	-12660
▁сконча	-12661
▁ставит	-12662
▁устрем	-12663
▁хьюитт	-12664
▁будущих	-12665
▁волнует	-12666
▁вызвать	-12667
▁деловой	-12668
▁доброты	-12669
▁дорожит	-12670
▁защитой	-12671
▁испытал	-12672
▁колосса	-12673
▁лишение	-12674
▁неоцени	-12675
▁отпусти	-12676
▁подбира	-12677
▁похвалы	-12678
▁происше	-12679
▁реформа	-12680
▁сборная	-12681
▁свободе	-12682
▁сильные	-12683
▁следуем	-12684
▁училища	-12685
▁юбилеем	-12686
тирование	-12687
▁амцахара	-12688
▁вавилоне	-12689
▁ведомств	-12690
▁вечность	-12691
▁воронова	-12692
▁зачитать	-12693
▁зрелости	-12694
▁известен	-12695
▁народная	-12696
▁недостой	-12697
▁обещаний	-12698
▁обучении	-12699
▁отворачи	-12700
▁отдельно	-12701
▁символом	-12702
▁станисла	-12703
▁стараясь	-12704
▁статьями	-12705
▁участник	-12706
▁видимости	-12707
▁восточной	-12708
▁жизненный	-12709
▁надеяться	-12710
▁назидание	-12711
▁назначить	-12712
▁откроется	-12713
▁подписано	-12714
▁посвящена	-12715
▁предметов	-12716
▁приносили	-12717
▁приносило	-12718
▁разговоры	-12719
▁руководил	-12720
▁следовали	-12721
▁структуры	-12722
▁темурович	-12723
▁абхазскими	-12724
▁восхвалять	-12725
▁крестились	-12726
▁культурной	-12727
▁нечестивых	-12728
▁основанная	-12729
▁отличаются	-12730
▁подготовил	-12731
▁поддержали	-12732
▁подходящее	-12733
▁посвящение	-12734
▁правителем	-12735
▁прекрасная	-12736
▁присвоении	-12737
▁продолжали	-12738
▁размышляем	-12739
▁творческих	-12740
▁христианка	-12741
▁антициклона	-12742
▁значительно	-12743
▁исполнением	-12744
▁направлений	-12745
▁необходимую	-12746
▁посвященные	-12747
▁присутствии	-12748
▁сексуальной	-12749
▁современном	-12750
▁современный	-12751
▁сотрудникам	-12752
▁спиритизмом	-12753
▁утверждении	-12754
▁благополучии	-12755
▁возможностью	-12756
▁межправитель	-12757
▁обеспечивать	-12758
▁общественный	-12759
▁политическая	-12760
▁положительно	-12761
▁противоречит	-12762
▁рассчитывать	-12763
▁территориаль	-12764
▁осуществляется	-12765
▁ставропольского	-12766
еи	-12767
сб	-12768
леш	-12769
муд	-12770
чан	-12771
шер	-12772
вина	-12773
дешь	-12774
дила	-12775
дров	-12776
здра	-12777
ллек	-12778
рима	-12779
тчик	-12780
▁108	-12781
▁187	-12782
▁ате	-12783
▁бег	-12784
▁вза	-12785
▁вож	-12786
▁жар	-12787
▁кое	-12788
▁лез	-12789
▁мак	-12790
▁пир	-12791
▁фар	-12792
▁хал	-12793
▁эми	-12794
▁юни	-12795
ндзия	-12796
щимся	-12797
▁1978	-12798
▁бота	-12799
▁джин	-12800
▁дзап	-12801
▁изну	-12802
▁каин	-12803
▁кула	-12804
▁купа	-12805
▁кута	-12806
▁обид	-12807
▁поти	-12808
▁свит	-12809
▁смет	-12810
▁фаши	-12811
▁юный	-12812
ветный	-12813
вшаяся	-12814
ловать	-12815
ренном	-12816
ровщик	-12817
торный	-12818
хаться	-12819
шество	-12820
щегося	-12821
▁аврам	-12822
▁актри	-12823
▁выезд	-12824
▁глупы	-12825
▁желез	-12826
▁жилищ	-12827
▁заква	-12828
▁лидер	-12829
▁навод	-12830
▁навре	-12831
▁нанба	-12832
▁носят	-12833
▁пасха	-12834
▁подпи	-12835
▁поэти	-12836
▁разжи	-12837
▁раулю	-12838
▁роста	-12839
▁селах	-12840
▁сквоз	-12841
▁убили	-12842
▁устой	-12843
▁ходит	-12844
▁ясные	-12845
▁автора	-12846
▁верили	-12847
▁воздей	-12848
▁давали	-12849
▁дольше	-12850
▁живших	-12851
▁заметь	-12852
▁иденти	-12853
▁личных	-12854
▁мудрым	-12855
▁оптими	-12856
▁отличи	-12857
▁печать	-12858
▁посеща	-12859
▁премье	-12860
▁прикры	-12861
▁приспо	-12862
▁растер	-12863
▁режиме	-12864
▁следуй	-12865
▁угнета	-12866
▁чистое	-12867
▁экзаме	-12868
вленного	-12869
ременный	-12870
▁бесстра	-12871
▁благово	-12872
▁буклета	-12873
▁вернуть	-12874
▁военную	-12875
▁всякому	-12876
▁высказа	-12877
▁гаделия	-12878
▁дзапшба	-12879
▁зависть	-12880
▁минздра	-12881
▁молится	-12882
▁мухарби	-12883
▁неизмен	-12884
▁обычаев	-12885
▁органах	-12886
▁оскорби	-12887
▁пастуха	-12888
▁похвали	-12889
▁похорон	-12890
▁прихода	-12891
▁пунктов	-12892
▁пушкина	-12893
▁реформи	-12894
▁спутник	-12895
▁техники	-12896
▁увидите	-12897
▁увидишь	-12898
▁церковь	-12899
▁артистка	-12900
▁вынужден	-12901
▁выразила	-12902
▁достигли	-12903
▁избрании	-12904
▁интеллек	-12905
▁ленингра	-12906
▁называть	-12907
▁обрадова	-12908
▁оказания	-12909
▁передача	-12910
▁перестал	-12911
▁положить	-12912
▁посвятил	-12913
▁смелости	-12914
▁страдает	-12915
▁супругам	-12916
▁телефону	-12917
▁убеждены	-12918
▁чувствам	-12919
тельностью	-12920
▁великолеп	-12921
▁всесторон	-12922
▁выступать	-12923
▁дорожного	-12924
▁заботился	-12925
▁изменился	-12926
▁переживал	-12927
▁повседнев	-12928
▁предосуди	-12929
▁привержен	-12930
▁пригласил	-12931
▁проблемам	-12932
▁пропавших	-12933
▁реабилита	-12934
▁ремонтные	-12935
▁сосналиев	-12936
▁ткуарчале	-12937
▁апостолами	-12938
▁воспринима	-12939
▁готовности	-12940
▁дальнейших	-12941
▁директором	-12942
▁кандидатом	-12943
▁приводятся	-12944
▁руководить	-12945
▁выставочном	-12946
▁заболеваний	-12947
▁кандидатуру	-12948
▁молодежного	-12949
▁мучительные	-12950
▁обсуждаются	-12951
▁объединение	-12952
▁очамчырском	-12953
▁праздничные	-12954
▁специальная	-12955
▁сталкиваясь	-12956
▁уравновешен	-12957
▁исторические	-12958
▁переведенное	-12959
▁современного	-12960
▁технического	-12961
▁удивительные	-12962
▁установление	-12963
▁христианином	-12964
▁международное	-12965
▁положительный	-12966
▁представителем	-12967
▁корреспондентом	-12968
▁национальностей	-12969
▁распространение	-12970
пь	-12971
бир	-12972
дво	-12973
дёр	-12974
изм	-12975
мем	-12976
нян	-12977
чке	-12978
▁ер	-12979
▁уи	-12980
вига	-12981
вным	-12982
горо	-12983
день	-12984
зору	-12985
мону	-12986
нией	-12987
нито	-12988
нуло	-12989
сист	-12990
сяга	-12991
▁10.	-12992
▁109	-12993
▁15.	-12994
▁бай	-12995
▁пев	-12996
▁пче	-12997
вента	-12998
гайте	-12999
димся	-13000
косно	-13001
сович	-13002
стати	-13003
стеть	-13004
черей	-13005
швили	-13006
▁арми	-13007
▁беде	-13008
▁выта	-13009
▁дога	-13010
▁ждал	-13011
▁живя	-13012
▁жила	-13013
▁заде	-13014
▁куль	-13015
▁муни	-13016
▁нажи	-13017
▁невз	-13018
▁нену	-13019
▁нехо	-13020
▁опол	-13021
▁поса	-13022
▁псху	-13023
▁птиц	-13024
▁раем	-13025
▁розы	-13026
▁руке	-13027
▁убит	-13028
летний	-13029
пывать	-13030
шенных	-13031
▁башня	-13032
▁ваала	-13033
▁важны	-13034
▁грани	-13035
▁гунба	-13036
▁делба	-13037
▁ежене	-13038
▁зверя	-13039
▁кутол	-13040
▁мелко	-13041
▁молод	-13042
▁мухам	-13043
▁необо	-13044
▁плода	-13045
▁позор	-13046
▁сорок	-13047
▁строя	-13048
▁цифры	-13049
▁читал	-13050
ходящий	-13051
▁блажен	-13052
▁боятся	-13053
▁ведает	-13054
▁главах	-13055
▁график	-13056
▁данных	-13057
▁жениха	-13058
▁запрет	-13059
▁итогах	-13060
▁колдов	-13061
▁кругло	-13062
▁лакрба	-13063
▁лариса	-13064
▁месяце	-13065
▁ноябре	-13066
▁обучая	-13067
▁сноску	-13068
▁старый	-13069
▁трижды	-13070
▁турция	-13071
▁внешний	-13072
▁выполня	-13073
▁дочерей	-13074
▁журналы	-13075
▁защитит	-13076
▁клянусь	-13077
▁кротким	-13078
▁крупный	-13079
▁насчиты	-13080
▁находят	-13081
▁обладал	-13082
▁паралле	-13083
▁платить	-13084
▁понимаю	-13085
▁предков	-13086
▁признак	-13087
▁рубежом	-13088
▁товаров	-13089
стической	-13090
▁вернутся	-13091
▁граждани	-13092
▁избавить	-13093
▁изучении	-13094
▁крещению	-13095
▁министру	-13096
▁народное	-13097
▁обойтись	-13098
▁обращать	-13099
▁означать	-13100
▁ответили	-13101
▁политику	-13102
▁сангулия	-13103
▁событием	-13104
▁уверенно	-13105
▁учеником	-13106
▁агентства	-13107
▁выслушать	-13108
▁годовщины	-13109
▁интерната	-13110
▁компьютер	-13111
▁нуждаемся	-13112
▁перестать	-13113
▁проверить	-13114
▁расширить	-13115
▁самаритян	-13116
▁содержать	-13117
▁сотрудник	-13118
▁спектакле	-13119
▁счастливо	-13120
▁установил	-13121
▁грузинских	-13122
▁довольство	-13123
▁зарубежных	-13124
▁обращались	-13125
▁пребывания	-13126
▁прекратить	-13127
▁проявление	-13128
▁секретарем	-13129
▁устройство	-13130
▁возвращение	-13131
▁встретились	-13132
▁добровольно	-13133
▁иллюстрация	-13134
▁кавказского	-13135
▁направление	-13136
▁находящиеся	-13137
▁обсуждаться	-13138
▁отправились	-13139
▁поддерживал	-13140
▁презентации	-13141
▁спортивного	-13142
▁утверждение	-13143
▁экземпляров	-13144
▁атмосферного	-13145
▁благоразумие	-13146
▁определяется	-13147
▁организациям	-13148
▁повседневной	-13149
▁производства	-13150
▁существовать	-13151
▁энциклопедии	-13152
▁незаслуженную	-13153
▁несовершенным	-13154
▁провозглашать	-13155
▁реконструкции	-13156
▁общественность	-13157
бый	-13158
лку	-13159
уан	-13160
чив	-13161
шок	-13162
▁7.	-13163
▁др	-13164
▁ой	-13165
года	-13166
дира	-13167
жина	-13168
мино	-13169
пати	-13170
рипш	-13171
сечь	-13172
сите	-13173
▁102	-13174
▁104	-13175
▁106	-13176
▁аса	-13177
▁гиб	-13178
▁лод	-13179
▁ссо	-13180
▁фло	-13181
▁фсб	-13182
▁хру	-13183
ванно	-13184
ктору	-13185
ногий	-13186
рывно	-13187
совой	-13188
созна	-13189
тилле	-13190
ченко	-13191
▁амра	-13192
▁анри	-13193
▁войн	-13194
▁като	-13195
▁мужь	-13196
▁набо	-13197
▁нава	-13198
▁обме	-13199
▁софи	-13200
▁трое	-13201
▁шара	-13202
▁эфио	-13203
▁ярмо	-13204
ландии	-13205
маться	-13206
саться	-13207
читать	-13208
щность	-13209
▁алиса	-13210
▁берег	-13211
▁верны	-13212
▁верто	-13213
▁верши	-13214
▁водой	-13215
▁воссо	-13216
▁груди	-13217
▁дворе	-13218
▁клеве	-13219
▁крест	-13220
▁метал	-13221
▁мужей	-13222
▁обоих	-13223
▁общую	-13224
▁отказ	-13225
▁отлич	-13226
▁отрек	-13227
▁посты	-13228
▁проле	-13229
▁рабом	-13230
▁рамки	-13231
▁стары	-13232
▁стена	-13233
▁сынов	-13234
▁танец	-13235
▁услуг	-13236
▁хасан	-13237
▁чтить	-13238
кивание	-13239
лывание	-13240
монстри	-13241
нивание	-13242
▁выдачи	-13243
▁газете	-13244
▁горожа	-13245
▁доброй	-13246
▁жертве	-13247
▁какова	-13248
▁минадо	-13249
▁напеча	-13250
▁нежели	-13251
▁оборот	-13252
▁ошибок	-13253
▁павиль	-13254
▁племян	-13255
▁плохие	-13256
▁плохой	-13257
▁помнит	-13258
▁процве	-13259
▁родила	-13260
▁сборам	-13261
▁слушал	-13262
▁суббот	-13263
▁фильмы	-13264
▁чкотуа	-13265
▁швейца	-13266
вливание	-13267
▁автоном	-13268
▁артилле	-13269
▁артиста	-13270
▁ближним	-13271
▁богатый	-13272
▁властей	-13273
▁влиянию	-13274
▁высокие	-13275
▁живущим	-13276
▁закавка	-13277
▁медалью	-13278
▁мыслить	-13279
▁наиболь	-13280
▁особого	-13281
▁ответит	-13282
▁отпуска	-13283
▁позиции	-13284
▁почтить	-13285
▁просмот	-13286
▁простую	-13287
▁раздель	-13288
▁реализу	-13289
▁слушают	-13290
▁собраны	-13291
▁страхом	-13292
▁укрепит	-13293
▁участву	-13294
▁ученика	-13295
▁юстиции	-13296
▁взрослые	-13297
▁возникла	-13298
▁выполнен	-13299
▁выстоять	-13300
▁зачастую	-13301
▁кампания	-13302
▁органами	-13303
▁политика	-13304
▁привычки	-13305
▁процессе	-13306
▁работник	-13307
▁сокровищ	-13308
▁стремясь	-13309
▁структур	-13310
▁теплотой	-13311
▁черкесск	-13312
▁богатства	-13313
▁встретить	-13314
▁гражданин	-13315
▁григорьев	-13316
▁демократи	-13317
▁добавляет	-13318
▁конгрессы	-13319
▁непревзой	-13320
▁позвольте	-13321
▁проведена	-13322
▁процентов	-13323
▁разрушить	-13324
▁самонадея	-13325
▁указанных	-13326
▁воспитании	-13327
▁выполнения	-13328
▁задуматься	-13329
▁инфопортал	-13330
▁обсуждался	-13331
▁общеобразо	-13332
▁переносить	-13333
▁пониженное	-13334
▁постановке	-13335
▁служителем	-13336
▁собираться	-13337
▁специалист	-13338
▁спортсмена	-13339
▁становимся	-13340
▁физических	-13341
▁заболевания	-13342
▁исполняются	-13343
▁исполняющий	-13344
▁мужественно	-13345
▁неверующими	-13346
▁предположим	-13347
▁проповедует	-13348
▁результатов	-13349
▁специальный	-13350
▁уверенности	-13351
▁электроэнер	-13352
▁единственным	-13353
▁используется	-13354
▁квалификации	-13355
▁независимого	-13356
▁неправильные	-13357
▁окончательно	-13358
▁определенный	-13359
▁потерпевшего	-13360
▁преткновения	-13361
▁продемонстри	-13362
▁рассказывают	-13363
▁человеческих	-13364
▁заканчивается	-13365
▁предоставляет	-13366
▁руководителями	-13367
дю	-13368
ед	-13369
биа	-13370
вке	-13371
зит	-13372
зки	-13373
ляя	-13374
мбо	-13375
пал	-13376
ппа	-13377
цио	-13378
чим	-13379
▁05	-13380
▁жу	-13381
▁эр	-13382
бной	-13383
зова	-13384
кает	-13385
льня	-13386
тиль	-13387
цина	-13388
ципа	-13389
цкий	-13390
▁амо	-13391
▁рая	-13392
▁сия	-13393
▁соп	-13394
▁съе	-13395
▁туа	-13396
▁уба	-13397
▁уши	-13398
▁хан	-13399
▁шот	-13400
▁шум	-13401
лейка	-13402
летий	-13403
лённо	-13404
очере	-13405
писей	-13406
преки	-13407
проку	-13408
скири	-13409
ханге	-13410
хелия	-13411
шался	-13412
▁беды	-13413
▁ввел	-13414
▁всём	-13415
▁евой	-13416
▁зага	-13417
▁запи	-13418
▁йорк	-13419
▁лота	-13420
▁несу	-13421
▁осле	-13422
▁робо	-13423
▁тура	-13424
▁удру	-13425
бойный	-13426
ванным	-13427
зовать	-13428
ментом	-13429
мыслен	-13430
рожден	-13431
совича	-13432
ствиям	-13433
стречу	-13434
ступят	-13435
тивной	-13436
чливый	-13437
щенные	-13438
▁ассам	-13439
▁берут	-13440
▁важен	-13441
▁врача	-13442
▁входя	-13443
▁гряду	-13444
▁давая	-13445
▁жилье	-13446
▁зерка	-13447
▁изгна	-13448
▁издан	-13449
▁ищите	-13450
▁корне	-13451
▁крова	-13452
▁лицен	-13453
▁масса	-13454
▁мерзо	-13455
▁непло	-13456
▁неуда	-13457
▁обеих	-13458
▁перес	-13459
▁подре	-13460
▁пойди	-13461
▁помня	-13462
▁потря	-13463
▁призе	-13464
▁пробе	-13465
▁пробы	-13466
▁рефор	-13467
▁родил	-13468
▁свето	-13469
▁совме	-13470
▁татья	-13471
▁уступ	-13472
▁хлопо	-13473
еспособ	-13474
новение	-13475
▁верное	-13476
▁ворота	-13477
▁замене	-13478
▁иеффая	-13479
▁молитв	-13480
▁непода	-13481
▁новыми	-13482
▁ноябрь	-13483
▁опусто	-13484
▁основу	-13485
▁отстаи	-13486
▁перека	-13487
▁перема	-13488
▁планов	-13489
▁подает	-13490
▁попали	-13491
▁психиа	-13492
▁распла	-13493
▁руками	-13494
▁самоле	-13495
▁самыми	-13496
▁сроком	-13497
▁студии	-13498
▁текста	-13499
▁увидит	-13500
▁уходит	-13501
▁членам	-13502
▁ярость	-13503
▁армении	-13504
▁арханге	-13505
▁беззако	-13506
▁большом	-13507
▁ведутся	-13508
▁вопреки	-13509
▁девочка	-13510
▁детской	-13511
▁желаний	-13512
▁женился	-13513
▁захочет	-13514
▁имеющих	-13515
▁ираклий	-13516
▁комисса	-13517
▁модерни	-13518
▁пионеры	-13519
▁поднять	-13520
▁правосу	-13521
▁приемле	-13522
▁пристра	-13523
▁разводи	-13524
▁собрали	-13525
▁услышат	-13526
▁училище	-13527
▁целиком	-13528
ционально	-13529
▁автомати	-13530
▁братство	-13531
▁говорила	-13532
▁заметить	-13533
▁любимого	-13534
▁меняется	-13535
▁народным	-13536
▁небольшо	-13537
▁незнаком	-13538
▁одержать	-13539
▁означало	-13540
▁очистить	-13541
▁перерабо	-13542
▁покинуть	-13543
▁предметы	-13544
▁привязан	-13545
▁приорите	-13546
▁ситуаций	-13547
▁совершал	-13548
▁содержит	-13549
▁созданию	-13550
▁творение	-13551
▁чувством	-13552
▁языковой	-13553
▁женщинами	-13554
▁качествах	-13555
▁крещением	-13556
▁маленький	-13557
▁междунаро	-13558
▁навстречу	-13559
▁отвергать	-13560
▁планирует	-13561
▁поручению	-13562
▁режиссера	-13563
▁серьезных	-13564
▁служебный	-13565
▁абазинские	-13566
▁выполнение	-13567
▁интересует	-13568
▁окружающие	-13569
▁оставшихся	-13570
▁остановить	-13571
▁первенства	-13572
▁приложении	-13573
▁разочарова	-13574
▁собираются	-13575
▁содержатся	-13576
▁творчестве	-13577
▁технологий	-13578
▁встречаются	-13579
▁государству	-13580
▁комментарии	-13581
▁отправиться	-13582
▁парламентом	-13583
▁престарелых	-13584
▁приобретать	-13585
▁продолжение	-13586
▁прохождения	-13587
▁разработать	-13588
▁рассмотрены	-13589
▁собеседника	-13590
▁специальной	-13591
▁оборудование	-13592
▁общеобразова	-13593
▁практическую	-13594
▁раскаивается	-13595
▁человечеству	-13596
▁дружественных	-13597
▁замечательный	-13598
▁искупительную	-13599
▁наркотических	-13600
▁подразделения	-13601
▁почувствовать	-13602
▁свидетельства	-13603
▁взаимодействии	-13604
▁контролировать	-13605
▁финансирование	-13606
▁госуниверситета	-13607
▁противодействие	-13608
жә	-13609
хы	-13610
яр	-13611
нду	-13612
рив	-13613
сль	-13614
сне	-13615
тце	-13616
хар	-13617
▁ут	-13618
дара	-13619
дете	-13620
жите	-13621
лиас	-13622
лочь	-13623
мера	-13624
мный	-13625
нкай	-13626
▁14.	-13627
▁вио	-13628
▁кот	-13629
▁мае	-13630
▁оса	-13631
▁оси	-13632
▁соз	-13633
▁уво	-13634
▁хам	-13635
▁хин	-13636
дохей	-13637
лкать	-13638
нятся	-13639
произ	-13640
ровый	-13641
струи	-13642
танди	-13643
шатся	-13644
▁1980	-13645
▁база	-13646
▁банк	-13647
▁беду	-13648
▁ввер	-13649
▁впро	-13650
▁геде	-13651
▁длин	-13652
▁елка	-13653
▁иван	-13654
▁илью	-13655
▁лече	-13656
▁лжец	-13657
▁меду	-13658
▁мозг	-13659
▁омар	-13660
▁офис	-13661
▁пале	-13662
▁сана	-13663
▁ужин	-13664
▁штам	-13665
лётный	-13666
провер	-13667
▁18.11	-13668
▁башню	-13669
▁врага	-13670
▁григо	-13671
▁драмы	-13672
▁жизне	-13673
▁звезд	-13674
▁играх	-13675
▁кадро	-13676
▁келеш	-13677
▁кодек	-13678
▁курор	-13679
▁марию	-13680
▁марфы	-13681
▁масло	-13682
▁масси	-13683
▁науру	-13684
▁плена	-13685
▁понес	-13686
▁пошла	-13687
▁приба	-13688
▁прира	-13689
▁самоо	-13690
▁саран	-13691
▁сарра	-13692
▁серти	-13693
▁смеша	-13694
▁снима	-13695
▁стари	-13696
▁столб	-13697
▁творя	-13698
▁текут	-13699
▁трепе	-13700
▁указы	-13701
▁шахма	-13702
▁эрика	-13703
▁эшера	-13704
государ	-13705
скивать	-13706
тившись	-13707
▁авесса	-13708
▁апреле	-13709
▁аресто	-13710
▁аудито	-13711
▁берите	-13712
▁взыска	-13713
▁вклады	-13714
▁выдели	-13715
▁годами	-13716
▁громко	-13717
▁зданий	-13718
▁зрелые	-13719
▁искали	-13720
▁кварац	-13721
▁лицами	-13722
▁марины	-13723
▁обменя	-13724
▁освеща	-13725
▁отража	-13726
▁палата	-13727
▁партне	-13728
▁переез	-13729
▁подкре	-13730
▁предъя	-13731
▁рассер	-13732
▁растут	-13733
▁секции	-13734
▁солдат	-13735
▁тотчас	-13736
▁ходили	-13737
▁японии	-13738
чиваться	-13739
▁автанди	-13740
▁алексея	-13741
▁брачный	-13742
▁быстрее	-13743
▁внесены	-13744
▁восклик	-13745
▁выпуске	-13746
▁галском	-13747
▁городом	-13748
▁декабре	-13749
▁дружить	-13750
▁дьяволу	-13751
▁железно	-13752
▁камнями	-13753
▁картину	-13754
▁картины	-13755
▁мессией	-13756
▁находит	-13757
▁недолго	-13758
▁подумал	-13759
▁пожилым	-13760
▁простых	-13761
▁рабочий	-13762
▁разному	-13763
▁санитар	-13764
▁сельхоз	-13765
▁смотрел	-13766
▁увидела	-13767
▁условно	-13768
▁участки	-13769
▁явилось	-13770
рительный	-13771
▁бедствий	-13772
▁генпроку	-13773
▁заметили	-13774
▁замечать	-13775
▁запретил	-13776
▁исполнен	-13777
▁компания	-13778
▁конфиска	-13779
▁мардохей	-13780
▁мучениям	-13781
▁настроен	-13782
▁патриоти	-13783
▁перечень	-13784
▁подавлен	-13785
▁подлежит	-13786
▁подобной	-13787
▁посещают	-13788
▁способов	-13789
▁способом	-13790
▁умершего	-13791
▁депутатом	-13792
▁евангелие	-13793
▁ивановича	-13794
▁миссионер	-13795
▁наступает	-13796
▁оппозиции	-13797
▁освежение	-13798
▁отдохнуть	-13799
▁половиной	-13800
▁поступаем	-13801
▁проведены	-13802
▁произноси	-13803
▁психологи	-13804
▁разделяет	-13805
▁решимость	-13806
▁служителя	-13807
▁сражались	-13808
▁стремимся	-13809
▁участвуем	-13810
▁английский	-13811
▁восстанови	-13812
▁культурные	-13813
▁ниспослано	-13814
▁переживать	-13815
▁подражания	-13816
▁помазанным	-13817
▁посмотрите	-13818
▁прекрасной	-13819
▁присутству	-13820
▁свидетелям	-13821
▁экспозиция	-13822
▁большинстве	-13823
▁возвещателя	-13824
▁генеральной	-13825
▁инфопорталу	-13826
▁непрестанно	-13827
▁путешествие	-13828
▁возвращаются	-13829
▁григорьевича	-13830
▁подтверждает	-13831
▁празднованию	-13832
▁старейшинами	-13833
▁человеческое	-13834
▁международные	-13835
▁организациями	-13836
▁происхождение	-13837
▁следовательно	-13838
▁тысячелетнего	-13839
▁инвестпрограммы	-13840
▁профессионализм	-13841
▁художественного	-13842
ёз	-13843
201	-13844
дну	-13845
дца	-13846
льд	-13847
ляй	-13848
рки	-13849
хри	-13850
чре	-13851
▁ая	-13852
вную	-13853
лайн	-13854
рево	-13855
сеть	-13856
тика	-13857
▁113	-13858
▁115	-13859
▁116	-13860
▁афи	-13861
▁бун	-13862
▁вир	-13863
▁гео	-13864
▁ено	-13865
▁леп	-13866
▁ник	-13867
▁плы	-13868
▁убь	-13869
▁уяз	-13870
▁шар	-13871
▁шут	-13872
дария	-13873
нских	-13874
рядка	-13875
фония	-13876
циден	-13877
▁1988	-13878
▁ахав	-13879
▁беда	-13880
▁взве	-13881
▁взяв	-13882
▁воца	-13883
▁вход	-13884
▁вымы	-13885
▁даге	-13886
▁залы	-13887
▁изма	-13888
▁июнь	-13889
▁коко	-13890
▁коно	-13891
▁нато	-13892
▁ниге	-13893
▁окку	-13894
▁окра	-13895
▁отчу	-13896
▁пада	-13897
▁раны	-13898
▁секу	-13899
ванное	-13900
ведена	-13901
ология	-13902
ренных	-13903
стровь	-13904
цевать	-13905
чинава	-13906
▁алиас	-13907
▁аудио	-13908
▁гимна	-13909
▁диуан	-13910
▁долла	-13911
▁дошко	-13912
▁драма	-13913
▁думая	-13914
▁желал	-13915
▁ирина	-13916
▁исраи	-13917
▁итали	-13918
▁иудея	-13919
▁казах	-13920
▁кругу	-13921
▁кузне	-13922
▁лазба	-13923
▁нелов	-13924
▁новей	-13925
▁подка	-13926
▁полка	-13927
▁полях	-13928
▁похож	-13929
▁притч	-13930
▁пшени	-13931
▁разлу	-13932
▁сопря	-13933
▁стада	-13934
▁сцены	-13935
▁танцы	-13936
▁ходят	-13937
▁целям	-13938
▁эдеме	-13939
▁энвер	-13940
гладить	-13941
дничать	-13942
ционная	-13943
экономи	-13944
▁аарона	-13945
▁галаад	-13946
▁дворце	-13947
▁езекии	-13948
▁играют	-13949
▁ложным	-13950
▁неемии	-13951
▁ниневи	-13952
▁онлайн	-13953
▁открыт	-13954
▁певица	-13955
▁писали	-13956
▁помнят	-13957
▁притес	-13958
▁фальси	-13959
кусинкай	-13960
▁аввакум	-13961
▁апсуара	-13962
▁бабушка	-13963
▁бывшего	-13964
▁ведется	-13965
▁высокой	-13966
▁гаранти	-13967
▁голосом	-13968
▁дедушка	-13969
▁детские	-13970
▁записал	-13971
▁инциден	-13972
▁мужчину	-13973
▁образца	-13974
▁оправды	-13975
▁острова	-13976
▁пачалиа	-13977
▁перегру	-13978
▁перекры	-13979
▁подошел	-13980
▁покажет	-13981
▁проходя	-13982
▁прошлое	-13983
▁рабочую	-13984
▁римской	-13985
▁родиной	-13986
▁родными	-13987
▁спикера	-13988
▁укрепил	-13989
▁участке	-13990
▁учебных	-13991
▁фильмов	-13992
валивание	-13993
тягивание	-13994
▁абхазфед	-13995
▁безграни	-13996
▁больнице	-13997
▁верности	-13998
▁водоснаб	-13999
▁возьмите	-14000
▁временно	-14001
▁встретил	-14002
▁даровано	-14003
▁жениться	-14004
▁изнасило	-14005
▁катастро	-14006
▁миротвор	-14007
▁муниципа	-14008
▁напрямую	-14009
▁небесным	-14010
▁немногие	-14011
▁площадка	-14012
▁полноцен	-14013
▁помогала	-14014
▁предводи	-14015
▁приходил	-14016
▁равнодуш	-14017
▁рассчита	-14018
▁сведений	-14019
▁случайно	-14020
▁совершит	-14021
▁возглавля	-14022
▁изучающий	-14023
▁искренних	-14024
▁конкурсов	-14025
▁намерение	-14026
▁неприемле	-14027
▁обвинения	-14028
▁отбывания	-14029
▁подобного	-14030
▁помогайте	-14031
▁попечения	-14032
▁причиняет	-14033
▁работники	-14034
▁священник	-14035
▁ситуациям	-14036
▁следующее	-14037
▁собеседни	-14038
▁составила	-14039
▁супругами	-14040
▁характери	-14041
▁четвертый	-14042
▁библиотеке	-14043
▁вернувшись	-14044
▁заключении	-14045
▁записанных	-14046
▁исполнению	-14047
▁ненавидеть	-14048
▁основанные	-14049
▁отражается	-14050
▁подтвержда	-14051
▁показатели	-14052
▁прелюбодей	-14053
▁продолжаем	-14054
▁референдум	-14055
▁студентами	-14056
▁устройства	-14057
▁кварацхелия	-14058
▁настольному	-14059
▁проводились	-14060
▁происходить	-14061
▁развлечение	-14062
▁слушателями	-14063
▁демонстрации	-14064
▁сексуального	-14065
▁строительных	-14066
▁несовершенных	-14067
▁повествование	-14068
▁многочисленные	-14069
▁представителям	-14070
ос	-14071
ана	-14072
бби	-14073
где	-14074
дко	-14075
дна	-14076
мик	-14077
моз	-14078
нья	-14079
таж	-14080
хло	-14081
чах	-14082
▁79	-14083
▁82	-14084
▁аԥ	-14085
▁рю	-14086
бище	-14087
вело	-14088
дора	-14089
дуть	-14090
етра	-14091
нило	-14092
нись	-14093
скир	-14094
ссии	-14095
троп	-14096
шала	-14097
шник	-14098
ёнка	-14099
▁135	-14100
▁аки	-14101
▁ало	-14102
▁бру	-14103
▁ваа	-14104
▁гур	-14105
▁усу	-14106
▁шоу	-14107
важно	-14108
езная	-14109
затор	-14110
резка	-14111
слать	-14112
▁вару	-14113
▁вело	-14114
▁вери	-14115
▁выки	-14116
▁выхо	-14117
▁гава	-14118
▁днях	-14119
▁кров	-14120
▁лаша	-14121
▁моле	-14122
▁мост	-14123
▁навя	-14124
▁отта	-14125
▁раши	-14126
▁рыбы	-14127
▁слуг	-14128
▁соче	-14129
▁спол	-14130
▁судо	-14131
гивать	-14132
носный	-14133
чевать	-14134
▁аҧсны	-14135
▁брига	-14136
▁всена	-14137
▁гонча	-14138
▁ждали	-14139
▁кодор	-14140
▁кончи	-14141
▁манда	-14142
▁михей	-14143
▁наход	-14144
▁несут	-14145
▁неуго	-14146
▁подно	-14147
▁подсе	-14148
▁полон	-14149
▁порту	-14150
▁прича	-14151
▁сарии	-14152
▁стань	-14153
▁уолле	-14154
▁фронт	-14155
▁черты	-14156
▁ярмар	-14157
беевича	-14158
ленными	-14159
рывание	-14160
▁бедных	-14161
▁блестя	-14162
▁боится	-14163
▁бросил	-14164
▁всяких	-14165
▁газета	-14166
▁декора	-14167
▁заботы	-14168
▁кодекс	-14169
▁колени	-14170
▁невест	-14171
▁особая	-14172
▁победе	-14173
▁покупа	-14174
▁похоже	-14175
▁премия	-14176
▁пункты	-14177
▁сидеть	-14178
▁скажем	-14179
▁скрыть	-14180
▁страхе	-14181
▁стресс	-14182
▁толсто	-14183
▁тюрьмы	-14184
▁филипп	-14185
▁центри	-14186
▁чистым	-14187
вергнуть	-14188
мировать	-14189
▁автором	-14190
▁болезнь	-14191
▁братьях	-14192
▁галилей	-14193
▁десятки	-14194
▁донести	-14195
▁инвента	-14196
▁интегра	-14197
▁исраила	-14198
▁кортава	-14199
▁круглый	-14200
▁лишился	-14201
▁наличии	-14202
▁настало	-14203
▁обретем	-14204
▁оказана	-14205
▁опытных	-14206
▁оставив	-14207
▁ошибках	-14208
▁перепле	-14209
▁почтили	-14210
▁прочего	-14211
▁рабочее	-14212
▁римский	-14213
▁русских	-14214
▁сложный	-14215
▁сравнил	-14216
▁тетради	-14217
▁установ	-14218
▁учителю	-14219
▁хвалить	-14220
▁чужезем	-14221
нительный	-14222
промышлен	-14223
▁астамура	-14224
▁домашних	-14225
▁допустим	-14226
▁животное	-14227
▁комитете	-14228
▁молодому	-14229
▁народные	-14230
▁нарушить	-14231
▁необосно	-14232
▁осмотрел	-14233
▁писаниях	-14234
▁побороть	-14235
▁почитать	-14236
▁преподно	-14237
▁проблеме	-14238
▁прогнози	-14239
▁проектах	-14240
▁процесса	-14241
▁проявила	-14242
▁проявляй	-14243
▁радуются	-14244
▁случаями	-14245
▁сохранил	-14246
▁сохранит	-14247
▁старания	-14248
▁стараюсь	-14249
▁телекана	-14250
▁убийства	-14251
фицировать	-14252
▁благодать	-14253
▁ближайшие	-14254
▁влажность	-14255
▁всемирной	-14256
▁вспомните	-14257
▁выражения	-14258
▁действиях	-14259
▁диаспорой	-14260
▁заявлений	-14261
▁известные	-14262
▁нарушения	-14263
▁несчастья	-14264
▁обсуждали	-14265
▁памятнику	-14266
▁поддаться	-14267
▁подражаем	-14268
▁позволили	-14269
▁профессии	-14270
▁проходила	-14271
▁разделить	-14272
▁разрешить	-14273
▁раскаялся	-14274
▁серьезная	-14275
▁спиритизм	-14276
▁татарстан	-14277
▁хозяйство	-14278
▁ценностей	-14279
▁английском	-14280
▁библейская	-14281
▁категориях	-14282
▁ликвидации	-14283
▁межгосудар	-14284
▁оперативно	-14285
▁поддержкой	-14286
▁подписания	-14287
▁поклонению	-14288
▁посланники	-14289
▁посольство	-14290
▁правильные	-14291
▁привлекает	-14292
▁приготовил	-14293
▁пятнадцати	-14294
▁различными	-14295
▁своевремен	-14296
▁совершении	-14297
▁владычества	-14298
▁вознаградит	-14299
▁воображение	-14300
▁добровольцы	-14301
▁железнодоро	-14302
▁официальным	-14303
▁подробности	-14304
▁пользовался	-14305
▁противостоя	-14306
▁содействует	-14307
▁традиционно	-14308
▁формировать	-14309
▁единственная	-14310
▁материальных	-14311
▁непревзойден	-14312
▁организованы	-14313
▁политическую	-14314
▁председателю	-14315
▁представляли	-14316
▁приднестровь	-14317
▁прояснениями	-14318
▁автотранспорт	-14319
▁предупреждает	-14320
▁стихотворения	-14321
▁исследователей	-14322
▁руководствуясь	-14323
▁подготавливайте	-14324
ял	-14325
бою	-14326
гию	-14327
дый	-14328
зло	-14329
лер	-14330
нку	-14331
сим	-14332
▁ес	-14333
▁уй	-14334
▁яз	-14335
беть	-14336
бург	-14337
лоть	-14338
мбар	-14339
ныне	-14340
пина	-14341
сной	-14342
сова	-14343
стны	-14344
сюда	-14345
тано	-14346
▁111	-14347
▁121	-14348
▁126	-14349
▁133	-14350
▁189	-14351
▁ама	-14352
▁вак	-14353
▁жре	-14354
▁зво	-14355
▁изг	-14356
▁лот	-14357
▁муд	-14358
▁нов	-14359
▁пое	-14360
▁рве	-14361
▁снг	-14362
▁шпа	-14363
▁щит	-14364
бного	-14365
лакти	-14366
мания	-14367
нному	-14368
прово	-14369
стное	-14370
щиков	-14371
▁блуд	-14372
▁дала	-14373
▁дару	-14374
▁джар	-14375
▁думы	-14376
▁зату	-14377
▁илий	-14378
▁инве	-14379
▁инду	-14380
▁инжи	-14381
▁июне	-14382
▁крае	-14383
▁льго	-14384
▁мана	-14385
▁марь	-14386
▁насо	-14387
▁неем	-14388
▁неле	-14389
▁омер	-14390
▁офиц	-14391
▁охот	-14392
▁пило	-14393
▁поси	-14394
▁сине	-14395
▁сиро	-14396
▁съез	-14397
▁твоё	-14398
▁твёр	-14399
▁топо	-14400
▁члоу	-14401
венным	-14402
гается	-14403
говать	-14404
менной	-14405
нарном	-14406
сывать	-14407
терфор	-14408
торами	-14409
▁ажиба	-14410
▁долга	-14411
▁заказ	-14412
▁звуко	-14413
▁летие	-14414
▁марга	-14415
▁метод	-14416
▁нации	-14417
▁ничем	-14418
▁очерк	-14419
▁поток	-14420
▁решит	-14421
▁скажу	-14422
▁стиму	-14423
▁татлу	-14424
▁темой	-14425
▁хвалу	-14426
▁цитру	-14427
влялись	-14428
дневный	-14429
енность	-14430
[...]
